<unk>	0
<s>	0
</s>	0
.	-2.9651
(	-3.1478
▁	-3.38992
▁}	-3.41147
▁{	-3.46906
)	-3.52935
▁=	-3.95928
);	-4.0361
;	-4.06357
▁public	-4.13868
,	-4.28562
▁(	-4.29796
▁return	-4.36654
_	-4.43732
s	-4.43752
()	-4.45579
();	-4.62507
▁void	-4.63048
▁if	-4.71322
get	-4.9884
▁null	-5.04086
▁new	-5.054
("	-5.20381
▁this	-5.22343
▁get	-5.25303
▁"	-5.38772
▁String	-5.44174
▁+	-5.47188
String	-5.54595
▁set	-5.60383
▁==	-5.66872
▁int	-5.71238
Exception	-5.73614
i	-5.82294
▁i	-5.8397
");	-5.92855
());	-5.99597
int	-6.01806
().	-6.03303
set	-6.03411
▁!=	-6.03827
Name	-6.09553
▁boolean	-6.09677
▁private	-6.1167
add	-6.1466
▁e	-6.15415
",	-6.16698
d	-6.17232
Type	-6.17956
▁throws	-6.20979
ed	-6.22098
this	-6.25089
▁else	-6.30087
new	-6.30482
▁for	-6.33335
e	-6.37517
[	-6.40625
Object	-6.41873
▁false	-6.41959
▁protected	-6.48146
er	-6.50032
▁true	-6.50941
List	-6.51296
:	-6.52523
▁m	-6.54037
m	-6.5794
())	-6.58183
▁value	-6.5837
r	-6.58385
is	-6.58953
ing	-6.59112
▁try	-6.60295
c	-6.60942
▁catch	-6.61078
S	-6.61879
▁throw	-6.6257
Id	-6.65251
(),	-6.65648
Value	-6.66409
2	-6.68759
length	-6.71549
));	-6.71578
){	-6.71958
▁0;	-6.72204
<	-6.7235
f	-6.73173
p	-6.7427
▁add	-6.74865
▁is	-6.75081
▁<	-6.76381
x	-6.77746
a	-6.77987
File	-6.79256
n	-6.81258
▁result	-6.82244
▁&&	-6.83409
[]	-6.84589
Data	-6.85478
y	-6.87379
D	-6.87452
Node	-6.88148
name	-6.88712
>	-6.89421
1	-6.92773
▁Object	-6.92776
append	-6.94289
ID	-6.96008
▁p	-6.96095
=	-6.97779
Property	-6.98025
▁:	-6.98929
id	-6.99157
To	-7.01631
size	-7.02312
equals	-7.04722
b	-7.07289
t	-7.0803
▁_	-7.08308
▁a	-7.08634
▁c	-7.09109
o	-7.09282
▁final	-7.10662
Element	-7.12383
▁create	-7.13148
Index	-7.15114
▁-	-7.16283
Event	-7.17462
Factory	-7.18355
UI	-7.18359
▁name	-7.20049
g	-7.20075
P	-7.20666
Listener	-7.21403
I	-7.21753
▁f	-7.21963
T	-7.2246
▁s	-7.23529
C	-7.23575
++)	-7.23986
▁System	-7.24085
▁test	-7.24398
null	-7.24778
Map	-7.25207
E	-7.25967
out	-7.2614
toString	-7.26704
Model	-7.2797
▁0)	-7.28659
Set	-7.28876
v	-7.29342
F	-7.29417
final	-7.29928
]	-7.29961
Class	-7.30223
Panel	-7.30282
Descriptor	-7.30641
B	-7.31687
println	-7.32246
▁||	-7.32589
l	-7.33085
Manager	-7.33864
Item	-7.33901
type	-7.34231
"	-7.34298
Info	-7.34977
▁double	-7.37179
value	-7.37184
3	-7.38512
M	-7.38737
Text	-7.39351
remove	-7.39472
j	-7.39914
Message	-7.40303
▁b	-7.40504
State	-7.40925
▁j	-7.41168
X	-7.41862
Path	-7.41998
▁(!	-7.42479
▁to	-7.43286
A	-7.43606
Context	-7.43874
▁x	-7.44411
▁t	-7.44926
▁*	-7.4584
next	-7.46623
L	-7.47854
▁>	-7.48973
Size	-7.49107
▁instanceof	-7.49416
In	-7.49458
/	-7.50067
Key	-7.50532
▁super	-7.51019
▁while	-7.51092
put	-7.51126
▁n	-7.51184
Table	-7.51316
Time	-7.52639
Count	-7.5359
-	-7.53782
▁in	-7.56647
▁index	-7.57098
Button	-7.57175
in	-7.57231
able	-7.58105
Action	-7.58306
R	-7.58452
Y	-7.58931
▁case	-7.59123
";	-7.5981
class	-7.60433
getName	-7.60636
G	-7.60944
true	-7.61642
▁the	-7.62437
▁0	-7.62537
or	-7.63028
k	-7.63589
Field	-7.64263
create	-7.64316
H	-7.64342
index	-7.65042
N	-7.65102
▁IOException	-7.66474
key	-7.66513
al	-7.66599
▁key	-7.66638
Date	-7.66744
View	-7.67255
Color	-7.6908
▁I	-7.6925
▁?	-7.69502
V	-7.7041
w	-7.7166
Error	-7.72126
Component	-7.72154
▁log	-7.7264
▁data	-7.72794
▁assertEquals	-7.72867
u	-7.73061
java	-7.7374
Group	-7.73968
J	-7.74695
▁y	-7.75319
boolean	-7.76312
▁object	-7.76736
Service	-7.76976
▁v	-7.77223
h	-7.77663
false	-7.77713
▁Exception	-7.77932
Code	-7.78021
▁l	-7.78732
Entry	-7.78766
User	-7.7884
▁file	-7.80013
▁r	-7.80058
W	-7.80853
▁remove	-7.80925
▁node	-7.81004
setText	-7.82166
Request	-7.82314
▁File	-7.82704
Number	-7.83971
Line	-7.84862
data	-7.85412
▁id	-7.8609
▁not	-7.86158
▁type	-7.86817
▁o	-7.86933
▁update	-7.87965
event	-7.88165
▁out	-7.88225
(){	-7.88312
hasNext	-7.88678
to	-7.89824
▁g	-7.89913
ar	-7.90184
Handler	-7.90561
Label	-7.91381
▁List	-7.91535
it	-7.91803
];	-7.93136
▁Integer	-7.93248
▁J	-7.93562
log	-7.94194
iterator	-7.94212
re	-7.94243
"),	-7.94394
▁current	-7.94429
Image	-7.94591
▁list	-7.94614
close	-7.94614
▁start	-7.94929
Test	-7.95327
Package	-7.96183
Status	-7.96201
Command	-7.96557
{	-7.97512
▁long	-7.9764
▁getString	-7.97642
For	-7.97831
▁+=	-7.98348
ation	-7.98398
Document	-7.98975
0	-7.99165
es	-7.99946
on	-8.00903
Connection	-8.01172
Point	-8.01302
▁ex	-8.01444
▁message	-8.01914
file	-8.0224
"));	-8.0274
Result	-8.02752
Position	-8.03418
Page	-8.04353
▁check	-8.05387
▁sb	-8.05821
Source	-8.0586
Tree	-8.06115
Config	-8.06294
Of	-8.06444
▁d	-8.07089
en	-8.07915
From	-8.08439
Array	-8.08731
Input	-8.08771
debug	-8.0884
Row	-8.0907
'	-8.09092
start	-8.09886
Properties	-8.09948
▁!	-8.09998
▁old	-8.10051
▁break	-8.10231
ion	-8.1035
▁StringBuffer	-8.1039
node	-8.11116
feature	-8.11284
Filter	-8.11299
error	-8.11445
▁parent	-8.12053
Ref	-8.12077
line	-8.12454
4	-8.12592
Resource	-8.12644
write	-8.1271
Bean	-8.12757
Level	-8.14698
Menu	-8.15182
Iterator	-8.1523
Attribute	-8.16619
Query	-8.16812
Session	-8.16825
Frame	-8.17213
current	-8.17312
▁java	-8.17522
Response	-8.17566
Dialog	-8.17742
▁text	-8.18013
z	-8.18313
lang	-8.18596
Mode	-8.18982
▁re	-8.19769
▁buffer	-8.2003
list	-8.2093
object	-8.2112
Changed	-8.2116
▁0,	-8.21208
Selection	-8.21488
1.	-8.21514
Content	-8.22276
Method	-8.224
▁h	-8.2254
st	-8.22893
▁>=	-8.23277
Integer	-8.23636
New	-8.23639
clear	-8.239
1,	-8.23914
▁fire	-8.24171
▁event	-8.24201
URL	-8.24283
▁logger	-8.24828
▁instance	-8.24828
printStackTrace	-8.24898
Tag	-8.2496
Re	-8.25203
Buffer	-8.25465
▁user	-8.26135
an	-8.26517
awt	-8.2704
("_	-8.27246
Style	-8.27289
U	-8.2754
▁w	-8.27617
Reference	-8.27751
▁it	-8.28274
▁"_	-8.28407
Instance	-8.28483
Utils	-8.28503
K	-8.29197
Start	-8.29538
")	-8.29622
Control	-8.29799
test	-8.29815
Format	-8.30338
ActionListener	-8.3042
double	-8.30435
Window	-8.30771
Width	-8.30806
getMessage	-8.30934
Form	-8.31019
All	-8.31358
Log	-8.31497
▁Vector	-8.31983
▁element	-8.32577
Address	-8.32729
Column	-8.32801
Server	-8.32963
▁obj	-8.33473
On	-8.33661
▁IllegalArgument	-8.34009
▁local	-8.34023
▁float	-8.34074
▁ArrayList	-8.34404
▁max	-8.34534
getValue	-8.34554
▁row	-8.34589
getInstance	-8.34807
at	-8.34896
▁be	-8.35338
No	-8.35395
Sub	-8.35462
▁size	-8.35526
▁'	-8.35585
▁item	-8.36203
Stream	-8.36412
▁1;	-8.36436
].	-8.36689
Parameter	-8.36947
▁str	-8.37024
Base	-8.37257
▁/	-8.37491
Container	-8.37723
Dir	-8.37881
Editor	-8.37901
user	-8.37922
*	-8.38102
row	-8.38236
▁synchronized	-8.38338
Graph	-8.38694
Constants	-8.38859
ic	-8.38903
end	-8.39269
text	-8.39609
▁/*	-8.39676
O	-8.40007
Location	-8.40209
(0,	-8.4032
▁init	-8.40378
Task	-8.40446
==	-8.40519
Vector	-8.40673
By	-8.40782
Length	-8.40995
Record	-8.41402
▁*/	-8.4151
▁write	-8.41551
End	-8.41682
info	-8.41727
obj	-8.41966
▁context	-8.41969
Header	-8.42015
Entity	-8.42199
"))	-8.42485
▁S	-8.4258
▁Iterator	-8.43177
result	-8.43385
Collection	-8.43751
▁assertTrue	-8.43914
+	-8.4394
param	-8.43984
Cache	-8.44307
parent	-8.44363
contains	-8.44463
▁do	-8.44737
▁ret	-8.45317
Impl	-8.45354
XML	-8.45573
At	-8.45982
▁"+	-8.46781
IOException	-8.47081
Update	-8.47548
▁label	-8.47633
System	-8.47961
▁path	-8.47982
▁byte	-8.48062
Client	-8.48075
getClass	-8.48238
Output	-8.48261
Configuration	-8.48704
And	-8.48854
ch	-8.49047
path	-8.49138
▁has	-8.49199
▁load	-8.49337
Thread	-8.49514
Version	-8.49725
TYPE	-8.49888
.");	-8.4993
Adapter	-8.49983
item	-8.49994
▁read	-8.50417
Port	-8.5045
▁end	-8.50497
ent	-8.50571
un	-8.5062
=0;	-8.5087
▁model	-8.51043
▁param	-8.51196
read	-8.5148
VALUE	-8.51734
Project	-8.51819
▁run	-8.51888
++;	-8.51987
max	-8.52112
▁listener	-8.5224
5	-8.52287
▁request	-8.5232
Link	-8.52937
com	-8.52956
▁1)	-8.52958
▁count	-8.53027
Cell	-8.53184
ex	-8.53271
▁JButton	-8.53796
el	-8.54005
▁buf	-8.54128
▁my	-8.54557
Root	-8.54744
▁session	-8.55829
update	-8.56192
▁line	-8.56527
▁P	-8.5679
▁table	-8.56809
Expression	-8.57008
▁source	-8.57021
description	-8.5715
Layout	-8.57421
substring	-8.57621
!=	-8.57808
Util	-8.57886
▁target	-8.5793
im	-8.58167
pos	-8.58446
Search	-8.58449
Unit	-8.58687
setEnabled	-8.58733
message	-8.58744
NAME	-8.58766
Token	-8.59089
ED	-8.59507
▁msg	-8.59566
Icon	-8.59695
Height	-8.59796
Pane	-8.60577
Descriptors	-8.60705
getString	-8.6075
Controller	-8.60766
str	-8.61023
▁map	-8.61092
Description	-8.61406
Template	-8.61428
local	-8.61453
Range	-8.61621
up	-8.61817
▁SQLException	-8.61898
▁on	-8.62253
as	-8.62339
Out	-8.62392
min	-8.62703
2.	-8.62809
▁action	-8.62903
+"	-8.63189
▁Math	-8.6329
▁of	-8.63359
▁"";	-8.63371
RuntimeException	-8.63792
Int	-8.64064
▁iter	-8.64161
Block	-8.64162
Values	-8.64369
▁child	-8.64451
ActionEvent	-8.64496
long	-8.64687
Double	-8.64783
Store	-8.64808
Plugin	-8.6492
Offset	-8.65285
Long	-8.65393
Default	-8.65454
Reader	-8.65562
Child	-8.65656
▁default	-8.6582
▁C	-8.65933
▁Rectangle	-8.65955
ur	-8.65982
Target	-8.66003
▁next	-8.66085
The	-8.66146
▁JPanel	-8.66174
getText	-8.66328
▁state	-8.66458
URI	-8.67036
isEmpty	-8.67117
▁1	-8.67216
▁show	-8.67218
print	-8.67246
▁last	-8.67506
▁find	-8.6762
RE	-8.67776
width	-8.67817
ly	-8.67821
byte	-8.67959
Rule	-8.68115
Un	-8.68131
Helper	-8.68198
Url	-8.68199
ip	-8.68436
▁other	-8.68668
table	-8.68686
With	-8.69164
De	-8.69185
▁fail	-8.6929
8	-8.69429
Add	-8.69475
▁input	-8.69558
▁toString	-8.69571
Process	-8.70034
Not	-8.70068
element	-8.70083
Builder	-8.70137
0,	-8.7037
Change	-8.70636
ER	-8.70637
Z	-8.70665
getId	-8.70696
ment	-8.70773
Tab	-8.70989
getProperty	-8.71095
Order	-8.71167
source	-8.71261
MenuItem	-8.71318
map	-8.71699
(0);	-8.71723
indexOf	-8.7197
As	-8.72194
de	-8.72377
Writer	-8.72519
err	-8.72925
val	-8.73023
format	-8.73067
▁assert	-8.73156
Attributes	-8.73174
▁-1;	-8.73304
▁res	-8.73312
▁Element	-8.73537
le	-8.73627
model	-8.7386
Provider	-8.74142
▁root	-8.74232
ul	-8.74274
()));	-8.74307
▁from	-8.744
▁process	-8.74533
old	-8.7459
▁error	-8.74654
float	-8.74689
Box	-8.74824
Part	-8.74917
valueOf	-8.74999
check	-8.75057
xml	-8.75064
}	-8.75464
Player	-8.75565
Boolean	-8.75779
et	-8.75786
ResourceLocator	-8.75958
▁save	-8.76525
os	-8.76569
▁val	-8.76653
my	-8.7673
7	-8.76767
q	-8.77118
io	-8.77336
Pos	-8.77337
="	-8.77569
InputStream	-8.77968
▁clear	-8.78031
▁num	-8.78235
Folder	-8.78372
▁temp	-8.78493
no	-8.78506
▁print	-8.78582
▁column	-8.78747
am	-8.79119
Parser	-8.79681
Variable	-8.79801
Font	-8.79818
▁<=	-8.80107
Local	-8.80163
IN	-8.80514
▁&	-8.80639
▁property	-8.80835
Access	-8.81086
ator	-8.8134
Str	-8.81359
▁url	-8.81422
▁Point	-8.81637
delete	-8.81641
Call	-8.82061
▁entry	-8.82387
DB	-8.8239
▁Dimension	-8.825
▁tmp	-8.82571
▁handle	-8.82622
▁col	-8.82757
▁method	-8.82805
▁un	-8.82874
Display	-8.82884
has	-8.83194
▁min	-8.83238
▁de	-8.83731
▁0);	-8.83884
Compose	-8.83968
Directory	-8.83972
do	-8.83975
Doc	-8.84161
▁itemProperty	-8.84242
()))	-8.848
▁query	-8.85038
action	-8.85052
Literals	-8.85123
load	-8.85271
Char	-8.85384
ant	-8.85435
Enabled	-8.85444
Title	-8.8561
▁1);	-8.8562
code	-8.85714
▁field	-8.85762
adapterFactory	-8.85765
Category	-8.85793
▁char	-8.86068
Or	-8.86214
▁delete	-8.86275
OutputStream	-8.86315
PropertyChange	-8.86443
▁Class	-8.86714
setBounds	-8.86783
Channel	-8.86868
▁switch	-8.86955
▁jButton	-8.8709
Listeners	-8.87093
Role	-8.87209
num	-8.87979
Num	-8.88133
[0]	-8.88445
Password	-8.88735
Check	-8.88773
▁time	-8.88787
]);	-8.88871
Edit	-8.88878
1)	-8.89036
▁pos	-8.89136
Option	-8.89299
Null	-8.89301
▁db	-8.8936
il	-8.8951
▁Map	-8.89561
▁string	-8.89564
▁view	-8.89749
Options	-8.89787
Settings	-8.89959
▁JTextField	-8.90046
Max	-8.90047
Con	-8.90186
Queue	-8.9021
Obj	-8.90295
Is	-8.90333
Def	-8.90386
▁M	-8.90476
height	-8.90692
▁class	-8.90695
ableAdapter	-8.91171
▁T	-8.91256
time	-8.91372
getRootAdapter	-8.91416
▁Boolean	-8.91737
▁close	-8.91813
Edge	-8.9188
6	-8.92038
Names	-8.92052
Selected	-8.92083
Q	-8.92091
Pattern	-8.92118
Get	-8.92147
state	-8.92148
▁send	-8.92195
AL	-8.922
▁output	-8.92341
Read	-8.92346
Param	-8.92492
Definition	-8.92622
▁finally	-8.92975
▁image	-8.93054
▁actionPerformed	-8.93286
createItem	-8.93315
▁connection	-8.93422
show	-8.93603
ro	-8.93672
Mapping	-8.93794
Function	-8.93841
Tracker	-8.9424
Transaction	-8.94405
▁Node	-8.94532
view	-8.95109
(!	-8.9554
Area	-8.95577
Extension	-8.95602
▁content	-8.95626
▁arg	-8.95806
▁page	-8.95821
Card	-8.95826
values	-8.95837
▁parse	-8.95924
Interface	-8.96092
KEY	-8.96113
▁selected	-8.96139
Types	-8.96309
▁doc	-8.96478
ERROR	-8.965
last	-8.96931
▁Double	-8.96936
us	-8.96971
▁an	-8.97006
Term	-8.97111
▁response	-8.97164
Lock	-8.97413
▁sub	-8.9759
Operation	-8.97797
Open	-8.9811
▁(((	-8.98174
ac	-8.9822
ra	-8.98292
Val	-8.98339
Stack	-8.98523
▁resource	-8.98664
▁width	-8.98852
ref	-8.98979
Widget	-8.99024
AR	-8.99064
Agent	-8.99146
Matrix	-8.99189
ter	-8.99271
Sequence	-8.99398
ut	-8.99695
Schema	-8.99844
context	-8.99856
▁group	-8.99934
Application	-8.99981
▁filter	-8.99996
ING	-9.0023
▁Date	-9.00259
count	-9.00481
▁k	-9.00827
target	-9.01059
ol	-9.01383
parse	-9.01574
ive	-9.01766
10	-9.0185
Module	-9.01962
Parent	-9.01967
group	-9.01997
▁reset	-9.0218
Job	-9.02342
Create	-9.02753
Space	-9.02841
char	-9.0318
2,	-9.03203
2);	-9.03267
db	-9.03491
▁initialize	-9.03685
▁Collection	-9.03795
▁jPanel	-9.03806
op	-9.03862
\"	-9.04041
IMAGE	-9.04074
trim	-9.04193
▁R	-9.04261
Step	-9.04268
▁X	-9.04334
te	-9.04467
port	-9.04507
▁offset	-9.04519
me	-9.04635
se	-9.04995
ap	-9.05045
Statement	-9.05265
▁-1)	-9.053
ta	-9.05387
▁length	-9.0545
▁with	-9.05555
Bar	-9.05651
Parameters	-9.05754
init	-9.05767
▁exception	-9.05838
[1]	-9.05885
▁values	-9.05945
Msg	-9.05951
field	-9.06234
▁command	-9.06404
▁@	-9.06473
▁Color	-9.06549
position	-9.06558
2)	-9.06576
TextField	-9.06608
listener	-9.06739
find	-9.06916
over	-9.07072
▁con	-9.07376
string	-9.07395
Viewer	-9.0761
"+	-9.07625
org	-9.07631
▁height	-9.07648
▁status	-9.07753
▁button	-9.07774
Min	-9.07877
Layer	-9.0801
▁service	-9.08078
image	-9.08118
open	-9.08145
other	-9.08155
url	-9.08375
est	-9.08386
ate	-9.08546
▁Thread	-9.0868
Pool	-9.08912
msg	-9.08939
App	-9.09004
request	-9.092
containsKey	-9.09316
Report	-9.09521
ies	-9.09908
child	-9.09944
la	-9.10029
Domain	-9.10037
Database	-9.10128
Items	-9.10278
Messages	-9.10423
▁E	-9.10483
Host	-9.10599
Graphics	-9.10679
iv	-9.10792
▁q	-9.10866
setVisible	-9.10889
▁st	-9.1089
▁");	-9.11142
Feature	-9.11339
▁config	-9.1148
Proxy	-9.11547
▁color	-9.1155
Main	-9.1173
Save	-9.1178
um	-9.1181
Calendar	-9.1187
all	-9.11961
▁writer	-9.11966
▁stop	-9.12037
util	-9.12575
tag	-9.1264
col	-9.1287
Game	-9.13163
root	-9.1332
per	-9.1363
DAO	-9.13747
ag	-9.13767
Var	-9.13786
setLayout	-9.13989
input	-9.14227
selected	-9.14295
▁component	-9.14319
▁date	-9.14466
▁B	-9.14513
label	-9.14547
Remove	-9.14557
lo	-9.14597
ot	-9.14675
▁ch	-9.14693
content	-9.14852
FileName	-9.14935
ad	-9.14977
▁info	-9.15523
▁sql	-9.15541
setValue	-9.15615
Left	-9.15718
▁first	-9.15842
▁tag	-9.16074
Select	-9.16313
ig	-9.16409
('	-9.16837
▁ItemProperty	-9.16985
▁display	-9.17076
▁Long	-9.1722
First	-9.17604
9	-9.17881
>();	-9.18005
OK	-9.18013
Device	-9.18035
▁D	-9.18097
res	-9.18109
Notification	-9.18221
Byte	-9.18241
IC	-9.1825
Profile	-9.18366
rs	-9.18373
Op	-9.18397
Right	-9.18416
Xml	-9.18517
▁server	-9.18536
▁project	-9.18646
ce	-9.18652
Identifier	-9.18666
Show	-9.1878
Account	-9.18789
▁format	-9.18902
Annotation	-9.19234
?	-9.19317
▁validate	-9.19336
getType	-9.1935
▁G	-9.19362
sql	-9.19561
▁XML	-9.19622
title	-9.19725
the	-9.20011
buffer	-9.20053
date	-9.20067
Up	-9.2014
LE	-9.20144
▁args	-9.20206
▁Log	-9.20241
Pro	-9.20502
default	-9.20606
▁Message	-9.20619
▁rs	-9.20866
▁BorderLayout	-9.21091
▁visit	-9.21223
▁build	-9.21384
▁document	-9.21423
▁copy	-9.21441
▁must	-9.21441
Exp	-9.21476
Grid	-9.21543
Product	-9.21558
▁A	-9.21655
Delete	-9.22235
OR	-9.22325
Cursor	-9.22348
store	-9.22406
ma	-9.22491
act	-9.22493
sub	-9.22539
▁found	-9.22596
setSize	-9.22598
getParent	-9.22676
Short	-9.22825
()).	-9.22847
▁player	-9.22874
form	-9.22879
doc	-9.22948
Visible	-9.23038
Shape	-9.2312
▁testGet	-9.23128
▁clone	-9.23214
Return	-9.23275
▁listeners	-9.23285
ity	-9.2329
save	-9.23325
Math	-9.23493
resource	-9.23563
▁position	-9.23615
column	-9.2365
Axis	-9.23662
▁tree	-9.23729
ChangeListener	-9.24003
Renderer	-9.24088
Packet	-9.24146
Binding	-9.24169
Script	-9.24172
▁len	-9.24241
query	-9.2427
session	-9.24301
Current	-9.24786
getAttribute	-9.24933
select	-9.24972
▁open	-9.25009
Elements	-9.25015
Last	-9.25339
Use	-9.25559
age	-9.25591
▁static	-9.25665
Next	-9.2572
Interval	-9.25776
▁Default	-9.25819
Body	-9.25908
Empty	-9.25998
tr	-9.26076
▁select	-9.26218
Float	-9.26285
▁1,	-9.26334
ho	-9.26655
▁properties	-9.26658
ok	-9.26702
Prefix	-9.26781
▁task	-9.26842
▁Adapter	-9.26985
clone	-9.27059
▁port	-9.27092
getX	-9.27141
▁getJ	-9.27194
tor	-9.27332
property	-9.27441
Condition	-9.27475
Col	-9.2754
▁frame	-9.27604
Children	-9.2763
▁StringBuilder	-9.27732
▁title	-9.27807
Scale	-9.27818
▁Data	-9.27906
▁children	-9.27995
▁xml	-9.28146
Activity	-9.285
▁4	-9.28846
page	-9.28987
▁execute	-9.29299
ms	-9.29383
addElement	-9.29577
Throwable	-9.29658
Paint	-9.29661
Nodes	-9.29725
Screen	-9.30005
let	-9.3001
net	-9.30097
][	-9.30152
ir	-9.30226
getY	-9.30417
entry	-9.30435
▁IllegalState	-9.30469
ri	-9.30514
Repository	-9.30559
con	-9.30704
Vertex	-9.30808
▁SWT	-9.3088
▁entity	-9.30963
▁panel	-9.31083
AS	-9.31162
handle	-9.31279
Active	-9.31349
th	-9.31405
▁make	-9.31555
Bytes	-9.3159
notification	-9.31646
Language	-9.31684
run	-9.31792
Spec	-9.31963
Java	-9.31986
instance	-9.32117
SQL	-9.32166
▁URL	-9.32168
Symbol	-9.32521
Auto	-9.32539
getDefault	-9.32645
component	-9.32747
▁base	-9.32984
▁Document	-9.33062
link	-9.33273
▁number	-9.33275
NO	-9.33302
▁conn	-9.335
▁client	-9.33516
tree	-9.33533
method	-9.33595
base	-9.33614
▁attribute	-9.33945
ff	-9.34033
use	-9.34047
▁draw	-9.34347
execute	-9.34384
▁newValue	-9.34388
12	-9.34567
logger	-9.34578
getCurrent	-9.34589
▁all	-9.34642
▁tab	-9.348
ance	-9.34842
▁selection	-9.34877
11	-9.35017
accept	-9.35034
mo	-9.35038
▁insert	-9.35183
MAX	-9.3523
▁JOptionPane	-9.35266
Member	-9.35369
▁call	-9.35458
▁menu	-9.35485
Files	-9.35507
ep	-9.35552
1);	-9.35724
Move	-9.35754
▁code	-9.35755
Dimension	-9.35783
dir	-9.35858
elementAt	-9.35904
color	-9.35907
nt	-9.36011
Match	-9.36181
▁params	-9.36338
▁User	-9.36517
bar	-9.36557
iter	-9.36681
Handle	-9.36844
ize	-9.3685
SQLException	-9.36898
Word	-9.36931
Wrapper	-9.36982
Desc	-9.37073
fire	-9.37109
Internal	-9.37301
Co	-9.37497
lock	-9.37554
status	-9.37731
Abstract	-9.37804
draw	-9.37992
▁expected	-9.38043
▁HashMap	-9.38086
point	-9.38143
av	-9.38149
Fields	-9.38191
▁comp	-9.38249
TreeNode	-9.3835
equalsIgnoreCase	-9.38445
Locale	-9.3849
filter	-9.38533
Transform	-9.38998
ne	-9.39191
ob	-9.39263
getKey	-9.39386
bl	-9.39486
bo	-9.39492
EN	-9.3951
Bounds	-9.39671
(1,	-9.39836
Generator	-9.40039
▁Command	-9.40129
▁register	-9.40209
ie	-9.40236
▁and	-9.4033
att	-9.40464
>");	-9.40516
Top	-9.40532
return	-9.40622
▁store	-9.40843
buf	-9.40937
MouseEvent	-9.41228
first	-9.41369
▁cell	-9.41436
").	-9.41614
Invalid	-9.41763
IP	-9.41818
Person	-9.41824
box	-9.41887
Registry	-9.42061
Override	-9.42112
Relation	-9.4214
stop	-9.42189
Contact	-9.42229
▁Set	-9.42274
▁total	-9.42622
from	-9.42639
ON	-9.42662
service	-9.42667
Engine	-9.42723
▁token	-9.42913
▁search	-9.42929
Comment	-9.42966
elements	-9.43089
Progress	-9.43159
Back	-9.43174
ia	-9.43204
Character	-9.43301
Pre	-9.43303
Meta	-9.43383
History	-9.4344
entity	-9.43487
Core	-9.43515
ST	-9.43574
▁3	-9.43586
Results	-9.43622
send	-9.43824
temp	-9.43934
▁F	-9.44059
Namespace	-9.44088
Sample	-9.44138
Converter	-9.44211
em	-9.44502
▁getValue	-9.44525
server	-9.44581
IS	-9.44729
Tool	-9.44762
Hash	-9.44822
Params	-9.44858
Be	-9.44879
config	-9.44928
▁can	-9.44942
Scope	-9.44957
hashCode	-9.44988
tra	-9.4506
▁record	-9.4509
(0)	-9.45092
IM	-9.45157
Home	-9.45218
Write	-9.4529
Load	-9.45323
Login	-9.45325
ial	-9.4535
0)	-9.45378
Copy	-9.45467
Total	-9.45503
pe	-9.45532
ClassName	-9.45631
▁no	-9.4565
▁txt	-9.45749
ess	-9.45772
Work	-9.45841
▁handler	-9.45976
Protocol	-9.46099
18	-9.46178
▁V	-9.46549
Web	-9.46581
cl	-9.46597
MS	-9.46687
if	-9.46732
▁btn	-9.46732
ub	-9.46759
▁cache	-9.46812
▁style	-9.46851
Global	-9.46908
Security	-9.46935
TO	-9.46937
ve	-9.47131
token	-9.472
Ex	-9.47202
Case	-9.47214
Ch	-9.47525
▁iterator	-9.47608
Region	-9.47615
▁u	-9.47691
Border	-9.4772
Simple	-9.47726
ue	-9.47728
Resources	-9.47742
Sort	-9.47844
5,	-9.4788
ee	-9.47908
DEFAULT	-9.47908
Close	-9.47914
▁5	-9.4805
20	-9.4811
Section	-9.48142
parseInt	-9.48153
▁change	-9.48243
Points	-9.48373
Logger	-9.48412
Tile	-9.48431
nextElement	-9.48498
Interrupted	-9.48523
getSource	-9.48617
Post	-9.48619
connection	-9.48627
project	-9.48816
Composite	-9.48886
build	-9.48895
Comp	-9.48973
Structure	-9.4917
intValue	-9.49257
hasMoreElements	-9.49429
ers	-9.49471
GENERIC	-9.49648
Focus	-9.49706
Pair	-9.49757
▁form	-9.4979
Columns	-9.49822
▁array	-9.49907
Multi	-9.49921
Db	-9.49988
▁evt	-9.50038
▁factory	-9.5025
++	-9.50346
getWidth	-9.50348
Information	-9.50376
compareTo	-9.50433
ill	-9.50572
Trace	-9.50735
(1);	-9.50755
▁put	-9.50848
AN	-9.50869
output	-9.50929
!");	-9.50962
ting	-9.5108
Socket	-9.51128
3,	-9.51137
▁as	-9.5125
GL	-9.51343
Monitor	-9.51373
process	-9.51412
Score	-9.51446
Policy	-9.51569
])	-9.51656
offset	-9.51799
AST	-9.52056
Rect	-9.52162
getResource	-9.52192
Rows	-9.52194
▁prop	-9.52202
getHeight	-9.52288
▁Connection	-9.52333
Flag	-9.52353
▁move	-9.52385
reset	-9.52469
Limit	-9.5248
▁Font	-9.52634
ret	-9.52675
Email	-9.52695
Day	-9.52863
▁convert	-9.52868
ci	-9.52874
▁refresh	-9.53007
00	-9.53034
ated	-9.53084
Run	-9.53307
▁'"	-9.53338
Click	-9.53444
Loader	-9.53703
▁Image	-9.53783
co	-9.53799
one	-9.53822
FILE	-9.53898
▁header	-9.53949
▁that	-9.54029
One	-9.54115
▁ref	-9.54259
Weight	-9.54456
command	-9.5462
▁should	-9.54649
▁++	-9.54805
host	-9.54882
▁use	-9.54886
▁link	-9.54993
right	-9.55074
can	-9.55087
AT	-9.55155
Valid	-9.55169
Rate	-9.55395
Bundle	-9.5541
Failed	-9.55454
Remote	-9.55491
Initial	-9.55615
UN	-9.55765
SIZE	-9.55809
▁Component	-9.55824
bean	-9.55939
IO	-9.55946
:"	-9.55978
Import	-9.55979
Processor	-9.56016
li	-9.56023
En	-9.56041
SE	-9.5605
▁N	-9.5606
part	-9.56195
player	-9.56242
▁dir	-9.56342
Cancel	-9.56396
ES	-9.5661
▁2	-9.56709
NS	-9.56714
▁Enumeration	-9.5672
▁stream	-9.5681
version	-9.5682
▁{}	-9.56841
Site	-9.56934
%	-9.56936
startsWith	-9.57016
Selector	-9.57058
▁|	-9.57104
▁assertNotNull	-9.572
replace	-9.57405
and	-9.57428
NOT	-9.57498
be	-9.57528
▁filename	-9.57543
Constraint	-9.57549
Non	-9.57571
ect	-9.57676
Series	-9.57859
Flow	-9.57892
▁Abstract	-9.57945
("<	-9.5801
▁parameter	-9.58041
Timer	-9.58091
Mouse	-9.58119
▁z	-9.58145
Uri	-9.58176
charAt	-9.58311
frame	-9.58433
Full	-9.58488
▁se	-9.58672
Real	-9.58743
▁location	-9.58764
addAll	-9.58817
BO	-9.58832
ENT	-9.58854
If	-9.58871
▁attributes	-9.58939
MetaData	-9.59034
▁point	-9.59255
word	-9.59314
ck	-9.59336
newInstance	-9.59365
comp	-9.5944
▁thread	-9.5956
menu	-9.59595
keySet	-9.59626
getTime	-9.5982
▁10	-9.59869
Insert	-9.59991
GUI	-9.60057
tmp	-9.60078
\	-9.60094
▁JMenuItem	-9.60178
app	-9.60342
<?>	-9.60478
Init	-9.60648
▁equals	-9.60768
ab	-9.60796
arg	-9.61127
▁generate	-9.61255
Random	-9.61258
sort	-9.61374
▁org	-9.61583
cache	-9.61639
Print	-9.61642
[2]	-9.61863
$	-9.61905
▁valid	-9.61987
▁connect	-9.62064
ChangeEvent	-9.62107
ps	-9.62118
▁stmt	-9.62135
Validation	-9.62146
Debug	-9.6218
flush	-9.6223
▁host	-9.62311
ud	-9.62349
ui	-9.62414
getJ	-9.62516
button	-9.62523
▁paint	-9.62593
exists	-9.62629
▁%	-9.62704
▁InputStream	-9.62759
++){	-9.62794
Metadata	-9.62932
document	-9.63167
▁match	-9.63177
▁W	-9.63291
▁dialog	-9.6333
END	-9.63346
display	-9.63354
Gen	-9.63379
▁graph	-9.63557
search	-9.63631
▁font	-9.6368
attribute	-9.63814
cr	-9.63843
▁short	-9.63855
Down	-9.63878
setAttribute	-9.63946
Year	-9.63949
Objects	-9.6403
▁append	-9.64115
Transition	-9.64177
Keys	-9.64183
Mail	-9.64274
▁rule	-9.6428
client	-9.64297
PROPERTY	-9.64301
isDebugEnabled	-9.64348
Instruction	-9.64443
▁LOG	-9.6449
stream	-9.64491
▁"'	-9.64498
Exit	-9.64545
▁address	-9.64611
▁Test	-9.64667
Help	-9.64715
CENTER	-9.64809
ence	-9.64846
▁H	-9.64867
@	-9.64915
▁order	-9.65037
▁sort	-9.6504
Visitor	-9.6505
active	-9.65063
Note	-9.65112
▁L	-9.6528
dispose	-9.65336
▁uri	-9.65547
setLocation	-9.65563
eat	-9.65565
Enum	-9.65571
ite	-9.65572
setName	-9.65588
left	-9.65597
Constant	-9.65724
setProperty	-9.6583
▁version	-9.6605
Tra	-9.66152
iz	-9.66238
short	-9.66598
mark	-9.66609
▁right	-9.66643
\\	-9.66711
Attr	-9.66714
TableModel	-9.66754
IF	-9.66797
txt	-9.66944
task	-9.67009
▁JScrollPane	-9.67049
▁jTextField	-9.67087
number	-9.67135
Direction	-9.67147
insert	-9.67232
getModel	-9.67282
cp	-9.67307
properties	-9.67335
Details	-9.67396
Ok	-9.67504
ATION	-9.67528
▁manager	-9.67681
of	-9.67734
▁reader	-9.67752
▁part	-9.67792
Concept	-9.67838
Expr	-9.6797
cs	-9.67996
Month	-9.68032
ure	-9.68056
mi	-9.68099
Atom	-9.68129
▁pre	-9.68265
Stop	-9.68436
setSelected	-9.68564
▁setValue	-9.68641
>"	-9.68692
getElement	-9.68727
▁main	-9.68734
urrentTimeMillis	-9.68846
om	-9.69068
location	-9.69109
ization	-9.69167
Timeout	-9.69184
▁parameters	-9.69191
');	-9.69228
DE	-9.69259
▁builder	-9.6933
order	-9.69456
▁options	-9.69481
▁editor	-9.69501
LOG	-9.69549
▁src	-9.6957
br	-9.69582
cur	-9.69629
()){	-9.69662
font	-9.69765
Counter	-9.69792
uc	-9.69858
SS	-9.69983
*/	-9.7011
Alignment	-9.70265
▁window	-9.70445
Factor	-9.70672
▁password	-9.70732
▁cur	-9.70739
Operator	-9.70747
Preferences	-9.70893
▁jContentPane	-9.70952
ado	-9.7102
Distance	-9.71038
▁O	-9.71073
Bit	-9.71103
XY	-9.71144
▁fileName	-9.71216
separator	-9.71238
▁level	-9.71253
16	-9.71274
Send	-9.71283
1;	-9.71336
CheckBox	-9.71361
▁control	-9.71392
▁cmd	-9.71397
▁unit	-9.71404
ise	-9.71448
Network	-9.71616
▁getCurrent	-9.71742
Trans	-9.71766
Media	-9.7184
▁Property	-9.7184
Peer	-9.71981
main	-9.7202
▁attr	-9.72036
pt	-9.72044
header	-9.72071
▁""	-9.72124
Cannot	-9.72177
warn	-9.72178
MESSAGE	-9.72211
round	-9.72217
Support	-9.72249
src	-9.72387
man	-9.72488
len	-9.72491
OM	-9.72494
ib	-9.72542
Timestamp	-9.72543
▁left	-9.72549
ust	-9.72645
Figure	-9.72659
Separator	-9.72703
This	-9.72707
▁tr	-9.7281
children	-9.72835
tion	-9.72902
DataSource	-9.73153
Cluster	-9.73193
Sql	-9.73235
▁-1	-9.7324
od	-9.73253
▁(!(	-9.73365
register	-9.7338
Scroll	-9.73401
▁idx	-9.73471
▁8	-9.73603
uri	-9.73649
idx	-9.73741
▁container	-9.7377
▁sp	-9.73837
style	-9.73859
Argument	-9.74131
gr	-9.74135
not	-9.74162
red	-9.74226
toLowerCase	-9.74255
selection	-9.74286
ComboBox	-9.74354
Driver	-9.74363
MIN	-9.74386
Segment	-9.74397
▁items	-9.7447
izer	-9.74704
ba	-9.74783
IT	-9.74784
▁me	-9.74803
graph	-9.74854
po	-9.74871
sTo	-9.74888
record	-9.74986
▁was	-9.74996
Do	-9.75016
▁hash	-9.75033
unit	-9.75152
HTML	-9.75217
▁props	-9.75384
ScrollPane	-9.75428
▁failed	-9.7581
go	-9.75824
1()	-9.75828
modified	-9.75869
bit	-9.75928
day	-9.76058
Plot	-9.76152
Permission	-9.76237
BagConstraints	-9.76307
array	-9.76446
▁Assert	-9.76448
▁at	-9.76481
html	-9.76483
Combo	-9.76493
exit	-9.76533
ix	-9.76572
▁op	-9.76586
Utilities	-9.76607
soap	-9.76641
ast	-9.76658
Custom	-9.76696
▁contains	-9.76826
▁prefix	-9.7685
api	-9.769
KeyEvent	-9.76955
Pa	-9.7696
Over	-9.77001
ME	-9.7721
#	-9.77269
▁Action	-9.77303
US	-9.7733
back	-9.77354
visit	-9.77379
▁scale	-9.77448
getImage	-9.77458
Single	-9.77532
()+"	-9.7772
ized	-9.77779
pl	-9.77788
▁2)	-9.77798
Per	-9.77888
▁DB	-9.77938
▁grid	-9.77965
Admin	-9.78013
=\"	-9.78066
Canvas	-9.78145
sp	-9.78203
▁getText	-9.78206
else	-9.78235
▁JLabel	-9.78296
▁parser	-9.78316
ary	-9.78333
CH	-9.78365
▁app	-9.78386
▁accept	-9.78424
na	-9.7844
setPreferredSize	-9.78565
▁edge	-9.78592
Dataset	-9.78689
▁ByteArray	-9.78717
▁notify	-9.78742
▁layout	-9.78789
impl	-9.788
Center	-9.78818
system	-9.78926
Rectangle	-9.78988
Period	-9.79022
Chart	-9.79051
▁com	-9.79164
getData	-9.79232
▁channel	-9.79261
▁var	-9.79286
getNode	-9.79343
http	-9.79454
isSelected	-9.79462
("");	-9.79493
▁elements	-9.79537
▁lock	-9.7962
super	-9.79646
Prop	-9.79751
mb	-9.79874
copy	-9.79996
trace	-9.80028
grid	-9.801
▁"<	-9.8016
AC	-9.80186
var	-9.80197
Components	-9.80228
▁Resource	-9.80261
SET	-9.80324
Render	-9.80325
make	-9.80343
Bound	-9.80446
icon	-9.80551
BigDecimal	-9.80608
tab	-9.80683
▁work	-9.80745
INFO	-9.808
Duration	-9.80801
▁game	-9.80801
level	-9.80878
▁edit	-9.8088
Com	-9.80907
abs	-9.81012
top	-9.81155
▁2;	-9.81388
Priority	-9.81626
Declaration	-9.81645
▁block	-9.81676
listeners	-9.81776
address	-9.8178
sleep	-9.81872
change	-9.81936
!	-9.81941
Literal	-9.82043
ens	-9.82081
▁Logger	-9.82146
dr	-9.82232
Wizard	-9.8225
AND	-9.82334
2;	-9.82351
getChild	-9.82352
("/	-9.82355
▁bean	-9.82367
▁repaint	-9.82375
Environment	-9.82401
▁getName	-9.82474
ade	-9.82483
getPath	-9.82533
Place	-9.82573
▁Runnable	-9.82642
')	-9.82701
cm	-9.82742
Memory	-9.82744
hi	-9.82804
Track	-9.82908
Servlet	-9.82949
Plan	-9.83155
▁getProperty	-9.83305
AD	-9.8341
External	-9.83471
CR	-9.83505
Only	-9.83529
▁step	-9.83698
▁0.0	-9.83702
▁Throwable	-9.83843
▁report	-9.83858
catch	-9.83945
attr	-9.83955
▁mode	-9.8398
connect	-9.84037
expected	-9.84064
Detail	-9.84105
call	-9.84122
ct	-9.84251
prop	-9.84369
cell	-9.84395
Price	-9.84401
DO	-9.84402
ron	-9.84617
Topic	-9.84625
▁icon	-9.84941
Sheet	-9.84941
ake	-9.85049
gl	-9.85066
▁mark	-9.85086
ACTION	-9.85139
Mark	-9.8514
Marker	-9.85185
▁top	-9.8526
www	-9.85291
ice	-9.8549
Rec	-9.85517
DATA	-9.85624
Required	-9.85625
getLength	-9.85717
Subject	-9.85781
wrap	-9.8579
Criteria	-9.85801
setBackground	-9.85841
Execution	-9.85977
getSelection	-9.86188
Owner	-9.86285
▁pattern	-9.86358
JSON	-9.86387
Actions	-9.86602
],	-9.86671
▁description	-9.86703
Dao	-9.86719
Http	-9.86748
Res	-9.86757
▁BigDecimal	-9.86893
▁tx	-9.87068
▁post	-9.87207
eINSTANCE	-9.87256
▁assertFalse	-9.87269
Gui	-9.87338
▁100	-9.87356
Sp	-9.87421
Board	-9.87465
4,	-9.87518
Callback	-9.87521
Dirty	-9.87563
Arg	-9.87616
▁Properties	-9.87688
▁ps	-9.87814
Seq	-9.8798
[0];	-9.87997
pi	-9.88146
▁1]	-9.88218
Lookup	-9.88271
Basic	-9.88272
CLASS	-9.88307
getUser	-9.88345
Entries	-9.88347
Standard	-9.88347
Can	-9.88404
Mo	-9.88483
Available	-9.88549
DEBUG	-9.88673
setFont	-9.88683
Instances	-9.88751
filename	-9.88876
Play	-9.88937
DateTime	-9.88941
TextArea	-9.8906
DI	-9.89146
Transfer	-9.89177
mode	-9.8928
full	-9.89355
▁def	-9.89483
validate	-9.8966
book	-9.89668
▁notification	-9.89726
lat	-9.89824
▁att	-9.89993
Summary	-9.90054
Dis	-9.90092
Ind	-9.90174
Hibernate	-9.90216
tain	-9.90252
childrenFeatures	-9.9035
getSize	-9.90363
▁trans	-9.90369
scale	-9.90381
Holder	-9.90486
Filename	-9.90518
▁NullPointer	-9.90529
0);	-9.90663
flow	-9.90676
▁role	-9.90708
ca	-9.9071
TEXT	-9.90753
▁jScrollPane	-9.90847
IL	-9.90876
Sh	-9.90889
Resolver	-9.90937
▁continue	-9.91091
setTitle	-9.91255
response	-9.91554
Shell	-9.91625
Common	-9.91706
so	-9.91783
Free	-9.91868
▁HashSet	-9.9192
Contents	-9.91977
work	-9.92086
After	-9.92167
0.0	-9.92202
Amount	-9.92241
panel	-9.92427
erationException	-9.92471
Algorithm	-9.92482
Sync	-9.92488
Validator	-9.92492
▁actual	-9.92656
ash	-9.92762
ArrayList	-9.92774
▁UnsupportedOp	-9.92873
▁apply	-9.92979
▁hashCode	-9.93017
getLocal	-9.93017
Html	-9.93023
MP	-9.93062
▁Float	-9.93075
getColumn	-9.93079
▁<<	-9.93166
ToolBar	-9.93323
▁template	-9.93338
Preference	-9.93365
>>	-9.93607
tf	-9.93641
USER	-9.93647
▁active	-9.93774
▁range	-9.93962
Warning	-9.94091
▁en	-9.94108
TAG	-9.94123
Draw	-9.94148
NumberFormat	-9.94167
our	-9.9421
▁Basic	-9.94213
convert	-9.94267
getComponent	-9.94291
Unknown	-9.94335
ating	-9.94435
▁dis	-9.94452
▁flag	-9.9447
▁dest	-9.94508
Stroke	-9.9451
Inter	-9.94593
Join	-9.94703
Events	-9.94719
Classes	-9.94791
▁fields	-9.94802
ts	-9.95096
Encoding	-9.95291
Pass	-9.95335
Build	-9.95378
low	-9.95382
Storage	-9.95488
▁ResultSet	-9.95509
prefix	-9.95536
Temp	-9.95541
Lines	-9.95544
2));	-9.95585
▁oldValue	-9.95648
Comparator	-9.95661
Browser	-9.95821
Choice	-9.95922
▁body	-9.96006
▁Calendar	-9.96154
▁fill	-9.96157
Connector	-9.96248
UP	-9.96296
://	-9.96348
▁Hashtable	-9.96448
ick	-9.96457
split	-9.96472
script	-9.96554
initialized	-9.96601
ave	-9.96614
STATE	-9.96632
15	-9.96671
▁getImage	-9.96734
SWT	-9.96744
▁transform	-9.96842
ele	-9.96895
fill	-9.9693
▁Attribute	-9.96954
he	-9.96962
13	-9.97102
def	-9.97143
▁compare	-9.97233
Has	-9.97278
sh	-9.97412
Book	-9.97432
▁getClass	-9.97447
Me	-9.97597
▁Graph	-9.97628
▁Text	-9.97629
cap	-9.9763
▁className	-9.97745
Runtime	-9.97751
▁cannot	-9.97816
01	-9.97818
Route	-9.97845
repaint	-9.97845
19	-9.97848
0));	-9.97966
ship	-9.97969
64	-9.9798
14	-9.97986
▁mouse	-9.98001
par	-9.98079
--	-9.98278
head	-9.98438
▁stack	-9.98439
Fill	-9.98446
ALL	-9.98515
core	-9.98631
Constructor	-9.98662
Export	-9.98698
Ext	-9.98753
side	-9.98823
▁OS	-9.98906
ical	-9.98998
Errors	-9.99042
▁render	-9.99089
Chat	-9.99289
Forward	-9.99301
ug	-9.99315
Alias	-9.99349
move	-9.99363
EventListener	-9.99376
NULL	-9.99439
Program	-9.99489
sheet	-9.99508
▁sum	-9.99554
serialize	-9.99622
▁configuration	-9.99749
setColor	-9.99775
args	-9.99994
Complex	-10.0001
plan	-10.001
Signature	-10.0016
▁does	-10.0018
Background	-10.0018
▁rows	-10.0028
Observer	-10.0032
ient	-10.0034
Association	-10.0037
▁Simple	-10.0039
Len	-10.0056
Super	-10.006
Question	-10.0064
ns	-10.0073
Speed	-10.0075
▁statement	-10.0078
Binary	-10.008
▁bounds	-10.0081
bound	-10.0088
Tuple	-10.0089
▁or	-10.0101
Complete	-10.0107
▁files	-10.0112
ping	-10.0118
getFile	-10.013
Btn	-10.0131
[]{	-10.0134
reference	-10.0143
Ad	-10.0146
RA	-10.015
▁empty	-10.0151
--;	-10.0153
ped	-10.0155
-1)	-10.0159
▁rect	-10.0159
▁variable	-10.0162
PC	-10.0163
Mask	-10.0169
","	-10.0171
An	-10.0183
▁getMax	-10.0194
ide	-10.0199
arraycopy	-10.02
matcher	-10.0202
Coordinate	-10.0214
▁word	-10.0214
spec	-10.0215
ry	-10.0226
▁loc	-10.0227
IndexOutOfBounds	-10.0229
fix	-10.0233
Zoom	-10.0234
Added	-10.0234
foo	-10.0245
Net	-10.0245
edge	-10.0247
Iter	-10.0249
tic	-10.0256
are	-10.0259
▁Tree	-10.0261
TABLE	-10.0264
Angle	-10.0269
play	-10.0273
▁owner	-10.0286
▁-=	-10.0287
removeAll	-10.0296
▁setField	-10.0298
reparedStatement	-10.0299
▁database	-10.0301
getInt	-10.0304
Locator	-10.0305
Before	-10.0306
Author	-10.0311
Depth	-10.0315
role	-10.0319
Tick	-10.0319
▁locale	-10.0325
OPTION	-10.033
da	-10.0334
conn	-10.0356
Predicate	-10.0358
endsWith	-10.0358
CON	-10.036
OS	-10.036
ResultSet	-10.037
▁system	-10.037
EL	-10.0373
▁module	-10.0379
▁pro	-10.0382
▁results	-10.0382
ClassLoader	-10.0384
OF	-10.0387
Cookie	-10.0391
ute	-10.0391
[])	-10.0392
cmd	-10.0395
▁back	-10.0396
toArray	-10.0403
SP	-10.0415
df	-10.0416
▁Collections	-10.0419
ge	-10.0424
▁username	-10.0426
DOM	-10.0429
tu	-10.044
▁ImageIcon	-10.0441
match	-10.0447
▁queue	-10.0448
".	-10.0452
setBorder	-10.046
VO	-10.0462
ti	-10.0465
password	-10.0467
ted	-10.0468
▁Query	-10.0476
Drag	-10.049
rows	-10.0502
rule	-10.0503
,"	-10.0509
ToString	-10.0509
▁enable	-10.0511
LIST	-10.0521
NONE	-10.0547
Modified	-10.0549
Failure	-10.0559
▁defaultValue	-10.056
▁scroll	-10.0561
▁have	-10.0574
▁testSet	-10.0574
Geo	-10.0575
Modifier	-10.058
sign	-10.0584
Pixel	-10.0585
space	-10.0593
Drop	-10.0595
▁Model	-10.0604
Idx	-10.0619
swing	-10.0623
ml	-10.0624
▁1.0	-10.0624
▁controller	-10.0633
LINE	-10.0636
▁previous	-10.0637
CE	-10.0642
▁getParent	-10.0647
NotFound	-10.065
Delay	-10.0655
Decl	-10.0657
PER	-10.0657
▁elem	-10.066
OP	-10.0665
▁job	-10.0665
CA	-10.0669
▁Grid	-10.0672
...");	-10.0679
Cost	-10.0686
32	-10.0695
PA	-10.0721
support	-10.0726
enter	-10.0735
Th	-10.0738
background	-10.0738
getParameter	-10.074
Connect	-10.074
construct	-10.0741
Pr	-10.0742
▁resolve	-10.0748
Allowed	-10.0752
Popup	-10.0768
});	-10.0768
fine	-10.0773
setIcon	-10.0774
warning	-10.0779
bb	-10.0782
pr	-10.0789
ET	-10.0791
block	-10.08
ell	-10.0803
Capacity	-10.0804
-1	-10.0809
▁ioe	-10.0812
Closed	-10.0816
cancel	-10.0826
parameter	-10.0829
getStart	-10.0829
Success	-10.0833
body	-10.0839
board	-10.0845
▁ext	-10.0848
▁/**	-10.0853
▁bytes	-10.0859
nextToken	-10.0861
(""))	-10.0862
Texture	-10.0866
▁getDefault	-10.0868
evt	-10.087
getConnection	-10.087
rate	-10.0875
▁dispose	-10.0885
control	-10.0893
Dictionary	-10.0895
Pressed	-10.0895
Catalog	-10.09
getChildren	-10.0902
▁Service	-10.0909
▁initial	-10.0918
ATE	-10.0918
MI	-10.0923
que	-10.0927
press	-10.093
};	-10.0941
Buttons	-10.0942
▁transaction	-10.0945
exception	-10.0946
loc	-10.0948
qui	-10.0951
▁calculate	-10.0959
Formatter	-10.0981
▁reference	-10.0986
My	-10.0986
getLogger	-10.0988
▁off	-10.0992
Customer	-10.1
▁getType	-10.1004
SAX	-10.101
▁second	-10.1014
▁os	-10.1015
Removed	-10.1026
Parse	-10.1027
inner	-10.1038
coord	-10.1039
Created	-10.104
▁plugin	-10.1043
ump	-10.1044
Auth	-10.1046
▁20)	-10.1049
St	-10.1053
getAbsolutePath	-10.1055
ver	-10.1056
Raw	-10.1056
Equals	-10.1056
▁rec	-10.1058
EC	-10.1066
Chain	-10.1067
post	-10.1073
PI	-10.1076
cast	-10.108
throw	-10.109
▁BufferedReader	-10.1093
Team	-10.1093
It	-10.1096
activate	-10.1103
fe	-10.1108
fileName	-10.1108
du	-10.1124
Expected	-10.1129
off	-10.113
Mod	-10.1132
Chooser	-10.1139
ha	-10.115
lt	-10.1164
▁category	-10.1166
Named	-10.1171
▁Method	-10.1175
req	-10.1178
pre	-10.1183
Slot	-10.1184
▁"\"	-10.1185
getBytes	-10.1186
handler	-10.1191
▁access	-10.1192
▁Session	-10.1193
Phase	-10.1198
ph	-10.1201
mp	-10.1203
editor	-10.1206
MutableTreeNode	-10.121
▁auto	-10.121
▁clazz	-10.1214
tp	-10.1221
▁desc	-10.1227
▁by	-10.1234
Units	-10.1247
▁setup	-10.1249
▁req	-10.125
▁setModified	-10.125
edit	-10.1252
invoke	-10.1255
Setting	-10.1256
Audio	-10.1258
▁ctx	-10.1265
Delegate	-10.1266
[0].	-10.1266
▁16	-10.1269
ByName	-10.1275
HttpServlet	-10.1279
▁keys	-10.128
CL	-10.128
Supported	-10.1284
rb	-10.1293
ld	-10.1293
Mgr	-10.1298
Enumeration	-10.1302
pop	-10.1305
ear	-10.1307
Principal	-10.1307
Ver	-10.1308
DTO	-10.1313
Destination	-10.1317
Unique	-10.1328
Serial	-10.1329
▁encode	-10.1329
expResult	-10.133
Persistence	-10.1331
arr	-10.1331
Rules	-10.1331
<?	-10.1336
lastIndexOf	-10.1338
Orientation	-10.1341
template	-10.1345
▁compute	-10.135
commit	-10.1351
&	-10.1358
ident	-10.1361
LA	-10.1369
▁function	-10.1373
Flags	-10.1374
Chunk	-10.138
Groups	-10.138
range	-10.1389
Library	-10.1395
Minimum	-10.14
Register	-10.1405
DataType	-10.141
SELECT	-10.1416
Fragment	-10.1426
detail	-10.1431
layout	-10.1433
total	-10.1437
axis	-10.1443
ML	-10.1445
▁LinkedList	-10.1445
▁prototype	-10.1447
▁option	-10.1458
lu	-10.1459
▁comment	-10.1462
SC	-10.147
sList	-10.1472
getDisplay	-10.1478
assert	-10.1481
▁StringTokenizer	-10.1483
▁cancel	-10.1484
Ast	-10.1484
ev	-10.1484
TIME	-10.1488
lex	-10.1488
Could	-10.1492
Actor	-10.1495
TER	-10.1495
6,	-10.1497
cc	-10.1499
exp	-10.1501
writer	-10.1503
Attachment	-10.1506
▁where	-10.1511
▁getS	-10.1521
ty	-10.1521
30	-10.1523
Stats	-10.1528
queue	-10.1556
persist	-10.1557
▁Event	-10.1559
General	-10.1566
Loc	-10.1579
Direct	-10.158
gen	-10.1597
▁member	-10.1603
game	-10.1604
Commit	-10.1605
▁getComponent	-10.1611
▁gl	-10.1614
Relative	-10.1614
rec	-10.1615
ified	-10.1623
▁ignore	-10.1629
Normal	-10.163
MM	-10.1636
▁extension	-10.1637
Off	-10.1642
200	-10.1644
NE	-10.1646
▁setAttribute	-10.165
2()	-10.1654
attributes	-10.1659
getRoot	-10.1661
home	-10.1665
▁curr	-10.1666
▁cs	-10.1676
Batch	-10.1688
▁DOM	-10.1694
Keyword	-10.1699
Download	-10.1699
Clause	-10.1699
getDocument	-10.1702
member	-10.1702
▁extends	-10.1706
TE	-10.1715
generate	-10.1716
▁expResult	-10.1728
Mapper	-10.1735
▁"/	-10.1759
Vertical	-10.1762
▁Project	-10.1762
Tags	-10.1768
Reply	-10.1773
card	-10.1777
force	-10.1781
▁already	-10.1783
',	-10.1785
keys	-10.1785
Static	-10.1785
CT	-10.1787
opyAllFrom	-10.1794
Wait	-10.1807
PL	-10.1815
vert	-10.1827
pc	-10.1828
Elem	-10.183
▁exp	-10.1836
Face	-10.1836
window	-10.1844
ification	-10.1846
VM	-10.1847
ById	-10.1847
▁Get	-10.1854
Accept	-10.1856
Patient	-10.1859
addItem	-10.1864
getLast	-10.1865
▁Application	-10.1865
Find	-10.1869
Unable	-10.1869
ling	-10.1873
▁Configuration	-10.1874
Strategy	-10.1881
desc	-10.1889
▁folder	-10.189
Exists	-10.1892
ll	-10.1905
▁perform	-10.1916
▁nodes	-10.1916
refresh	-10.1918
▁cl	-10.1918
Identity	-10.1918
Cmd	-10.1919
▁exit	-10.1922
ending	-10.1926
EClass	-10.1928
▁cp	-10.1928
ations	-10.1929
Shared	-10.1929
▁cm	-10.1935
PORT	-10.1938
CC	-10.194
50	-10.1946
Schedule	-10.1948
transform	-10.1962
face	-10.1963
▁JMenu	-10.1968
TH	-10.1973
getID	-10.1973
Hit	-10.1975
Props	-10.1978
World	-10.1982
schema	-10.1984
owner	-10.1994
AsString	-10.1994
▁play	-10.1995
Formula	-10.1995
Execute	-10.1996
ability	-10.2001
Room	-10.2002
▁debug	-10.2003
pattern	-10.2003
▁changed	-10.2008
MA	-10.2013
STRING	-10.2019
▁Database	-10.2021
RadioButton	-10.2028
LEFT	-10.2043
report	-10.2043
enable	-10.2044
Args	-10.205
step	-10.2054
oid	-10.2055
▁6	-10.2057
Pointer	-10.206
Ontology	-10.2063
▁Error	-10.2063
username	-10.2067
MO	-10.2073
▁javax	-10.2079
TabbedPane	-10.2079
▁Http	-10.2081
▁Invalid	-10.2084
oo	-10.2087
ext	-10.2089
▁term	-10.2095
Slider	-10.2098
23	-10.2103
push	-10.2108
Matcher	-10.2113
▁":	-10.2116
ifier	-10.2117
light	-10.2118
channel	-10.2118
▁full	-10.212
Phone	-10.2121
Certificate	-10.2124
INSTANCE	-10.2125
▁2);	-10.2126
Feed	-10.2127
Operand	-10.213
rot	-10.2134
getSession	-10.2148
▁getC	-10.2154
getActive	-10.2154
down	-10.216
El	-10.2161
17	-10.2162
Previous	-10.2163
▁JCheckBox	-10.2164
Fo	-10.2169
1.0	-10.2172
Undo	-10.2173
hash	-10.2176
acc	-10.2182
▁receive	-10.2185
▁K	-10.2192
Mock	-10.2199
apache	-10.2211
encode	-10.2213
Piece	-10.222
container	-10.222
▁PrintWriter	-10.2226
FileOutputStream	-10.2229
getSelected	-10.2229
actor	-10.2231
[0]);	-10.2244
|	-10.2245
▁JComboBox	-10.2245
Diagnostic	-10.2248
▁operation	-10.2256
Horizontal	-10.2257
Span	-10.2259
Finder	-10.2259
ify	-10.2261
Used	-10.2263
tick	-10.2263
ual	-10.2273
points	-10.2274
Transformer	-10.228
Insets	-10.2281
getFieldValue	-10.2295
jo	-10.2306
amp	-10.2312
100	-10.2314
AP	-10.2318
au	-10.2329
QName	-10.2335
getItem	-10.235
release	-10.2351
setParent	-10.2352
Missing	-10.2364
alt	-10.2371
Zip	-10.2373
acao	-10.2376
Alert	-10.2376
Zone	-10.2377
Reason	-10.2389
site	-10.2399
Diagram	-10.2405
vers	-10.2405
metric	-10.2411
▁application	-10.2421
CP	-10.2422
▁socket	-10.243
getLocation	-10.243
CS	-10.2435
▁are	-10.2436
▁DataStore	-10.2443
Classifier	-10.2445
oc	-10.245
++]	-10.245
MODE	-10.2454
category	-10.2454
Extended	-10.2459
▁schema	-10.2461
Sign	-10.2465
▁one	-10.2468
80	-10.2471
Millis	-10.2473
Head	-10.2474
ATTRIBUTE	-10.2477
RGB	-10.2479
Cap	-10.2479
ian	-10.2483
▁Item	-10.2485
Other	-10.2492
▁getSelected	-10.2493
INT	-10.25
RI	-10.2509
▁getUser	-10.2514
START	-10.2524
dom	-10.2525
Sum	-10.2527
Illegal	-10.2534
Machine	-10.2535
▁["	-10.2538
pair	-10.2539
vo	-10.2541
Equal	-10.2542
Kind	-10.2544
MENT	-10.2546
▁replace	-10.2552
thread	-10.2553
▁directory	-10.2555
▁expression	-10.256
▁jSeparator	-10.2561
READ	-10.2562
matches	-10.2563
jButton	-10.2574
sb	-10.2574
paint	-10.2577
btn	-10.2582
pow	-10.2583
About	-10.2585
addr	-10.2593
▁argument	-10.2596
ement	-10.2596
OL	-10.2608
▁2,	-10.261
AM	-10.2611
valid	-10.2614
Workflow	-10.2616
params	-10.2618
term	-10.2623
DATE	-10.2623
▁getData	-10.2625
getJContentPane	-10.2633
▁Web	-10.2643
▁Form	-10.2647
ness	-10.2651
▁"/"	-10.2654
items	-10.2655
▁card	-10.2656
dl	-10.2656
ist	-10.2667
Accessible	-10.2686
UR	-10.2688
air	-10.2692
random	-10.27
▁day	-10.2702
▁collection	-10.2704
▁namespace	-10.2707
▁settings	-10.2711
▁al	-10.2715
condition	-10.2716
each	-10.2718
Old	-10.2728
Variables	-10.2744
ChildDescriptors	-10.2749
Lat	-10.2756
8,	-10.2756
consume	-10.2757
Man	-10.2774
▁cal	-10.2778
notify	-10.2778
Bits	-10.2781
Highlight	-10.2784
▁layer	-10.2784
UTF	-10.2784
Sim	-10.2785
cal	-10.2786
▁device	-10.2789
▁err	-10.279
▁viewer	-10.279
▁sc	-10.2798
TI	-10.2798
art	-10.2798
acion	-10.28
Maximum	-10.2801
PO	-10.2802
▁FileInputStream	-10.2803
mouse	-10.2805
longValue	-10.2815
Services	-10.2826
enabled	-10.2827
▁finish	-10.2827
NODE	-10.2827
Stub	-10.283
mod	-10.2835
Jar	-10.2839
normalize	-10.2843
className	-10.2845
Found	-10.2854
setToolTipText	-10.2856
PRO	-10.2861
Cl	-10.2866
▁widget	-10.2867
▁getNext	-10.2879
Sound	-10.288
▁1000	-10.2883
▁mod	-10.2886
▁Number	-10.2886
(2,	-10.2892
Turn	-10.2892
▁custom	-10.2903
readLine	-10.2905
▁RemoteException	-10.2913
wait	-10.2915
setEditable	-10.2919
="+	-10.2921
Syntax	-10.2922
▁assertNull	-10.2923
▁product	-10.2923
Visual	-10.2931
1");	-10.2931
executeQuery	-10.2932
PS	-10.2933
stat	-10.2956
gov	-10.2962
cu	-10.2964
getNext	-10.2973
XPath	-10.2977
▁SAXException	-10.2981
▁wait	-10.2983
isValid	-10.2987
▁cb	-10.299
TRUE	-10.2997
▁retVal	-10.2998
▁indent	-10.3005
▁img	-10.3009
▁internal	-10.3013
IllegalArgument	-10.3014
Animation	-10.3017
':	-10.3021
GE	-10.3022
Tri	-10.3033
EMPTY	-10.3038
Hour	-10.3042
ng	-10.3043
▁prev	-10.3049
▁pt	-10.305
▁sample	-10.3055
rt	-10.3057
▁domain	-10.3058
her	-10.306
slot	-10.3061
Clear	-10.3064
isEnabled	-10.3072
SplitPane	-10.3072
▁--	-10.3075
Capability	-10.3075
angle	-10.3085
elem	-10.3087
resolve	-10.3103
Buf	-10.3115
▁exc	-10.3116
Persistent	-10.3116
variable	-10.3125
comment	-10.3125
Translation	-10.3131
WARNING	-10.3131
DC	-10.3132
security	-10.3134
FS	-10.3136
kill	-10.3141
cont	-10.3146
sum	-10.3152
ErrorMessage	-10.3155
tool	-10.3155
Launch	-10.3162
Enter	-10.317
Endpoint	-10.3177
▁mapping	-10.3177
stack	-10.3182
for	-10.3185
access	-10.319
doubleValue	-10.3195
EX	-10.3197
ReadOnly	-10.3201
ELEMENT	-10.3209
Anchor	-10.3218
Reg	-10.3224
proc	-10.3227
zone	-10.323
▁he	-10.3233
RIGHT	-10.3233
▁real	-10.3234
Creation	-10.3239
▁columns	-10.3243
Revision	-10.3243
Constraints	-10.3258
NotNull	-10.3264
bot	-10.3266
Addr	-10.3267
▁success	-10.3271
▁LOGGER	-10.3283
▁counter	-10.3289
▁cr	-10.3291
cent	-10.3294
Ant	-10.3296
▁JRadioButton	-10.3297
getTitle	-10.3299
md	-10.3304
Po	-10.3304
0.	-10.3308
▁Db	-10.3312
▁Debug	-10.3313
Country	-10.3313
mt	-10.3318
▁delta	-10.332
31	-10.3321
getAll	-10.333
replaceAll	-10.3336
▁getP	-10.3338
▁sequence	-10.3345
getStatus	-10.3353
COLOR	-10.3353
Replace	-10.3353
ITEM	-10.3354
getObject	-10.3355
Problem	-10.3356
setContentPane	-10.3361
▁checkWidget	-10.3362
Deleted	-10.3365
Trigger	-10.3366
▁ok	-10.3368
widget	-10.337
▁engine	-10.3375
UD	-10.3375
CD	-10.3376
Split	-10.3379
Done	-10.3382
▁distance	-10.3387
▁getLast	-10.3398
▁Field	-10.3401
ds	-10.3405
Updated	-10.3407
Archive	-10.341
Final	-10.3416
nd	-10.3422
serv	-10.3424
▁Graphics	-10.3425
▁getAttribute	-10.3428
Digit	-10.3429
Relationship	-10.343
▁co	-10.3435
ao	-10.3438
▁setDefault	-10.3448
RS	-10.3448
dd	-10.3448
bin	-10.3457
dispatch	-10.3458
sys	-10.3463
auto	-10.3467
RO	-10.3472
Transport	-10.3473
Geometry	-10.3474
PK	-10.3481
reg	-10.3491
VK	-10.3493
getRequest	-10.3494
getFirst	-10.3494
visible	-10.3495
PE	-10.3499
▁package	-10.3504
▁getColumn	-10.3507
ine	-10.3509
Ro	-10.351
▁"</	-10.3513
▁visible	-10.3515
Ids	-10.352
option	-10.3524
nl	-10.3531
mit	-10.3532
▁meta	-10.3535
[1];	-10.3542
JFrame	-10.3545
Branch	-10.3548
▁before	-10.355
▁import	-10.3553
module	-10.3557
▁script	-10.3559
▁matrix	-10.356
Worker	-10.3564
▁setProperty	-10.3571
domain	-10.3573
Delta	-10.3574
▁env	-10.3575
Tools	-10.3575
("</	-10.3582
Margin	-10.3584
click	-10.3587
▁prepare	-10.359
bytes	-10.361
▁Table	-10.361
Leaf	-10.3613
Threshold	-10.3629
weight	-10.3631
Loop	-10.364
▁Base	-10.3648
▁compareTo	-10.3649
car	-10.365
Rel	-10.3651
▁tool	-10.3654
CODE	-10.3657
▁login	-10.3657
Labels	-10.3659
1",	-10.366
interrupt	-10.3661
jar	-10.3672
=\""	-10.3674
ler	-10.3676
PROP	-10.3681
▁packet	-10.3686
25	-10.37
99	-10.3703
by	-10.3707
td	-10.3708
Ma	-10.3716
curr	-10.3717
RT	-10.3719
Diff	-10.3721
sPer	-10.3724
HashMap	-10.3726
Fixed	-10.3726
uch	-10.3728
▁DisplayModel	-10.373
pad	-10.3731
Env	-10.3731
trans	-10.3733
▁URI	-10.3735
uid	-10.3742
fact	-10.3748
▁after	-10.3749
LO	-10.3755
SI	-10.3756
ender	-10.3761
getContent	-10.3769
google	-10.377
▁Xml	-10.3777
browse	-10.378
▁agent	-10.378
javax	-10.3782
STATUS	-10.3783
▁entries	-10.3784
TEST	-10.3787
▁enabled	-10.3792
ency	-10.3792
Theme	-10.3793
▁Status	-10.3795
▁numberOf	-10.38
setSelection	-10.3804
▁Locale	-10.3804
▁tf	-10.3815
WS	-10.3816
AG	-10.3819
▁"");	-10.3821
sample	-10.3821
▁begin	-10.3827
▁ensure	-10.3829
executeUpdate	-10.3837
ClassNotFound	-10.3845
▁\""	-10.3849
▁account	-10.3852
Square	-10.3853
[][]	-10.3853
[3]	-10.3856
▁invoke	-10.3857
Authentication	-10.3859
Linked	-10.3862
▁removed	-10.3867
Src	-10.3868
Measure	-10.3868
Scanner	-10.3869
OWL	-10.387
Clip	-10.3878
PR	-10.3888
ding	-10.3889
ow	-10.3896
screen	-10.3897
ws	-10.3903
Fault	-10.3906
Primitive	-10.3909
▁BigInteger	-10.3914
Coord	-10.3917
▁destination	-10.3919
appendChild	-10.392
xff	-10.3924
setString	-10.3935
()==	-10.3936
▁mo	-10.3936
▁amount	-10.3939
Fixture	-10.394
getProject	-10.3945
▁need	-10.3951
getIndex	-10.3951
▁Expression	-10.3959
▁Cms	-10.3961
Running	-10.3963
Implementation	-10.3963
Volume	-10.3963
ind	-10.3973
▁head	-10.3973
ult	-10.3978
speed	-10.3979
TimeZone	-10.398
So	-10.3986
getState	-10.3991
factory	-10.3992
HTTP	-10.3993
peek	-10.3994
▁sh	-10.3996
Enable	-10.4008
classes	-10.4014
Indent	-10.4019
▁proxy	-10.4022
Bottom	-10.4024
Checked	-10.4024
Begin	-10.4025
tl	-10.4025
booleanValue	-10.4035
Const	-10.4036
getEnd	-10.4039
mission	-10.4042
wt	-10.4046
▁original	-10.4047
Specification	-10.4049
win	-10.4051
entrySet	-10.4054
ResourceBundle	-10.406
Business	-10.4061
cor	-10.4067
Wire	-10.4076
▁IS	-10.408
Sensor	-10.4082
Bus	-10.4087
ION	-10.4091
ContentType	-10.4105
Acc	-10.4109
Headers	-10.411
efetch	-10.4115
▁help	-10.4117
▁em	-10.4127
</	-10.4128
mm	-10.4128
Include	-10.4143
▁FROM	-10.4144
ga	-10.4146
Facade	-10.415
▁"]"	-10.4151
getRow	-10.4152
we	-10.4156
Logging	-10.4157
getRowCount	-10.416
options	-10.4161
Grammar	-10.4164
▁Level	-10.4165
gb	-10.4167
!"	-10.4167
ile	-10.4172
Ag	-10.4177
▁GridData	-10.4179
cat	-10.4183
miss	-10.4185
ible	-10.4186
Console	-10.4188
BL	-10.4191
ncbi	-10.4198
ONE	-10.4198
locale	-10.4206
newVal	-10.4206
composite	-10.4208
Zero	-10.4209
Public	-10.4209
▁pool	-10.421
▁contact	-10.421
Dec	-10.4212
▁release	-10.4213
▁DEFAULT	-10.4216
▁cls	-10.4217
room	-10.4219
Records	-10.4222
PATH	-10.4223
dis	-10.4224
Usage	-10.4229
function	-10.4234
▁setUp	-10.4239
▁screen	-10.4246
TS	-10.4247
Users	-10.4249
tal	-10.4256
Cur	-10.4256
Conn	-10.4257
▁been	-10.4262
plugin	-10.4262
setDefault	-10.4265
▁monitor	-10.4265
Align	-10.4276
VER	-10.4278
getLabel	-10.4281
define	-10.4285
mat	-10.4287
forward	-10.429
Private	-10.4292
Round	-10.4292
tm	-10.4295
PopupMenu	-10.4298
getHost	-10.4301
Polygon	-10.4302
▁flush	-10.4302
▁retval	-10.4305
CM	-10.4306
Clone	-10.4309
")));	-10.4312
▁propertyName	-10.4315
▁skip	-10.4319
az	-10.432
addAttribute	-10.4327
TA	-10.4329
500	-10.4329
Gra	-10.4335
MD	-10.4336
way	-10.4338
40	-10.4345
Effect	-10.4353
▁combo	-10.4355
Editable	-10.4357
CO	-10.4358
Rotation	-10.4358
▁pw	-10.436
Changes	-10.4371
▁reason	-10.4373
pa	-10.4374
Answer	-10.4375
21	-10.4376
begin	-10.4377
Hint	-10.4378
▁Player	-10.4388
▁spec	-10.4392
API	-10.4397
Resolve	-10.4398
lower	-10.44
Spinner	-10.4401
sel	-10.4402
native	-10.4402
Refresh	-10.4403
normal	-10.4405
rank	-10.4407
howMessageDialog	-10.4408
▁track	-10.4417
SO	-10.4417
IVE	-10.4417
Car	-10.442
TreeModel	-10.4428
jPanel	-10.4429
try	-10.4439
Assign	-10.444
Assignment	-10.4447
Second	-10.4449
COLUMN	-10.4449
COMP	-10.4452
reader	-10.4454
Side	-10.4458
▁visitor	-10.4463
vec	-10.4465
▁HttpServlet	-10.4468
Tr	-10.4468
application	-10.4469
--)	-10.4469
▁destroy	-10.4471
Workspace	-10.4472
Started	-10.4473
nlm	-10.4476
Links	-10.448
priority	-10.4492
nih	-10.4493
▁7	-10.4496
▁ds	-10.4497
▁fieldName	-10.4497
▁getJButton	-10.4498
▁center	-10.4504
▁go	-10.4507
▁include	-10.4509
▁Time	-10.451
scroll	-10.4513
ative	-10.4516
compile	-10.4516
▁ParseException	-10.4517
ParseException	-10.4517
Stat	-10.4517
▁language	-10.4525
isVisible	-10.4529
MSG	-10.4532
dt	-10.4534
▁sel	-10.4536
▁configure	-10.4538
▁isValid	-10.4543
Desktop	-10.4545
Statistics	-10.4547
second	-10.4547
CLOSE	-10.4549
pro	-10.4554
zip	-10.4555
ServiceException	-10.4555
img	-10.4556
primary	-10.456
UPDATE	-10.4564
language	-10.4568
Processing	-10.4574
Finished	-10.4582
GET	-10.4583
getBounds	-10.4587
▁jLabel	-10.4589
unique	-10.4592
▁condition	-10.4594
▁weight	-10.4604
Sender	-10.4605
initial	-10.4608
package	-10.461
seq	-10.4611
▁available	-10.4611
Vec	-10.4613
▁lookup	-10.4628
eutils	-10.4631
Ac	-10.4632
bind	-10.4636
self	-10.4641
Light	-10.4643
Alpha	-10.4653
Methods	-10.4658
operator	-10.466
MBean	-10.4661
aw	-10.4662
▁":"	-10.4663
▁getFile	-10.4669
▁split	-10.4669
Al	-10.4669
▁BuildException	-10.4673
255	-10.468
▁timeout	-10.4683
Pick	-10.4683
High	-10.4686
▁calendar	-10.469
Cycle	-10.4694
▁gen	-10.4697
dialog	-10.4698
getView	-10.4702
DL	-10.4714
publish	-10.4714
ities	-10.4717
lookup	-10.4717
▁scan	-10.4719
world	-10.4721
ern	-10.4723
Connections	-10.4726
ail	-10.4735
Creator	-10.4736
getTarget	-10.4746
UT	-10.4747
getOwner	-10.475
types	-10.475
LI	-10.4751
▁direction	-10.4756
▁Transaction	-10.4756
DIR	-10.4764
join	-10.4765
▁focus	-10.4768
▁tile	-10.4774
apply	-10.4785
▁errors	-10.4787
prepareStatement	-10.4791
ADD	-10.4792
▁setMax	-10.4794
Absolute	-10.4798
isDirectory	-10.4799
ru	-10.48
▁verify	-10.4802
FORM	-10.4806
previous	-10.4811
▁bit	-10.4813
Scene	-10.4816
Master	-10.4817
▁timer	-10.4818
Inf	-10.4819
direct	-10.4826
▁global	-10.4828
rect	-10.4828
▁series	-10.483
getMax	-10.4834
ense	-10.4839
OUT	-10.4842
cut	-10.4844
▁email	-10.4844
Assertion	-10.4848
IR	-10.4854
CHAR	-10.4856
schedule	-10.4857
pass	-10.4862
inc	-10.4863
▁axis	-10.4865
Individual	-10.4868
phone	-10.4871
RDF	-10.4871
▁TextField	-10.4876
ByteBuffer	-10.4878
parameters	-10.488
='	-10.488
cycle	-10.4881
series	-10.4885
Dist	-10.4887
DateFormat	-10.4891
Invocation	-10.4892
Cr	-10.4896
▁9	-10.4899
▁expr	-10.4901
counter	-10.4911
JS	-10.4923
Upper	-10.4923
storage	-10.4938
empty	-10.4941
▁reg	-10.4941
initialize	-10.4944
Ship	-10.4945
Bin	-10.4946
▁random	-10.4946
Extra	-10.4949
relation	-10.495
▁getT	-10.4951
▁"'"	-10.4954
Notify	-10.4956
▁supported	-10.4958
▁non	-10.4962
▁Constants	-10.4966
Rank	-10.4971
writeObject	-10.4978
Executor	-10.4979
▁"]	-10.498
▁cursor	-10.499
▁Statement	-10.4993
ition	-10.4994
configuration	-10.4995
▁evaluate	-10.4996
hour	-10.4998
Upload	-10.5001
allow	-10.5002
▁canvas	-10.5003
Toolkit	-10.5011
▁"."	-10.5018
▁month	-10.5024
▁pr	-10.5025
/2	-10.5027
▁renderer	-10.503
▁removeAll	-10.5033
▁Token	-10.5038
getContext	-10.504
▁columnIndex	-10.5041
▁pass	-10.5044
folder	-10.5045
vm	-10.5048
Working	-10.5051
▁Pattern	-10.5057
▁up	-10.5061
▁sim	-10.5075
▁Server	-10.5076
Gene	-10.5078
ble	-10.5079
Modify	-10.508
Cont	-10.5092
cos	-10.5092
Generic	-10.5093
Initialized	-10.5093
▁bundle	-10.5098
Received	-10.5099
DS	-10.5101
▁Arrays	-10.5106
ln	-10.5107
▁","	-10.5108
Em	-10.511
ang	-10.5118
▁calc	-10.5121
▁argu	-10.5122
Numeric	-10.5123
▁Java	-10.5124
choice	-10.5125
PRE	-10.5129
EVENT	-10.5137
Fetch	-10.5137
Break	-10.5139
FF	-10.514
▁>>	-10.5143
▁getNum	-10.5149
flag	-10.515
getSelectedIndex	-10.5157
Camera	-10.5159
anchor	-10.5159
▁profile	-10.516
45	-10.5161
▁Key	-10.5165
▁implemented	-10.5167
getFont	-10.5169
▁shape	-10.5173
▁Geo	-10.5176
▁addTo	-10.5176
compare	-10.5178
:");	-10.5179
ger	-10.5183
getMethod	-10.5185
-1,	-10.5187
files	-10.5187
termin	-10.5189
▁export	-10.5191
▁View	-10.5191
▁Re	-10.5195
png	-10.5195
job	-10.5201
▁gr	-10.5201
Dependency	-10.5209
Lib	-10.521
▁Task	-10.521
▁symbol	-10.5213
eval	-10.5214
login	-10.5218
▁vector	-10.5218
Present	-10.5224
ja	-10.5227
▁raw	-10.5229
Reset	-10.5243
Swing	-10.5246
serial	-10.5248
pref	-10.5249
cb	-10.5254
><	-10.5257
▁getField	-10.5258
Live	-10.526
FIELD	-10.5266
▁el	-10.5272
Dd	-10.5272
Native	-10.5273
1000	-10.5275
thing	-10.5276
Au	-10.5291
Bad	-10.5299
▁push	-10.53
TOP	-10.5305
▁border	-10.5307
27	-10.5315
22	-10.5318
toUpperCase	-10.5324
BorderFactory	-10.5326
Edges	-10.533
Serializable	-10.5332
Cached	-10.5333
addChild	-10.5333
getSelectedItem	-10.5336
getDescription	-10.5338
web	-10.5343
▁ac	-10.5347
div	-10.5354
▁setC	-10.5358
upper	-10.5358
CML	-10.5359
NumberOf	-10.5365
▁person	-10.5366
expect	-10.5368
prob	-10.5373
graphic	-10.5376
Managed	-10.5377
Nr	-10.5379
▁section	-10.5381
nodes	-10.5382
TestCase	-10.5382
WIDTH	-10.5386
Iteration	-10.5387
▁My	-10.5389
attach	-10.5397
▁|=	-10.5399
▁conf	-10.5401
PAR	-10.541
Editing	-10.541
ROW	-10.5412
Scheme	-10.5432
structure	-10.5433
DataSet	-10.5433
▁interface	-10.5434
extension	-10.544
▁expand	-10.5442
AB	-10.5446
/*	-10.5449
props	-10.5451
▁getM	-10.5453
je	-10.5456
socket	-10.5461
▁names	-10.5462
manager	-10.5464
("[	-10.5467
▁trace	-10.5467
Loaded	-10.5468
▁setCurrent	-10.5471
getPage	-10.5474
▁required	-10.5474
SEVERE	-10.5475
Lower	-10.5476
▁per	-10.5482
DAY	-10.5484
Outline	-10.5492
▁pk	-10.5492
timestamp	-10.5492
tx	-10.5492
Chars	-10.5511
04	-10.5512
▁html	-10.5515
assertEquals	-10.5518
dest	-10.5534
DT	-10.5536
alias	-10.5543
ten	-10.5544
sym	-10.5544
Arguments	-10.5546
Material	-10.555
ATTR	-10.5552
FilePath	-10.5555
waitFor	-10.5564
?"	-10.5569
▁dataset	-10.5571
[0],	-10.5573
▁peer	-10.5579
translate	-10.5583
disable	-10.5586
▁we	-10.5586
Validate	-10.559
sequence	-10.5595
▁dim	-10.5596
ard	-10.5596
Convert	-10.5598
▁space	-10.5601
MASK	-10.5601
Tax	-10.5604
Participant	-10.5605
DELETE	-10.5609
Rep	-10.5616
ze	-10.5616
ak	-10.5618
lib	-10.5626
▁setSelected	-10.563
▁orig	-10.5633
IND	-10.5633
real	-10.5638
Setup	-10.564
product	-10.5649
lar	-10.5653
TransactionSeq	-10.5656
▁encoding	-10.5657
leg	-10.566
IG	-10.566
▁remote	-10.5661
>";	-10.5665
▁yet	-10.5665
meta	-10.5666
gui	-10.5666
▁zoom	-10.5668
Artifact	-10.5674
▁points	-10.5679
Dynamic	-10.5681
horizontal	-10.5685
▁Character	-10.5685
dp	-10.5691
▁feature	-10.5693
render	-10.5694
▁th	-10.5696
▁dy	-10.5696
EditPart	-10.57
transition	-10.5707
GR	-10.5709
60	-10.5711
Same	-10.5712
regorianCalendar	-10.572
▁getModel	-10.572
▁WHERE	-10.5721
radius	-10.5725
▁15	-10.5725
▁assign	-10.5735
Sorted	-10.5735
Categories	-10.5737
ward	-10.574
▁SQL	-10.5741
Week	-10.5741
▁extract	-10.5744
Origin	-10.5748
TRANS	-10.5749
Blog	-10.5754
▁Util	-10.5755
Merge	-10.5755
Inner	-10.5758
Radius	-10.5765
Inv	-10.5765
▁diff	-10.5769
▁score	-10.5772
▁gc	-10.5772
receive	-10.5776
database	-10.5778
▁getObject	-10.5785
policy	-10.5785
COUNT	-10.5785
und	-10.5785
modifier	-10.579
public	-10.5793
ChildrenFeatures	-10.58
▁scope	-10.58
xFF	-10.5801
▁sw	-10.5801
CB	-10.5804
Stmt	-10.5806
Ignore	-10.5809
dict	-10.5809
roll	-10.581
▁jMenuItem	-10.5812
email	-10.5813
▁Client	-10.5816
dx	-10.5818
VERSION	-10.5818
▁BufferedImage	-10.5819
PrintStream	-10.582
▁setVisible	-10.5821
Photo	-10.5822
Printer	-10.5823
getBoolean	-10.583
▁newVal	-10.5832
▁seq	-10.5833
Runnable	-10.584
ulation	-10.584
FileNotFound	-10.5841
▁media	-10.5843
Roles	-10.5844
limit	-10.5845
syn	-10.5847
Username	-10.5853
InternalFrame	-10.5856
AV	-10.5857
activeInd	-10.5858
year	-10.5858
closing	-10.5859
ous	-10.586
concept	-10.586
Minute	-10.587
Lang	-10.5873
Termin	-10.5873
constant	-10.5875
Platform	-10.5878
Bind	-10.5884
jdbc	-10.5887
pack	-10.5888
▁delegate	-10.5893
escape	-10.5894
team	-10.5894
Course	-10.5899
layer	-10.59
Metrics	-10.59
▁character	-10.5905
namespace	-10.5916
▁schedule	-10.5919
getField	-10.5929
▁Un	-10.5932
clazz	-10.5932
lic	-10.5934
border	-10.5937
Graphic	-10.5938
▁20	-10.5942
▁Game	-10.5942
▁clean	-10.5943
▁getB	-10.5944
Ar	-10.5946
propertyName	-10.595
less	-10.5951
▁limit	-10.5951
trigger	-10.5952
BE	-10.5953
Drawing	-10.5954
Tasks	-10.5958
ord	-10.5965
▁Array	-10.5966
holder	-10.5976
▁GridLayout	-10.5976
AI	-10.5977
▁subject	-10.5982
▁exist	-10.5989
▁200	-10.5994
score	-10.5996
white	-10.5998
jTextField	-10.5998
note	-10.6015
Qua	-10.6021
unlock	-10.6022
Cms	-10.6022
indent	-10.6022
fields	-10.6023
los	-10.6023
▁^	-10.6025
▁Parameter	-10.6031
▁year	-10.6032
Gap	-10.6033
STAttribute	-10.6036
▁U	-10.6036
quote	-10.6043
rc	-10.6049
Switch	-10.6051
rollback	-10.6056
▁3)	-10.6063
Watch	-10.6064
Original	-10.6065
▁annotation	-10.6068
▁undo	-10.6077
29	-10.6081
City	-10.6083
Receiver	-10.6083
▁alias	-10.6084
Permissions	-10.6085
setForeground	-10.6092
names	-10.6092
sync	-10.6094
Conf	-10.6096
transaction	-10.6096
align	-10.6121
af	-10.6124
Design	-10.6129
▁descriptor	-10.6135
▁decode	-10.6135
problem	-10.6139
dot	-10.6139
▁getElement	-10.614
arc	-10.6141
ific	-10.6142
percent	-10.6144
▁area	-10.6148
Pages	-10.6154
Snapshot	-10.6156
DIS	-10.6156
▁translate	-10.6159
cept	-10.6167
mask	-10.6169
▁insets	-10.6179
FINE	-10.6179
▁now	-10.6188
qua	-10.6191
▁pnl	-10.6194
ulate	-10.6195
ach	-10.6195
Dt	-10.6198
Dom	-10.6198
▁retrieve	-10.6203
Err	-10.6203
▁note	-10.6204
▁web	-10.6206
Two	-10.6207
▁jMenu	-10.621
▁0.0;	-10.6212
Fact	-10.6214
track	-10.6214
controller	-10.6216
▁getConnection	-10.6219
Bo	-10.6225
Lo	-10.6227
alert	-10.6227
▁getJPanel	-10.6228
INVALID	-10.6228
custom	-10.6228
cao	-10.6232
SelectionModel	-10.6234
direction	-10.624
Foreground	-10.6241
sin	-10.6244
24	-10.6246
Behavior	-10.6248
Ratio	-10.6248
available	-10.6249
Images	-10.6252
2.0	-10.6255
▁dao	-10.6259
▁align	-10.6262
BR	-10.6273
chain	-10.6275
GROUP	-10.6282
▁shell	-10.6283
▁getAll	-10.6284
BOOLEAN	-10.6295
0.5	-10.63
isDifferent	-10.6304
validation	-10.6313
UL	-10.6313
True	-10.6315
Video	-10.6316
Suite	-10.6316
Special	-10.6323
evaluate	-10.6339
▁24	-10.6339
==0)	-10.634
▁answer	-10.6344
va	-10.6347
gram	-10.6351
turn	-10.6351
ABLE	-10.6353
▁+"	-10.6355
Occur	-10.6364
Throw	-10.6365
Repeat	-10.6368
own	-10.6369
train	-10.6374
▁install	-10.6376
▁getDescription	-10.6376
adapt	-10.6377
▁gui	-10.6381
▁callback	-10.6383
expression	-10.6396
Indices	-10.6402
▁dt	-10.6406
Fast	-10.6409
▁complete	-10.6411
Quantity	-10.6423
RC	-10.6425
34	-10.6425
eas	-10.6431
margin	-10.6432
TR	-10.6434
Visit	-10.6438
PrimaryKey	-10.644
▁SwingUtilities	-10.6449
include	-10.645
ViewportView	-10.6453
▁atom	-10.6454
setCurrent	-10.6456
Wrap	-10.6456
▁getParameter	-10.6459
getJPanel	-10.6461
prev	-10.6461
deploy	-10.6466
getNotifier	-10.6468
▁invalidate	-10.6469
operation	-10.647
Picture	-10.6471
EXP	-10.6473
route	-10.6473
NotifyChanged	-10.6474
REF	-10.6475
▁pop	-10.6483
processor	-10.6483
Ob	-10.6486
STR	-10.6486
35	-10.6486
▁Dxl	-10.6488
Dest	-10.6489
-1;	-10.649
Hex	-10.6495
JDBC	-10.6497
pool	-10.6498
Skill	-10.65
with	-10.6503
Actual	-10.651
▁cat	-10.6511
RED	-10.6512
Ident	-10.6518
▁driver	-10.6519
▁10)	-10.6521
SH	-10.6521
ToolTip	-10.6524
Install	-10.6528
▁30	-10.6529
terminate	-10.6536
▁getSource	-10.6539
Quote	-10.6539
Conversion	-10.654
▁when	-10.6544
relative	-10.6545
ctx	-10.6547
Multiple	-10.6549
:"+	-10.6554
▁join	-10.6569
▁author	-10.6577
device	-10.658
▁called	-10.6582
gene	-10.6582
OB	-10.6588
download	-10.659
two	-10.659
author	-10.6593
▁JSeparator	-10.6597
PAGE	-10.66
dirty	-10.6601
Increment	-10.6605
Dto	-10.6611
Tokens	-10.6612
setModel	-10.6614
Primary	-10.6615
▁progress	-10.6615
Organization	-10.6616
DA	-10.6617
import	-10.6621
Defined	-10.6623
▁Viewer	-10.6643
▁Socket	-10.665
predicate	-10.6654
iate	-10.6655
transfer	-10.6655
▁angle	-10.6663
▁board	-10.6665
media	-10.6667
ProgressBar	-10.6667
Issue	-10.6668
TION	-10.6669
createStatement	-10.6669
sBy	-10.6675
▁br	-10.6683
DN	-10.6684
agent	-10.6689
▁protocol	-10.6695
peak	-10.6704
Coordinates	-10.671
actionPerformed	-10.6711
Suffix	-10.6716
found	-10.6721
orientation	-10.6729
Logic	-10.673
▁sync	-10.6732
▁Cache	-10.6741
Capabilities	-10.6751
updateDt	-10.6752
▁cc	-10.6755
algorithm	-10.6756
Dispatcher	-10.676
Sibling	-10.676
center	-10.6766
Im	-10.6769
insertUserRef	-10.6769
updateUserRef	-10.6769
Ready	-10.677
▁relation	-10.6771
▁only	-10.6773
insertDt	-10.6773
Analysis	-10.6778
Navigation	-10.6778
env	-10.6779
▁buff	-10.6781
currentThread	-10.6782
▁chart	-10.6784
Alt	-10.6785
ClassCast	-10.6787
Bot	-10.6789
program	-10.6791
▁fetch	-10.6794
▁high	-10.68
Should	-10.6805
▁commit	-10.6806
▁pc	-10.681
▁shutdown	-10.6811
systemRef	-10.6818
▁")");	-10.682
argument	-10.6822
destroy	-10.6822
Hashtable	-10.6823
only	-10.6826
▁Local	-10.6827
SVG	-10.6832
span	-10.6833
PREFIX	-10.6841
issue	-10.6841
▁contents	-10.6844
cursor	-10.685
▁getX	-10.6855
MenuBar	-10.6856
▁Composite	-10.6856
▁objects	-10.6856
Any	-10.6861
Comparable	-10.6863
single	-10.6864
Comments	-10.6865
▁history	-10.6866
rand	-10.687
TITLE	-10.6872
Correct	-10.6877
Comm	-10.6879
InetAddress	-10.6881
Signal	-10.6883
exclude	-10.6886
setSelectedIndex	-10.6888
▁provider	-10.689
Indicator	-10.6895
Exc	-10.6905
▁plot	-10.6908
setInt	-10.6911
Invoke	-10.6913
Arc	-10.6914
non	-10.6916
UserName	-10.6917
States	-10.692
▁dimension	-10.6922
WindowEvent	-10.6927
▁allow	-10.6928
signature	-10.6931
forName	-10.6931
Resolution	-10.6934
ACT	-10.6937
highlight	-10.6938
marshal	-10.6944
▁cause	-10.6949
EM	-10.6953
lv	-10.6957
TF	-10.6959
setFocus	-10.696
▁ns	-10.6969
▁added	-10.6969
▁repository	-10.6973
CellRenderer	-10.6976
▁closed	-10.6981
Seconds	-10.6985
Procedure	-10.699
▁methodName	-10.699
modify	-10.6993
▁clip	-10.6994
gap	-10.6997
fragment	-10.6999
ServletContext	-10.7008
Win	-10.7009
unregister	-10.701
▁getRoot	-10.7011
og	-10.7016
failure	-10.7017
▁popup	-10.702
StringBuffer	-10.7024
Triple	-10.7026
ric	-10.7028
'"	-10.7028
stroke	-10.7034
columns	-10.7035
ring	-10.7035
ActionPerformed	-10.7035
Completed	-10.7045
observ	-10.7048
USE	-10.7049
digest	-10.7049
generator	-10.7049
account	-10.7049
OBJECT	-10.7054
Viewport	-10.7054
TitledBorder	-10.7058
uni	-10.7062
ike	-10.707
Semantic	-10.7072
Exec	-10.7079
Connected	-10.7079
▁OutputStream	-10.7083
BUTTON	-10.7086
Syn	-10.7092
complete	-10.7095
newEditInstance	-10.7097
section	-10.7104
func	-10.7105
KeyStroke	-10.7106
▁ev	-10.7107
Percent	-10.7109
decode	-10.711
RP	-10.7111
▁region	-10.7122
Expand	-10.7124
Goal	-10.7127
arity	-10.7129
columnIndex	-10.7129
master	-10.7131
▁Q	-10.7134
Compare	-10.7135
Ra	-10.7137
Example	-10.7137
ITY	-10.7138
slide	-10.7139
used	-10.714
▁Entity	-10.7145
Mutable	-10.7145
question	-10.7149
Extent	-10.715
Velocity	-10.7155
Accessor	-10.7155
▁dump	-10.7158
Bug	-10.7162
▁getNumberOf	-10.7163
Album	-10.7164
common	-10.7167
▁getInt	-10.7174
▁arguments	-10.7178
Members	-10.718
▁exists	-10.7181
Family	-10.7188
▁bind	-10.7188
Sys	-10.7189
▁but	-10.7191
+=	-10.7193
▁ad	-10.7195
02	-10.7195
createElement	-10.7196
▁EntityManager	-10.7196
COM	-10.7199
Management	-10.7207
RemoteException	-10.7207
gt	-10.721
▁multi	-10.7211
▁getSize	-10.7216
28	-10.7219
mer	-10.7221
▁columnName	-10.7221
assign	-10.7228
▁duration	-10.7229
Completion	-10.7239
extra	-10.7239
Vo	-10.7243
Modification	-10.7244
▁rt	-10.7245
NullPointer	-10.7245
▁delay	-10.7252
▁vertex	-10.7253
TableName	-10.7254
▁identifier	-10.7258
ada	-10.7259
LS	-10.7259
eclipse	-10.7262
Arr	-10.7265
▁setUser	-10.7267
▁Mock	-10.7275
ico	-10.7277
install	-10.7277
Intent	-10.7281
VIEW	-10.7286
tile	-10.7286
▁depth	-10.7286
mail	-10.7288
Visibility	-10.7295
▁compile	-10.7299
48	-10.7304
▁cluster	-10.7308
37	-10.7312
UUID	-10.7314
▁dist	-10.7318
▁di	-10.7322
sch	-10.7326
▁Matrix	-10.7327
memory	-10.7333
Band	-10.7335
Frequency	-10.7337
place	-10.7338
Low	-10.734
proxy	-10.734
shutdown	-10.734
▁increment	-10.7345
▁HTML	-10.7348
Prefs	-10.7352
black	-10.7352
asList	-10.7354
Restriction	-10.7356
annot	-10.7358
▁Cell	-10.7364
some	-10.7364
Representation	-10.7368
▁force	-10.7369
ador	-10.7372
▁getSession	-10.7374
ejb	-10.7377
mime	-10.7378
area	-10.7381
gif	-10.7384
Alive	-10.7386
resources	-10.7387
ProcName	-10.7391
lim	-10.7394
Mean	-10.7396
Currency	-10.7404
Simulation	-10.7409
poll	-10.7412
▁sender	-10.7413
shift	-10.7413
▁notifyChanged	-10.7413
Dot	-10.7416
Messaging	-10.7418
▁binding	-10.7419
present	-10.7419
rotate	-10.7421
Days	-10.7422
Exist	-10.7424
LineNumber	-10.7425
shape	-10.7434
fo	-10.7438
collect	-10.7446
Terminal	-10.7447
aux	-10.7455
Hidden	-10.7456
PDF	-10.7461
getAttributes	-10.7461
▁used	-10.7461
▁")"	-10.7464
▁populate	-10.7466
OID	-10.7469
▁setTitle	-10.7471
distance	-10.7473
Func	-10.7489
VERTICAL	-10.7489
MF	-10.7491
Dim	-10.7493
Append	-10.7495
fl	-10.7498
▁Display	-10.7499
QU	-10.7501
▁Page	-10.7507
Palette	-10.7513
conf	-10.7515
▁df	-10.7516
zero	-10.7518
▁opt	-10.7518
settings	-10.7524
▁mask	-10.7527
▁merge	-10.7529
getContentPane	-10.7535
jcasType	-10.7538
16/	-10.7544
Loading	-10.7559
IV	-10.7559
ErrorCode	-10.756
UID	-10.7562
solution	-10.7563
Formatted	-10.7565
getPreferredSize	-10.7567
internal	-10.7567
case	-10.7568
TypeRef	-10.757
ke	-10.758
tim	-10.759
▁getResource	-10.7591
Best	-10.7591
▁getTarget	-10.7592
+"'	-10.7592
Rating	-10.7595
comparator	-10.76
sendMessage	-10.7607
ColumnName	-10.7608
Act	-10.761
Opt	-10.761
effect	-10.7615
peer	-10.7615
/"	-10.7617
inf	-10.7627
Fr	-10.763
integer	-10.7631
upload	-10.7632
▁successful	-10.7632
Qualified	-10.7639
▁JFileChooser	-10.7642
keep	-10.7646
▁rc	-10.7649
STYLE	-10.7658
audio	-10.7658
▁getContent	-10.7662
▁free	-10.7666
Prob	-10.7674
setHorizontal	-10.7677
SOAP	-10.7685
ht	-10.7688
external	-10.7693
JComponent	-10.7693
sqrt	-10.7697
imp	-10.7698
crypt	-10.7701
Threads	-10.7702
▁types	-10.7711
FALSE	-10.7712
Players	-10.7712
Office	-10.7713
Neighbor	-10.7717
focus	-10.7718
saved	-10.7721
ura	-10.7721
Distribution	-10.7722
Variant	-10.7722
helper	-10.7724
SelectionEvent	-10.773
▁topic	-10.7731
▁getFirst	-10.7732
rad	-10.7737
launch	-10.7741
▁cached	-10.7753
ChangeSupport	-10.7757
Force	-10.7761
},	-10.7762
▁you	-10.7764
ulator	-10.7774
PropertyValue	-10.778
stmt	-10.7783
HEIGHT	-10.7796
Spacing	-10.7796
Utility	-10.7797
country	-10.7801
NG	-10.7806
intersect	-10.7808
collection	-10.7812
▁http	-10.7814
caught	-10.782
month	-10.7821
▁tc	-10.7827
▁sm	-10.7827
Nick	-10.784
▁inst	-10.7844
help	-10.7846
plot	-10.7849
Disabled	-10.7855
▁box	-10.7859
></	-10.7867
original	-10.7869
texture	-10.787
Submit	-10.7871
cert	-10.7873
Finish	-10.7873
▁enum	-10.7876
HORIZONTAL	-10.788
cas	-10.788
den	-10.7882
Asset	-10.7883
Interaction	-10.7883
▁gridData	-10.7886
phase	-10.7886
nick	-10.7892
TableColumn	-10.7896
ung	-10.7901
▁32	-10.7904
▁invalid	-10.7907
gre	-10.7908
▁-1);	-10.7912
contact	-10.7914
Virtual	-10.7915
=?	-10.7916
Coords	-10.792
shared	-10.792
▁Context	-10.7922
getNamespace	-10.7925
▁hide	-10.793
Scan	-10.7932
bus	-10.7934
Hierarchy	-10.794
▁ui	-10.7948
Experiment	-10.795
Scheduler	-10.7952
bounds	-10.7965
CSS	-10.7966
Att	-10.7967
Article	-10.797
Am	-10.7979
identifier	-10.798
Async	-10.7981
Release	-10.7982
▁segment	-10.799
▁running	-10.7991
suffix	-10.7995
▁bottom	-10.8001
Now	-10.8001
blue	-10.8004
Aspect	-10.8005
Caret	-10.8008
Tipo	-10.8013
SimpleDateFormat	-10.8014
DataModel	-10.8017
za	-10.8033
led	-10.8033
▁StringWriter	-10.8034
kind	-10.8036
nome	-10.804
SUB	-10.8041
atom	-10.8044
Ctx	-10.8049
Applet	-10.8051
Sprite	-10.8051
scope	-10.8053
FILL	-10.8061
vc	-10.8062
Resize	-10.8064
admin	-10.8064
subscribe	-10.8066
safe	-10.8068
Unsupported	-10.8072
Decimal	-10.8081
basic	-10.8082
Company	-10.8082
INDEX	-10.8082
▁interval	-10.8085
Compound	-10.8096
42	-10.8096
▁60	-10.8097
Leg	-10.8097
Song	-10.8097
archive	-10.8107
▁pstmt	-10.8112
actual	-10.8112
▁cookie	-10.8118
RESOURCE	-10.8118
Definitions	-10.8119
ou	-10.8123
Adaptor	-10.8124
ServletException	-10.8131
piece	-10.8137
▁reply	-10.814
▁done	-10.8142
submit	-10.8143
Metric	-10.8146
Pending	-10.8146
getShell	-10.8148
unknown	-10.8159
▁disconnect	-10.8161
loneNotSupported	-10.8161
volume	-10.8163
▁resources	-10.8166
PT	-10.8169
▁rel	-10.817
Encoder	-10.8172
Preview	-10.8175
Ap	-10.8182
Solution	-10.8183
could	-10.8183
profile	-10.8186
Cert	-10.8188
Disc	-10.8188
▁FileWriter	-10.8188
INSERT	-10.8188
Pop	-10.8192
Degree	-10.8199
locator	-10.8204
▁"\""	-10.8205
BorderLayout	-10.8207
▁JTextArea	-10.8213
toggle	-10.8214
notifyChanged	-10.8216
gc	-10.8221
parser	-10.8223
operand	-10.8224
RES	-10.823
capacity	-10.8245
Stock	-10.8245
Power	-10.8245
entries	-10.8248
ANY	-10.8249
NUMBER	-10.825
invokeLater	-10.8255
Entities	-10.8256
tok	-10.8258
article	-10.8267
undo	-10.8268
Par	-10.8275
DU	-10.8275
isDisposed	-10.8276
packet	-10.8277
SA	-10.8289
sun	-10.8295
Parts	-10.8306
Qualifier	-10.8312
example	-10.8323
▁vo	-10.8333
Ip	-10.8334
26	-10.8341
getNum	-10.8345
Workbench	-10.8345
▁JComponent	-10.8347
CONTENT	-10.8349
directory	-10.835
FileSystem	-10.8351
preferences	-10.8354
Clean	-10.8354
IStructured	-10.8355
Serv	-10.8355
Duplicate	-10.8359
Wrong	-10.8359
▁rep	-10.8371
▁getNew	-10.8372
▁drop	-10.8373
Dia	-10.8376
Digest	-10.838
AttributeValue	-10.8383
EXT	-10.8384
LEVEL	-10.8385
Div	-10.8395
ISO	-10.8397
rp	-10.8406
Json	-10.8408
nextInt	-10.841
subject	-10.8415
Front	-10.8417
Rendering	-10.8419
DataObject	-10.8421
Allow	-10.8425
▁*=	-10.8427
concat	-10.8428
json	-10.8435
cls	-10.8436
▁exec	-10.8437
mag	-10.8437
symbol	-10.8439
signal	-10.8439
mapping	-10.8441
▁loader	-10.8442
36	-10.8442
TC	-10.8443
MAP	-10.8449
merge	-10.8451
ListModel	-10.8454
Tokenizer	-10.8454
▁servlet	-10.8456
Cause	-10.8461
Img	-10.8464
MalformedURL	-10.8465
TreeItem	-10.8467
▁ip	-10.8474
desktop	-10.8475
▁origin	-10.8476
Cart	-10.8482
ever	-10.8483
destination	-10.8497
figure	-10.8498
Make	-10.8499
HO	-10.8499
Calc	-10.8501
Generate	-10.8502
Glyph	-10.8507
▁jRadioButton	-10.8508
▁Html	-10.8508
catalog	-10.8512
ark	-10.8514
raw	-10.8517
batch	-10.8518
▁0){	-10.8519
Features	-10.8524
UserId	-10.8526
(10,	-10.8527
ropertySheetPage	-10.8527
Sec	-10.8528
Sch	-10.8535
calculate	-10.8535
expr	-10.8539
FL	-10.8543
Under	-10.8544
TL	-10.8546
tt	-10.8559
NORTH	-10.856
▁dec	-10.8561
Prov	-10.8563
Toolbar	-10.8569
SEPARATOR	-10.8576
Attempt	-10.8576
Persist	-10.8584
▁may	-10.8589
▁components	-10.8592
tail	-10.8592
FOR	-10.8601
ERR	-10.8602
Audit	-10.8602
▁getMin	-10.8608
Compiler	-10.8609
Registration	-10.8613
▁updateChildren	-10.8616
PrintWriter	-10.8618
lit	-10.8626
reverse	-10.8629
Phrase	-10.8629
Go	-10.8638
ora	-10.8642
attachment	-10.8642
▁supports	-10.8654
LABEL	-10.8656
watch	-10.8656
▁metadata	-10.8659
declare	-10.866
Subscription	-10.8667
Evaluator	-10.8667
isActive	-10.8671
▁Generic	-10.8671
Slide	-10.8674
▁constraints	-10.8684
mon	-10.8686
CHANGED	-10.8687
getFeatureID	-10.8689
emp	-10.8689
Blank	-10.8694
Dispatch	-10.87
Credit	-10.8703
Payment	-10.8705
eq	-10.8708
▁adapter	-10.871
that	-10.8718
vector	-10.872
ish	-10.872
Runner	-10.8721
findBy	-10.8721
▁any	-10.8723
numberOf	-10.8723
cmp	-10.8725
Functions	-10.8726
Lead	-10.8732
dev	-10.8735
VAR	-10.8736
additional	-10.8737
Radio	-10.8737
Org	-10.8738
price	-10.8738
invalid	-10.8738
▁attrs	-10.8739
isConnected	-10.875
▁adjust	-10.8751
global	-10.8752
▁getProject	-10.8756
strict	-10.8761
bottom	-10.8764
NEW	-10.8778
Partner	-10.8781
SOURCE	-10.8784
gn	-10.8792
▁tokens	-10.8793
free	-10.8794
che	-10.8794
▁restore	-10.8796
Preferred	-10.8796
ACK	-10.8797
sound	-10.8798
▁mail	-10.8801
FORMAT	-10.8804
90	-10.8806
▁auth	-10.8807
Ui	-10.8809
▁criteria	-10.8809
compute	-10.881
▁matches	-10.8813
Life	-10.8813
measure	-10.8813
person	-10.8818
fatal	-10.882
setMaximum	-10.882
Atc	-10.882
▁userName	-10.8828
LENGTH	-10.8835
endpoint	-10.8842
Hand	-10.8844
Notes	-10.8846
vt	-10.8851
400	-10.8852
Jdbc	-10.8852
Station	-10.8863
Pause	-10.8872
▁setSelection	-10.8878
Where	-10.8879
Cross	-10.8879
SSL	-10.8884
writeInt	-10.8888
Api	-10.8889
FileFilter	-10.8893
monitor	-10.8893
ight	-10.8894
confirm	-10.8896
▁fc	-10.8899
fil	-10.8901
NA	-10.8901
SwingConstant	-10.8906
Employee	-10.8907
LOAD	-10.8908
▁inv	-10.8909
Expire	-10.8912
exec	-10.8914
Activation	-10.8918
0000	-10.8922
Portal	-10.8924
vertices	-10.8929
Negative	-10.8929
jsp	-10.8933
MONTH	-10.8934
Anim	-10.894
addCommand	-10.894
Annotations	-10.8941
More	-10.8945
Stamp	-10.8947
encrypt	-10.8947
▁JTable	-10.8954
region	-10.8956
binary	-10.8958
annotation	-10.8964
▁activity	-10.8967
Interpreter	-10.8968
Aware	-10.8968
ATOR	-10.8968
ture	-10.8972
EO	-10.8973
▁maximum	-10.8977
Checker	-10.8983
Struct	-10.8983
izable	-10.8985
▁constraint	-10.8989
ICON	-10.8995
but	-10.8998
Envelope	-10.9001
▁getTotal	-10.9005
▁simple	-10.9005
which	-10.9007
Pref	-10.901
▁flags	-10.9012
SHA	-10.9012
▁place	-10.9014
Robot	-10.9018
ready	-10.9018
Cast	-10.9025
IB	-10.9028
instruction	-10.9029
Gr	-10.9032
Configure	-10.9034
hand	-10.9034
big	-10.9034
▁definition	-10.9036
coordinate	-10.904
POINT	-10.9046
▁chunk	-10.9051
environment	-10.9051
BigInteger	-10.9057
viewer	-10.9058
ORDER	-10.906
rating	-10.9065
assoc	-10.9068
Big	-10.9071
','	-10.9077
▁drag	-10.9078
export	-10.9079
meter	-10.9079
IllegalAccess	-10.9097
getMin	-10.9099
statement	-10.9102
Spectrum	-10.9102
\""	-10.9105
CREATE	-10.9107
Nested	-10.9107
rom	-10.9109
Star	-10.9112
bits	-10.9113
Feedback	-10.9125
▁itr	-10.9129
allocate	-10.913
cfg	-10.9136
▁than	-10.9145
▁butt	-10.9147
TextPane	-10.9149
attrib	-10.9149
StartTime	-10.9151
▁about	-10.9154
Presentation	-10.9159
▁more	-10.916
pol	-10.9162
Ent	-10.9163
photo	-10.9164
history	-10.9171
constraint	-10.9174
raf	-10.9179
▁period	-10.9181
▁correct	-10.9181
▁getDocument	-10.9182
success	-10.9182
▁prefs	-10.919
▁loop	-10.9193
edBy	-10.9197
Skip	-10.9198
▁pack	-10.92
trie	-10.9203
---	-10.9204
▁getJTextField	-10.9205
progress	-10.9218
Pack	-10.9219
Instant	-10.9222
Oid	-10.9222
("#	-10.9226
LOW	-10.9231
rev	-10.9232
tuple	-10.9234
finish	-10.9235
variant	-10.9238
▁equal	-10.9238
asc	-10.9242
▁specified	-10.9244
Age	-10.9245
Locked	-10.9248
▁will	-10.9249
▁bt	-10.9249
rel	-10.925
prot	-10.926
▁dx	-10.9265
mkdir	-10.9266
ScrollBar	-10.927
Letter	-10.9272
candidate	-10.9272
Med	-10.9279
Broker	-10.9289
▁alpha	-10.9297
Tx	-10.9298
fieldName	-10.9302
Curve	-10.9302
dimension	-10.9306
Framework	-10.9314
Sent	-10.9318
IDE	-10.9321
Publish	-10.9322
provider	-10.9328
camera	-10.9329
(-1);	-10.9331
Pdf	-10.9331
configure	-10.9335
Words	-10.935
##	-10.9362
matrix	-10.9366
Wiki	-10.9375
scene	-10.9376
before	-10.9378
▁admin	-10.9381
~	-10.9381
Specific	-10.9382
slice	-10.9384
Jsp	-10.9392
▁gridLayout	-10.9393
getBundle	-10.9393
Pt	-10.9404
NoSuchElement	-10.9406
UML	-10.941
MODEL	-10.9412
▁attributeName	-10.9417
JC	-10.9418
Scenario	-10.9422
("\\	-10.9424
ica	-10.9426
▁startTime	-10.9427
YES	-10.9427
library	-10.9428
SYSTEM	-10.9428
("/")	-10.9435
Logical	-10.944
▁fixture	-10.9442
indices	-10.9445
remaining	-10.9445
clip	-10.9446
ack	-10.9449
Eval	-10.945
AffineTransform	-10.9451
EDIT	-10.9456
FieldName	-10.9456
Apply	-10.9462
cross	-10.9466
Push	-10.9469
vertex	-10.9471
Goods	-10.9478
wizard	-10.948
▁blog	-10.9491
getColumnCount	-10.9493
Std	-10.9499
Legend	-10.95
engine	-10.9504
▁headers	-10.9506
Mem	-10.9511
123	-10.9511
▁pane	-10.9513
Surface	-10.9515
='"	-10.9519
▁BoxLayout	-10.9522
nested	-10.9523
las	-10.953
Canonical	-10.9533
Playlist	-10.9534
readObject	-10.9535
▁reload	-10.9538
rpc	-10.9539
xsd	-10.954
formula	-10.9554
now	-10.9558
columnName	-10.9558
preferred	-10.9562
▁bits	-10.9565
failed	-10.9566
000000	-10.957
Sel	-10.9571
▁textField	-10.9572
▁factor	-10.9573
choose	-10.9574
patient	-10.9574
Consumer	-10.9583
Arrow	-10.9584
SOUTH	-10.9586
Probability	-10.9586
▁Pdf	-10.9591
extract	-10.9592
000	-10.9593
Dev	-10.9593
+1);	-10.9595
ImageDescriptor	-10.9596
Privilege	-10.9598
Whitespace	-10.9598
Prev	-10.9604
Into	-10.9613
Transformation	-10.9613
▁geo	-10.9613
Cor	-10.9614
▁permission	-10.9615
▁observer	-10.9617
▁1:	-10.9624
Evaluation	-10.9627
Expanded	-10.9629
clean	-10.9632
Overlay	-10.9639
")){	-10.964
You	-10.9641
regex	-10.9642
IWorkbench	-10.9667
dim	-10.9669
Manifest	-10.9675
▁menuItem	-10.9682
addContent	-10.9683
BORDER	-10.9683
Painter	-10.9684
▁labelValue	-10.9696
Generation	-10.9702
APP	-10.9703
Fire	-10.9708
▁pixel	-10.9709
Modal	-10.9714
idad	-10.9719
Poll	-10.9724
increment	-10.9725
StackTrace	-10.9725
Sale	-10.9726
CONFIG	-10.9729
ZERO	-10.9735
late	-10.974
getNumberOf	-10.9744
hold	-10.9751
AXIS	-10.9753
timeout	-10.9755
Attach	-10.9763
EST	-10.9764
vertical	-10.9769
Ctrl	-10.9771
Music	-10.9771
radio	-10.9773
metadata	-10.9774
Txt	-10.9776
39	-10.9776
gain	-10.9786
repository	-10.9787
Annot	-10.9788
▁WCM	-10.979
▁dc	-10.979
Disk	-10.9792
flags	-10.9795
CellEditor	-10.9804
Nav	-10.9806
Put	-10.9811
Ocl	-10.9814
Naming	-10.9819
ann	-10.982
Confirm	-10.9821
▁require	-10.9821
Needed	-10.983
Registered	-10.9838
diagram	-10.9839
FacesContext	-10.9843
Serializer	-10.9844
skip	-10.985
NoSuch	-10.9851
review	-10.9851
Mediator	-10.9852
Recipient	-10.9855
▁pause	-10.9866
setActionCommand	-10.9868
Review	-10.9869
▁network	-10.9874
addMouseListener	-10.988
Additional	-10.9886
entities	-10.9891
CANCEL	-10.9892
zoom	-10.9899
Exchange	-10.9916
tk	-10.9916
ontology	-10.9916
ErrorHandler	-10.9919
▁TreePath	-10.9923
▁registry	-10.9925
reserve	-10.9932
uction	-10.9934
Fit	-10.9937
Related	-10.9942
getChildCount	-10.9942
Demo	-10.9945
Study	-10.9959
protocol	-10.9963
METHOD	-10.9965
multiply	-10.9971
Offer	-10.9976
yes	-10.9979
Matching	-10.9999
White	-11.0001
BIT	-11.0007
▁minimum	-11.0015
terminal	-11.0022
encoding	-11.0023
75	-11.0023
Safe	-11.0033
verify	-11.0034
PARAM	-11.0039
setMnemonic	-11.0041
Redirect	-11.0048
remote	-11.0052
Ja	-11.0056
LookAndFeel	-11.0057
ARGUMENT	-11.0057
standard	-11.007
When	-11.007
Producer	-11.0076
Padding	-11.0079
summary	-11.0082
diff	-11.0091
▁ind	-11.0096
▁formatter	-11.0097
Browse	-11.0099
Existing	-11.0106
▁setIs	-11.0107
MT	-11.0107
Optional	-11.011
03	-11.0113
Keep	-11.012
amento	-11.0121
categories	-11.0126
encia	-11.0126
Matches	-11.0132
Unexpected	-11.0135
PreferenceStore	-11.0137
Paragraph	-11.0139
fit	-11.014
▁allowed	-11.0142
OO	-11.0143
YEAR	-11.0144
▁FlowLayout	-11.0145
PARAMETER	-11.0157
workflow	-11.0158
any	-11.0158
Fin	-11.0162
expand	-11.0163
leave	-11.0169
Inst	-11.0178
enum	-11.0181
Neuron	-11.0188
band	-11.0195
Fail	-11.0197
east	-11.0208
disabled	-11.0208
abort	-11.0209
prim	-11.0212
+1)	-11.0229
shell	-11.0229
Escape	-11.0232
84	-11.0236
▁best	-11.0237
AWT	-11.0239
Disconnect	-11.024
▁oObj	-11.0241
Partition	-11.0247
33	-11.025
▁nb	-11.0252
EventHandler	-11.026
pane	-11.0265
getCause	-11.0265
EOF	-11.027
green	-11.0273
Building	-11.0279
UNKNOWN	-11.0283
▁UMLPackage	-11.0283
lier	-11.0283
DESCRIPTION	-11.0289
plus	-11.0295
Destroy	-11.0295
payload	-11.0302
parseDouble	-11.0304
JavaScript	-11.0304
▁dst	-11.0307
Bookmark	-11.031
hide	-11.0318
interface	-11.0324
SERVICE	-11.0327
Ancestor	-11.0334
Physical	-11.0334
Pin	-11.0339
theme	-11.0339
console	-11.034
Than	-11.0342
FONT	-11.0347
Pl	-11.0354
good	-11.0356
character	-11.0359
Many	-11.0363
compress	-11.0368
Bag	-11.0371
Mon	-11.0371
amount	-11.0376
DOWN	-11.0376
multi	-11.0377
Pipe	-11.0377
256	-11.0378
Clock	-11.0391
Self	-11.0404
motion	-11.0406
ROLE	-11.0413
▁graphics	-11.0413
threshold	-11.0423
Coll	-11.0425
repeat	-11.0427
BOLD	-11.0429
sensor	-11.0443
Moved	-11.0449
activity	-11.045
▁jb	-11.0458
Ticket	-11.046
ario	-11.0466
Ret	-11.0474
workbench	-11.0475
▁sig	-11.0481
simple	-11.0487
auth	-11.0488
charge	-11.0494
Poly	-11.0497
▁tableName	-11.0513
Footer	-11.0513
Classpath	-11.0521
lab	-11.0527
Dock	-11.0528
addTab	-11.0531
tem	-11.0545
Shift	-11.0546
Fecha	-11.0552
hasMoreTokens	-11.0552
Exclude	-11.0559
70	-11.0566
Req	-11.057
▁resp	-11.057
Pk	-11.0576
Assembly	-11.0578
Drawable	-11.0579
suit	-11.058
CHECK	-11.0591
Starting	-11.0602
branch	-11.0604
FLAG	-11.0605
78	-11.0605
COL	-11.0606
exist	-11.0612
Invoice	-11.0616
duration	-11.0618
Secret	-11.0625
nom	-11.0629
segment	-11.0631
▁userId	-11.0632
Gain	-11.0645
Cut	-11.0645
divide	-11.0647
55	-11.0649
bundle	-11.0651
cluster	-11.0651
ignore	-11.0653
Bid	-11.0659
equal	-11.0659
▁&=	-11.0668
56	-11.0671
ribute	-11.0675
Alloc	-11.0679
factor	-11.0683
translation	-11.0683
Population	-11.0683
REG	-11.0686
itter	-11.0689
Capture	-11.069
notifyObservers	-11.0697
▁lbl	-11.0705
VAL	-11.0709
Clicked	-11.0709
Generated	-11.0709
Projection	-11.0712
ql	-11.0719
Credentials	-11.072
Seed	-11.0721
Hello	-11.0729
SHORT	-11.0729
Bool	-11.0732
chart	-11.0732
ONLY	-11.0743
NUM	-11.0745
47	-11.0746
principal	-11.0749
tearDown	-11.0749
TableRow	-11.0751
subtract	-11.0751
FileChooser	-11.0752
adwords	-11.0763
tro	-11.0763
Analyzer	-11.0769
running	-11.0775
POSITION	-11.0776
abstract	-11.0776
parameterIndex	-11.0777
FC	-11.0779
changed	-11.078
depth	-11.0781
Party	-11.0789
Regex	-11.079
hl	-11.079
▁deleted	-11.079
▁existing	-11.0792
Comparison	-11.0796
COMMAND	-11.0803
▁jj	-11.081
MimeType	-11.0812
Vertices	-11.0823
descriptor	-11.0823
JTextField	-11.083
getClassLoader	-11.083
Without	-11.0831
getItemCount	-11.0834
setCursor	-11.0835
voice	-11.0839
Perform	-11.084
PLAIN	-11.0843
HEADER	-11.0843
VALUES	-11.085
TU	-11.0852
timer	-11.0854
Proc	-11.086
Criterion	-11.0863
BASE	-11.0863
follow	-11.0863
after	-11.0867
isRunning	-11.087
star	-11.0873
38	-11.0876
toByteArray	-11.0878
presentation	-11.0878
company	-11.0879
Embedded	-11.0883
Usuario	-11.089
Collision	-11.0903
ToggleButton	-11.0907
▁'\	-11.091
city	-11.0911
artifact	-11.0917
webservice	-11.0919
isAssignableFrom	-11.0923
digit	-11.0924
REMOVE	-11.0931
('.')	-11.0933
perform	-11.0934
▁assertSame	-11.094
ftp	-11.094
▁>>>	-11.0941
setLayoutData	-11.0944
Bond	-11.0946
lon	-11.096
done	-11.0964
Deploy	-11.0969
millis	-11.0971
▁overlayImage	-11.0971
▁listenerList	-11.0972
-1]	-11.0976
Deployment	-11.0986
Charge	-11.0987
EXIT	-11.101
Interceptor	-11.1018
▁"&	-11.1021
expire	-11.1022
▁setLast	-11.1027
isClosed	-11.1027
Land	-11.1035
Charset	-11.1039
VALID	-11.1042
Cliente	-11.1044
NOM	-11.1046
Saved	-11.1046
▁attributeGroup	-11.1053
Inherit	-11.1059
Requirement	-11.106
GC	-11.1066
ResourceAsStream	-11.1066
SERVER	-11.1072
▁resize	-11.1073
interval	-11.1075
implement	-11.1075
Resp	-11.1078
quit	-11.1078
norm	-11.1082
Heading	-11.1085
Mat	-11.1086
duplicate	-11.1087
Sup	-11.109
(3);	-11.1095
DTD	-11.11
Receive	-11.1103
Average	-11.1107
struct	-11.1114
Nombre	-11.1114
course	-11.1114
delegate	-11.1117
fixture	-11.1118
topic	-11.1119
Guard	-11.1121
getSelectedRow	-11.1124
ole	-11.1131
fld	-11.114
Mass	-11.1144
should	-11.1145
absolute	-11.1149
Lifecycle	-11.1149
Payload	-11.1155
ArrayOf	-11.1163
getActionCommand	-11.1171
Keyboard	-11.1183
ont	-11.1188
requestFocus	-11.1191
BACK	-11.1193
Already	-11.1197
65	-11.1205
driver	-11.121
▁notifyListeners	-11.1217
ActionBars	-11.1218
Cancelar	-11.1222
Opaque	-11.1225
&&	-11.1234
Friend	-11.1234
Ordered	-11.1239
TRACE	-11.1239
▁jCheckBox	-11.1243
GO	-11.1245
Abs	-11.1248
AttributeSet	-11.1251
glyph	-11.1253
Need	-11.1255
ANT	-11.1266
▁getTxt	-11.1267
reload	-11.127
Ct	-11.1273
Learning	-11.1274
Unsigned	-11.1281
OVER	-11.1281
▁cleanup	-11.1284
Freq	-11.1292
Crawl	-11.1295
removeElement	-11.1298
TRI	-11.1301
GUID	-11.1311
SUCCESS	-11.1316
^	-11.1318
Remaining	-11.1323
phrase	-11.1323
machine	-11.1323
land	-11.1334
Contains	-11.1344
izing	-11.1354
Released	-11.1356
▁dataSource	-11.1358
Quick	-11.1358
Money	-11.1358
calc	-11.1369
Major	-11.1372
▁stats	-11.1381
Lost	-11.1384
special	-11.1386
Small	-11.1386
Plus	-11.1388
>=0	-11.1391
SearchResult	-11.1392
▁BufferedWriter	-11.14
opt	-11.1402
Retrieve	-11.1407
inverse	-11.1417
Jml	-11.1418
▁jComboBox	-11.1419
Closing	-11.1421
Declared	-11.1422
}",	-11.1422
CONNECT	-11.1428
BadLocation	-11.1433
▁25)	-11.1433
DefaultToolkit	-11.1439
possible	-11.1443
ErrorReason	-11.1447
neighbor	-11.145
EJB	-11.1457
Integr	-11.1457
Translate	-11.1459
vol	-11.146
CAP	-11.1466
DisplayModel	-11.1468
PLAYER	-11.1469
disconnect	-11.1469
Quality	-11.1471
jScrollPane	-11.1474
solve	-11.1485
Advance	-11.1486
Blob	-11.1486
JMS	-11.1499
Delivery	-11.1504
[4]	-11.1522
▁got	-11.1529
Imp	-11.1537
Bet	-11.154
NaN	-11.1541
WRITE	-11.1543
delta	-11.1546
▁xpath	-11.1546
hole	-11.1562
servlet	-11.1563
clusion	-11.1564
canvas	-11.1568
▁contain	-11.1572
76	-11.1581
Mime	-11.1599
Portlet	-11.1599
Conversation	-11.16
Sym	-11.161
reason	-11.1613
writeByte	-11.1626
Compute	-11.1629
floor	-11.163
ALLOW	-11.1631
ACTIVE	-11.1637
Street	-11.1638
selectAll	-11.1641
binding	-11.1644
ByteArray	-11.1645
isOpen	-11.1648
Bank	-11.1651
OFF	-11.1652
lastModified	-11.1653
▁worker	-11.1654
onto	-11.1658
OPEN	-11.166
ContentProvider	-11.1663
what	-11.1666
ROOT	-11.1673
Shutdown	-11.1687
▁cost	-11.1689
Delimiter	-11.1695
DEF	-11.1702
Neg	-11.1704
▁NodeList	-11.1708
Gradient	-11.1709
Blocking	-11.1713
ifiable	-11.1724
oth	-11.1726
Difference	-11.1739
Emp	-11.1745
degree	-11.1747
Hook	-11.1753
Instantiation	-11.1761
Presence	-11.1761
literal	-11.1761
REQUEST	-11.1775
AUTH	-11.1775
Hide	-11.1777
emb	-11.178
Parsed	-11.1785
Colour	-11.1786
specification	-11.1788
elapsed	-11.179
MULTI	-11.179
paletteContainer	-11.1798
▁getJScrollPane	-11.1802
+1]	-11.1803
plied	-11.1803
Sig	-11.1809
race	-11.1815
REFID	-11.1824
echo	-11.1841
▁defined	-11.1851
XA	-11.1852
Positive	-11.1856
decl	-11.1859
ram	-11.1863
individual	-11.1864
XMLElement	-11.1886
cTracker	-11.1892
Recent	-11.1895
Authorization	-11.1896
Using	-11.1897
▁FileReader	-11.1904
BYTE	-11.1909
Pan	-11.1913
=1;	-11.1914
Macro	-11.1916
Candidate	-11.1923
enumeration	-11.1931
Oc	-11.1935
DefaultValue	-11.1936
Perspective	-11.1938
ology	-11.1945
Sentence	-11.1947
Sink	-11.1947
quantity	-11.1953
Artist	-11.1954
Redo	-11.1961
Trim	-11.1962
FieldEditor	-11.1968
fetch	-11.1973
listIterator	-11.1973
WINDOW	-11.1983
detach	-11.1983
Slice	-11.1986
resume	-11.1986
▁"0"	-11.1992
Backup	-11.2001
drop	-11.2003
isLoggable	-11.2006
small	-11.2007
Flavor	-11.201
1111	-11.2017
Taxon	-11.2021
Caption	-11.2022
need	-11.2025
calendar	-11.2041
MouseListener	-11.2043
detect	-11.2044
Vote	-11.2056
where	-11.2062
Translator	-11.2066
deliver	-11.2066
▁JspException	-11.2068
week	-11.2074
BamBL	-11.2081
prompt	-11.2081
required	-11.2088
SCROLL	-11.2089
1024	-11.2094
plain	-11.2096
LOCATION	-11.2097
▁received	-11.21
Conflict	-11.2104
pan	-11.2106
Sorter	-11.2116
combo	-11.212
execution	-11.2127
Encoded	-11.213
video	-11.2135
Extract	-11.2141
provide	-11.2143
prepare	-11.2149
isNaN	-11.2152
getJButton	-11.2161
TASK	-11.2165
SPACE	-11.2171
dist	-11.2172
Student	-11.2173
album	-11.2173
LINK	-11.2173
SIGN	-11.2173
▁GP	-11.2173
Molecule	-11.218
idade	-11.219
moving	-11.2196
multiple	-11.2196
severe	-11.2196
SessionFactory	-11.2199
Cat	-11.2201
EndpointAddress	-11.2201
fmt	-11.2202
InvocationTarget	-11.2207
SECOND	-11.2211
59	-11.2215
advance	-11.2219
editable	-11.2222
▁2:	-11.2223
analyze	-11.2226
Rest	-11.2229
LONG	-11.2235
Linear	-11.2239
Prompt	-11.2257
Fix	-11.2264
▁testAdd	-11.2265
UNIT	-11.2272
visual	-11.2273
Checkbox	-11.2281
revalidate	-11.2284
EditorPane	-11.2284
Daemon	-11.2288
logic	-11.229
soft	-11.2301
67	-11.2308
Rev	-11.2308
foreground	-11.2311
getBackground	-11.2312
deriv	-11.2314
Ont	-11.2314
APPLICATION	-11.2327
imal	-11.2338
Adjust	-11.2348
jContentPane	-11.235
▁testIs	-11.2352
builder	-11.2354
▁jsx	-11.2356
Inventory	-11.2358
Aggregate	-11.2381
square	-11.24
Patch	-11.2405
dynamic	-11.2413
spot	-11.2414
getUsername	-11.2416
CloseOperation	-11.2451
strategy	-11.2452
bank	-11.2453
Nome	-11.2456
LOCAL	-11.2457
BackgroundColor	-11.246
participant	-11.246
PART	-11.246
drawLine	-11.2461
putAll	-11.2465
▁jSplitPane	-11.2468
nfe	-11.2468
drawImage	-11.2473
Waiting	-11.2476
Reverse	-11.2477
----------	-11.2481
hibernate	-11.2483
Busy	-11.2484
▁chooser	-11.2484
velocity	-11.2499
Para	-11.25
LastModified	-11.2501
Mission	-11.2507
Atomic	-11.2513
grammar	-11.2513
Supplier	-11.2515
WORK	-11.2515
Forum	-11.252
REQ	-11.2521
Resume	-11.2524
caret	-11.2527
Severity	-11.2531
SINGLE	-11.2538
supp	-11.2544
geo	-11.2545
Please	-11.255
network	-11.2573
Activated	-11.2577
getFirstChild	-11.2578
Decoder	-11.2578
mapped	-11.2589
Flush	-11.2594
dao	-11.2595
EditorInput	-11.2601
period	-11.2603
Included	-11.2603
wp	-11.2606
COMPONENT	-11.261
padding	-11.2618
Dummy	-11.2618
MainFrame	-11.2619
Subscriber	-11.2622
Accelerator	-11.2626
Singleton	-11.2626
SELECTED	-11.2632
Decision	-11.2642
compatible	-11.2642
override	-11.2642
renderer	-11.2646
TRA	-11.2652
creation	-11.266
CharSequence	-11.2664
pixel	-11.2669
CONTEXT	-11.2676
partner	-11.2677
Interest	-11.2679
▁tRes	-11.2681
Concrete	-11.2683
verbose	-11.2683
beginTransaction	-11.2688
▁rhs	-11.2709
SELECTION	-11.2716
Publisher	-11.2717
ncodingException	-11.2718
getEntityManager	-11.2721
sprite	-11.2723
Rad	-11.2727
Observation	-11.2728
Look	-11.2731
elt	-11.2732
song	-11.2738
ServerSocket	-11.2743
Kernel	-11.2747
▁overridden	-11.2747
▁dto	-11.2751
rest	-11.2756
Publication	-11.2757
life	-11.2761
509	-11.2762
SESSION	-11.2763
Millisecond	-11.2764
Initialization	-11.2767
128	-11.2769
There	-11.2769
ication	-11.2775
CONTROL	-11.278
Collector	-11.2783
SelectionChanged	-11.2791
WHITE	-11.2796
Balance	-11.2796
Appearance	-11.2804
major	-11.2804
Green	-11.2804
readInt	-11.2826
Dependencies	-11.2828
Fig	-11.283
Veto	-11.2837
mitted	-11.2841
broadcast	-11.2845
recipient	-11.2845
flip	-11.2858
DESC	-11.2861
hidden	-11.2861
Percentage	-11.2863
▁'"+	-11.2864
population	-11.287
||	-11.287
Serialization	-11.2871
Replica	-11.2875
snapshot	-11.2886
BODY	-11.2886
Spot	-11.289
Secure	-11.2895
removeAttribute	-11.29
▁cancelButton	-11.2903
Selectable	-11.2904
ACL	-11.2907
removeChild	-11.2908
Stage	-11.2908
Raster	-11.2911
Attack	-11.2911
UnsupportedE	-11.292
Algo	-11.292
CURSOR	-11.2927
Clipboard	-11.2936
Addresses	-11.294
produce	-11.2944
collectNew	-11.2948
BUFFER	-11.2952
INPUT	-11.2952
executor	-11.296
▁HibernateUtil	-11.2969
Cipher	-11.2977
Blue	-11.2977
Voice	-11.2978
Verify	-11.2978
44	-11.2981
grade	-11.2987
related	-11.2988
Assert	-11.3005
TOR	-11.3014
Outgoing	-11.3018
Peak	-11.3018
300	-11.3026
toCharArray	-11.3026
scheme	-11.3027
dummy	-11.3035
Attrib	-11.3035
popup	-11.3038
guid	-11.3043
MARK	-11.3043
HashCode	-11.3053
Pipeline	-11.3055
Encode	-11.3057
cookie	-11.3058
association	-11.306
Particle	-11.3067
getUserObject	-11.3067
Vehicle	-11.3068
jSeparatorHKY	-11.3068
Coverage	-11.3068
Roll	-11.3069
assertTrue	-11.3076
SPEC	-11.3079
▁doTest	-11.3081
05	-11.3081
redirect	-11.309
complex	-11.3097
SHOW	-11.311
xsl	-11.3119
arch	-11.312
MAIN	-11.3128
qualified	-11.3135
invalidate	-11.3138
Decorator	-11.3144
Incoming	-11.3144
AUTO	-11.3144
JTable	-11.316
Dict	-11.3166
high	-11.3171
TAB	-11.3174
lead	-11.3174
Mapped	-11.3175
Statistic	-11.3182
Dead	-11.3184
incorrect	-11.3186
Contract	-11.3186
Rodin	-11.3195
changedResources	-11.32
TipText	-11.3202
numerator	-11.3203
alpha	-11.3206
LAT	-11.3212
SYN	-11.3212
currency	-11.3217
INIT	-11.3224
delay	-11.3229
Trade	-11.3236
Parsing	-11.3237
respond	-11.3245
META	-11.3256
general	-11.3263
Quot	-11.3273
Try	-11.3275
▁GridBagLayout	-11.328
Plain	-11.328
station	-11.3281
CHANGE	-11.3282
Minor	-11.3282
▁using	-11.3286
Known	-11.3297
Plane	-11.33
Executable	-11.3305
NAMESPACE	-11.3307
StyleAttribute	-11.3308
pdf	-11.331
Ruby	-11.3314
CDATA	-11.3319
Explorer	-11.3322
CancelButton	-11.333
Shadow	-11.3331
negative	-11.3331
setSelectedItem	-11.3333
POS	-11.3333
(100,	-11.3334
ATT	-11.334
Dependent	-11.3341
Inverse	-11.3348
rdf	-11.3352
BLOCK	-11.3353
prov	-11.3358
False	-11.3372
Pie	-11.3381
Black	-11.3383
was	-11.3385
Tmp	-11.3389
PROJECT	-11.3408
DATABASE	-11.3409
Measurement	-11.3413
listFiles	-11.3416
toHexString	-11.3417
FocusEvent	-11.3417
111	-11.3424
Ftp	-11.3424
Bucket	-11.3426
▁given	-11.3426
AGE	-11.343
payment	-11.3434
Heap	-11.3435
▁passed	-11.3439
Movie	-11.3443
CONNECTION	-11.3444
▁sep	-11.3449
quality	-11.3452
Circle	-11.3452
RESULT	-11.3452
Substitution	-11.3452
Extend	-11.3452
OUTPUT	-11.3461
INITIAL	-11.3461
runtime	-11.3463
Scr	-11.3469
LAST	-11.3471
▁textArea	-11.3475
49	-11.3475
Replacement	-11.3483
Wall	-11.3488
walk	-11.3488
origin	-11.3495
Describe	-11.3495
REFERENCE	-11.3495
compose	-11.3496
Administra	-11.3496
▁dlg	-11.3496
▁"-"	-11.3499
▁doGet	-11.3512
`	-11.3513
statistic	-11.3513
showError	-11.3521
ALIGN	-11.3522
caption	-11.3524
uuid	-11.3524
Discovery	-11.3539
▁JSONException	-11.3544
fail	-11.3545
TimeStamp	-11.3547
retrieve	-11.3554
FACTOR	-11.3557
▁CFLib	-11.3557
Arch	-11.3572
ACCESS	-11.3574
ConverterUtil	-11.3589
Perm	-11.3595
math	-11.3605
Species	-11.3609
Css	-11.361
learn	-11.3617
dictionary	-11.3618
----------------	-11.362
Ball	-11.3626
Abort	-11.3636
abc	-11.3639
150	-11.3641
toXML	-11.3644
Displayable	-11.3646
LOC	-11.3651
Recursive	-11.3654
Writable	-11.3654
{0}	-11.3655
leaf	-11.3656
600	-11.3656
minus	-11.3662
employee	-11.3663
▁mouseClicked	-11.3663
Spring	-11.3664
MustOverride	-11.3672
EQ	-11.368
▁mainPanel	-11.3682
parm	-11.3691
▁jTabbedPane	-11.3718
LocalizedMessage	-11.374
Gate	-11.3747
▁oos	-11.3752
Stopped	-11.3754
Wheel	-11.3761
Grant	-11.3775
Chronology	-11.3779
Unicode	-11.3779
fault	-11.3782
applet	-11.3789
persistence	-11.379
Possible	-11.3797
logical	-11.38
share	-11.3823
clause	-11.3824
getSelectedFile	-11.3826
definition	-11.383
Setter	-11.3848
Instrument	-11.3851
severity	-11.386
Logged	-11.3861
Compiled	-11.3868
unmodifiable	-11.3869
getModifiers	-11.3874
authenticate	-11.3887
▁ascending	-11.3887
Floor	-11.3887
tooltip	-11.3887
implementation	-11.3894
\">"	-11.3898
FTP	-11.39
Art	-11.3907
EditObj	-11.3912
Fitness	-11.3915
ancestor	-11.3924
Press	-11.3927
▁JMenuBar	-11.3935
Authority	-11.3936
synchronize	-11.3941
collapse	-11.3942
bond	-11.3946
permission	-11.3946
Expect	-11.3946
▁outputStream	-11.3952
large	-11.3955
Queries	-11.3969
Mesh	-11.3972
89	-11.3975
PyObject	-11.3976
NORMAL	-11.3978
ctrl	-11.3981
numRows	-11.3982
getSelectedValue	-11.3987
DISPOSE	-11.3987
NEWLINE	-11.4016
BizDoc	-11.4016
addKeyListener	-11.4018
Cube	-11.4025
seek	-11.4026
offer	-11.4029
Validity	-11.4032
proj	-11.4044
notifyAll	-11.4046
57	-11.4047
macro	-11.4048
MENU	-11.4054
Personal	-11.4058
▁DateTimeModel	-11.4062
Ana	-11.4068
Technical	-11.407
DELAY	-11.4071
Production	-11.4079
("\"")	-11.4081
material	-11.4089
LabelProvider	-11.4092
theta	-11.4094
Market	-11.4096
Echo	-11.4099
Spell	-11.41
Ability	-11.4107
Movement	-11.4111
Detect	-11.4112
testGet	-11.4116
Couldn	-11.4118
pause	-11.4118
authentication	-11.4126
GWT	-11.4127
wrapped	-11.4138
patch	-11.4144
Fatal	-11.4145
CSV	-11.4146
StatusBar	-11.415
lig	-11.4162
POC	-11.4167
Breakpoint	-11.4167
kernel	-11.4182
RECORD	-11.4182
OFFSET	-11.4183
increase	-11.4191
Bitmap	-11.42
Birth	-11.4201
TEMPLATE	-11.4201
ciones	-11.4207
parseLong	-11.4207
Arm	-11.421
Classification	-11.4212
▁toolBar	-11.4213
WORD	-11.422
chunk	-11.422
lies	-11.4221
primitive	-11.4229
Partial	-11.424
▁crit	-11.4241
Good	-11.4243
▁22)	-11.4243
most	-11.4243
TableDataChanged	-11.4248
readOnly	-11.425
Acl	-11.4252
Void	-11.4255
2000	-11.4257
Initializer	-11.4261
maximum	-11.4269
databinding	-11.4272
sax	-11.428
Adjustment	-11.4287
TCP	-11.4293
JComboBox	-11.4293
Latitude	-11.4295
DMT	-11.4311
removeAllElement	-11.4311
qualifier	-11.4314
Race	-11.4314
DataFlavor	-11.4318
Estimate	-11.4323
Facet	-11.4329
Bridge	-11.4342
Disp	-11.4343
Residue	-11.4352
scalar	-11.4362
================	-11.4371
Longitude	-11.438
RULE	-11.4381
Getter	-11.4399
Spatial	-11.4399
instantiate	-11.44
reply	-11.4407
Tail	-11.4409
notNull	-11.441
▁okButton	-11.4417
triple	-11.4421
▁ContentModel	-11.4434
▁prtln	-11.4438
wire	-11.4439
suspend	-11.4447
ARRAY	-11.4447
instant	-11.4451
EXCEPTION	-11.4457
Trust	-11.4459
attack	-11.4464
loop	-11.4468
guard	-11.4476
▁InputSource	-11.4479
diag	-11.4484
Behaviour	-11.4486
PROCESS	-11.4486
TARGET	-11.4486
Ack	-11.4486
69	-11.4491
bookmark	-11.4498
Extractor	-11.4501
Adapt	-11.4504
Occurrence	-11.4505
credential	-11.4505
Some	-11.4519
DOUBLE	-11.4524
DOCUMENT	-11.4524
Dump	-11.4526
Dispose	-11.4527
79	-11.4527
Until	-11.4534
Correlation	-11.4535
("["	-11.4535
picture	-11.4535
ality	-11.4538
Violation	-11.4544
runnable	-11.4546
Uuid	-11.4552
LAYOUT	-11.4553
registration	-11.4553
OrderBy	-11.4559
Catch	-11.4567
logging	-11.457
WEST	-11.4571
Incorrect	-11.4592
Identification	-11.4593
Owned	-11.4595
singleton	-11.4602
Midi	-11.4603
COS	-11.4608
STORE	-11.461
FILTER	-11.4612
answer	-11.4616
wsdl	-11.4624
Soap	-11.4625
revision	-11.4631
combine	-11.4638
Maintenance	-11.4651
DEC	-11.466
ordinal	-11.4661
Localized	-11.4661
Repaint	-11.4661
ANCE	-11.4665
+","+	-11.4673
DOC	-11.4676
Reload	-11.4679
000040	-11.4681
getSimpleName	-11.4683
Uml	-11.4684
lhs	-11.4696
sale	-11.4702
▁algo	-11.4713
break	-11.4717
EQUAL	-11.4719
("]");	-11.4719
[]{}	-11.474
legend	-11.4745
bucket	-11.4749
setResizable	-11.4759
250	-11.4772
wiki	-11.478
fillRect	-11.4789
getRootElement	-11.4791
WorkbenchWindow	-11.4799
GRAPH	-11.4799
require	-11.48
svg	-11.4803
+1;	-11.4803
(100);	-11.481
HOUR	-11.4811
Successful	-11.4812
CUR	-11.4815
experiment	-11.4829
WSDL	-11.483
Typ	-11.4837
QUERY	-11.4839
Misc	-11.4844
LOCK	-11.4846
family	-11.4849
Biz	-11.4854
ibility	-11.4868
enterprise	-11.4869
Suggest	-11.4889
Soft	-11.4889
Shader	-11.4899
known	-11.4902
smart	-11.4905
▁diagnostics	-11.4911
Large	-11.4916
virtual	-11.4919
eccion	-11.4928
BLACK	-11.493
Gray	-11.4937
friend	-11.4939
JDOM	-11.4947
tructuralFeature	-11.4959
Prepare	-11.4961
navigation	-11.4969
BoundingBox	-11.4969
Quant	-11.4983
▁getJSeparator	-11.4985
+"\"	-11.4988
Training	-11.499
MissingResource	-11.4991
BufferedImage	-11.5018
Boundary	-11.5019
POST	-11.5026
▁replacement	-11.5026
Unary	-11.5039
Arithmetic	-11.5051
Cloud	-11.5051
axe	-11.5059
EditPolicy	-11.5061
molecule	-11.5061
generic	-11.5062
Contribution	-11.5071
platform	-11.5081
broker	-11.5092
'0'	-11.5094
cause	-11.5099
Tooltip	-11.5102
Solver	-11.5102
EXTENSION	-11.5122
License	-11.5122
Confirmation	-11.5128
Communication	-11.5133
Dragged	-11.5133
JAXB	-11.5135
Hist	-11.5135
MOVE	-11.5152
Buddy	-11.5153
Alarm	-11.5153
Retained	-11.5164
Vendor	-11.5164
Skin	-11.5164
▁21)	-11.5174
drag	-11.5176
DefaultListModel	-11.5182
Decoration	-11.5184
itemStateChanged	-11.5185
FIRST	-11.5205
acquire	-11.5205
delimiter	-11.5205
letter	-11.5206
partition	-11.5208
scenario	-11.5215
MINUTE	-11.5215
discard	-11.522
NoSuchMethod	-11.523
Planet	-11.5234
!!!	-11.5238
numeric	-11.5241
ENTRY	-11.5247
stamp	-11.5249
cipher	-11.5257
surface	-11.5257
Rollback	-11.5258
Toggle	-11.5262
Rpc	-11.5263
Between	-11.5267
Histogram	-11.5267
▁flowLayout	-11.5268
ough	-11.527
PREF	-11.527
INTEGER	-11.5288
North	-11.529
ticket	-11.5294
FRAME	-11.5299
Genome	-11.5299
creator	-11.53
static	-11.5302
Sensitive	-11.5309
Terrain	-11.5309
PublicKey	-11.5317
INFORMATION	-11.532
average	-11.532
House	-11.533
inherit	-11.533
Chromosome	-11.534
IDENTIFIER	-11.5341
▁JMSException	-11.5342
Fraction	-11.5344
sock	-11.5355
EPS	-11.5364
decimal	-11.5367
minimum	-11.5371
Energy	-11.5372
isInfoEnabled	-11.5372
Activator	-11.5393
recursive	-11.5393
▁26)	-11.5407
invocation	-11.5414
Elimina	-11.5414
Stereotype	-11.5422
geometry	-11.5425
Future	-11.5435
shadow	-11.5446
Triangle	-11.5447
Exclusive	-11.5457
positive	-11.5457
▁capture	-11.5467
interpret	-11.5477
▁EJBException	-11.5479
writing	-11.5489
frequency	-11.5499
RANGE	-11.5499
[5]	-11.5504
BOTTOM	-11.551
artist	-11.5522
Trail	-11.5523
Performance	-11.5533
colour	-11.5539
tell	-11.555
Suspend	-11.5553
removeElementAt	-11.5567
BUG	-11.5573
reject	-11.5574
design	-11.5574
organization	-11.5585
Combine	-11.5586
Precision	-11.5606
Activities	-11.5617
FROM	-11.5624
PATTERN	-11.5628
declaration	-11.5628
callback	-11.565
Calculator	-11.565
CompilationUnit	-11.5662
retained	-11.5671
INTER	-11.5672
Department	-11.5682
casFeat	-11.5682
SAVE	-11.5685
Waypoint	-11.5697
latitude	-11.5705
animate	-11.5709
Clob	-11.5718
sibling	-11.5726
Seller	-11.5727
certificate	-11.5737
longitude	-11.5737
syntax	-11.5737
amazon	-11.5748
COMMENT	-11.5748
Choose	-11.5755
Prototype	-11.5759
Bracket	-11.5769
Gateway	-11.577
difference	-11.5781
framework	-11.5785
Scalar	-11.5791
dependency	-11.5803
WEB	-11.5803
Notifier	-11.5804
sentence	-11.5814
Shortcut	-11.5816
(300,	-11.5822
JAXBElement	-11.5822
private	-11.5827
IZED	-11.583
WAIT	-11.5835
outgoing	-11.5836
Membership	-11.584
INFINITY	-11.5846
getPnl	-11.5867
Corner	-11.5869
inject	-11.588
avail	-11.588
Vocabulary	-11.5891
business	-11.5891
Sector	-11.5893
Assoc	-11.5902
midlet	-11.5905
NotSupported	-11.5912
office	-11.5913
Collapse	-11.5913
movie	-11.5925
Encryption	-11.5935
Compile	-11.5936
Inclusive	-11.5946
▁menuBar	-11.5947
Follow	-11.5947
precision	-11.5969
Activate	-11.597
aspect	-11.5973
Navigator	-11.6002
SEARCH	-11.6002
▁adaptor	-11.6003
Detector	-11.6019
Broadcast	-11.6025
Calculate	-11.6025
Handling	-11.6026
▁UIManager	-11.6031
Datum	-11.6047
editingDomain	-11.6047
ategori	-11.6051
Critical	-11.6059
titude	-11.6062
Share	-11.6063
yyyy	-11.6081
▁mousePressed	-11.6083
Damage	-11.6092
Struts	-11.6115
Transient	-11.6118
Cyc	-11.6119
splash	-11.6127
abilities	-11.6137
knowledge	-11.6138
managed	-11.6138
LOGGER	-11.6164
IFICATION	-11.6172
XSL	-11.6173
vendor	-11.6173
FAILED	-11.6173
quot	-11.6183
saving	-11.6186
LDAP	-11.6195
ENTITY	-11.6197
PASSWORD	-11.6206
▁because	-11.6209
▁smartUpdate	-11.6218
Got	-11.6231
Observable	-11.6235
overlay	-11.625
Puzzle	-11.6252
IgnoreCase	-11.6257
Leave	-11.6264
Collect	-11.6269
Intensity	-11.6298
Credential	-11.6304
Synapse	-11.631
Sphere	-11.631
Similarity	-11.631
optimize	-11.6311
HOST	-11.6323
▁NamingException	-11.6323
Anonymous	-11.6333
stock	-11.6334
ADDRESS	-11.6345
setMinimumSize	-11.6345
▁'.'	-11.6351
Temporary	-11.6368
Norm	-11.6381
Thumbnail	-11.6391
FULL	-11.6391
subscription	-11.6391
Normalized	-11.6394
ratio	-11.6397
commerce	-11.6403
Weak	-11.6403
Dlg	-11.6403
getChildNodes	-11.6409
howConfirmDialog	-11.6415
Effective	-11.6419
▁getAttributeAs	-11.6426
credit	-11.6451
INTEGRAL	-11.6461
LIMIT	-11.6461
SmartFrog	-11.6473
TOKEN	-11.6473
Roster	-11.6473
getListenerList	-11.6475
SCRIPT	-11.6476
CARD	-11.6478
flavor	-11.6508
CURRENT	-11.6508
MILLISECOND	-11.652
Quit	-11.6521
Hardware	-11.6544
Axes	-11.6544
Eclipse	-11.6545
Implemented	-11.6556
FOLDER	-11.6568
Mobile	-11.6568
savedResources	-11.657
Most	-11.6577
manifest	-11.658
Walk	-11.658
Rotate	-11.658
800	-11.659
Prime	-11.6593
registry	-11.6597
Meter	-11.66
audit	-11.6604
ForeignKey	-11.661
depend	-11.6634
Facility	-11.6639
APPROVE	-11.6639
Reject	-11.6663
getInitParameter	-11.6664
Simulator	-11.6676
Weapon	-11.6687
Construction	-11.6702
naming	-11.6713
Motion	-11.6714
DIALOG	-11.6723
Cancelled	-11.6737
▁probably	-11.6747
propagate	-11.6747
MIDlet	-11.6748
middle	-11.6759
dependent	-11.6761
Workbook	-11.6764
Lazy	-11.6772
SCOPE	-11.6772
Assist	-11.6772
▁windowClosing	-11.6773
mutation	-11.6792
BOTH	-11.682
Knowledge	-11.682
GenKbBL	-11.682
CACHE	-11.682
Relaxer	-11.6832
BACKGROUND	-11.6832
activation	-11.6832
RenderingHints	-11.6832
front	-11.6835
SuppressWarnings	-11.6844
study	-11.6845
Reflection	-11.6847
Pretty	-11.6857
Contributor	-11.6857
Inject	-11.6857
Immutable	-11.6869
CHILD	-11.6881
decorate	-11.6887
lease	-11.6888
convention	-11.6906
spacing	-11.6906
XSD	-11.6909
Flip	-11.6918
Rational	-11.6918
ENABLED	-11.6944
Google	-11.6955
TIMEOUT	-11.6956
hyper	-11.6959
MOUSE	-11.6968
continu	-11.6976
Community	-11.698
canonical	-11.698
PlugIn	-11.6988
Cardinality	-11.6992
Checksum	-11.6998
reflect	-11.7004
TOOL	-11.7008
Seg	-11.7016
written	-11.7017
Rollover	-11.7018
Vocab	-11.7025
Middle	-11.7029
neuron	-11.7029
hello	-11.7032
Hyperlink	-11.7042
ancy	-11.7046
Thickness	-11.7054
▁DecimalFormat	-11.7067
▁SdaiException	-11.7067
league	-11.7079
Avg	-11.708
Manage	-11.7085
CATEGORY	-11.7104
Sleep	-11.7117
DividerLocation	-11.7129
CASE	-11.7133
PLUGIN	-11.7142
buddy	-11.7142
Meeting	-11.7142
Evaluate	-11.7142
Compatible	-11.7154
Nature	-11.7154
Memento	-11.7155
▁poly	-11.7156
frag	-11.717
Harvest	-11.7179
Construct	-11.7212
instrument	-11.7217
CLIENT	-11.723
Closure	-11.7255
feedback	-11.7255
Consulta	-11.7255
▁progressBar	-11.7259
League	-11.7268
foreign	-11.7268
MouseMotion	-11.7269
puzzle	-11.7281
blank	-11.7281
frm	-11.7293
TREE	-11.7293
Axiom	-11.7294
▁during	-11.7294
WARN	-11.7305
Furniture	-11.7319
Verbose	-11.7319
Own	-11.7324
beta	-11.7326
Given	-11.7332
▁initialise	-11.7334
jjtGet	-11.7358
EXISchema	-11.7371
▁IBeanMethod	-11.7371
CreationTool	-11.7375
PUBLIC	-11.7383
Proposal	-11.7383
LIGHT	-11.7396
SCHEMA	-11.7396
Imsmd	-11.7396
Expansion	-11.7409
Secondary	-11.7411
interest	-11.7412
Codigo	-11.7422
Advertisement	-11.7422
FOUND	-11.7422
Thumb	-11.7422
▁occured	-11.7422
Strength	-11.7435
desired	-11.7435
Configurator	-11.7448
Traversal	-11.7448
Concurrency	-11.745
Routing	-11.7451
Parallel	-11.7461
Reservation	-11.7461
student	-11.7461
Elapsed	-11.7474
Corpus	-11.7474
pojo	-11.7478
jndi	-11.7488
Centro	-11.75
Density	-11.7513
Explicit	-11.7513
skin	-11.7515
HIGH	-11.7526
Alternative	-11.7539
Expiration	-11.7539
HSSF	-11.7539
reduce	-11.7541
damage	-11.7553
South	-11.7553
▁gbc	-11.7568
Alternate	-11.7578
PRIORITY	-11.7578
queries	-11.7578
erticalAlignment	-11.7579
interaction	-11.7583
comparison	-11.7592
physical	-11.7592
completion	-11.7592
switch	-11.7606
Visualization	-11.7607
specific	-11.7617
LittleEndian	-11.7618
▁greater	-11.7618
Marshal	-11.7628
recognize	-11.7631
Multiplicity	-11.7644
Aceptar	-11.7658
Observ	-11.7673
secure	-11.7682
Buy	-11.7685
PACKAGE	-11.7697
inspect	-11.7704
Depend	-11.7709
estimate	-11.7726
Directories	-11.7737
AuxText	-11.7737
coef	-11.7745
Continue	-11.7751
OPERATION	-11.7751
Strict	-11.7751
FIX	-11.7751
FLOAT	-11.7764
('/')	-11.7764
Outcome	-11.7764
Malformed	-11.7775
visibility	-11.7778
Wrapped	-11.7779
setCaretPosition	-11.7791
fecha	-11.7798
FEATURE	-11.7804
balance	-11.7805
(':')	-11.781
Automaton	-11.7818
Compression	-11.7831
Polynomial	-11.7831
PLAY	-11.7843
Numero	-11.786
Undefined	-11.7872
▁'/')	-11.7872
Saving	-11.7872
SCALE	-11.7885
FUNCTION	-11.7899
circle	-11.7899
Transparency	-11.7899
Creating	-11.7899
analysis	-11.7926
Slash	-11.7926
sector	-11.7931
Cfg	-11.7931
DayOfWeek	-11.7939
cyc	-11.7945
BevelBorder	-11.7953
interceptor	-11.7953
getFontMetrics	-11.7954
lowerBound	-11.798
▁jJMenuBar	-11.798
Splash	-11.7994
fraction	-11.8001
Mnemonic	-11.8003
While	-11.8021
Sdai	-11.8035
▁IMSSBamBL	-11.8035
polygon	-11.8035
negate	-11.805
WITH	-11.8077
CELL	-11.8077
Learn	-11.8104
expert	-11.8105
▁parsing	-11.8118
affect	-11.8118
secret	-11.8118
Verifier	-11.812
Appointment	-11.8132
Ajax	-11.8132
Equipment	-11.8133
Lexer	-11.8147
sTraceEnabled	-11.8153
UNDEFINED	-11.816
netSocketAddress	-11.8174
Intersection	-11.8175
Pitch	-11.8188
GAME	-11.8188
getFullName	-11.8201
Settlement	-11.8202
deleting	-11.8202
Manual	-11.8217
license	-11.8231
Written	-11.8244
millisecond	-11.8272
prior	-11.8273
crawl	-11.8277
SCROLLBAR	-11.8286
Pedido	-11.83
Twitter	-11.83
Stereo	-11.8304
▁INTO	-11.8315
NUMERIC	-11.8328
Mutation	-11.8328
Nano	-11.833
Drive	-11.8353
toolTip	-11.8367
Modifica	-11.837
distribution	-11.8371
conversation	-11.8371
Purchase	-11.8385
presence	-11.8386
predict	-11.839
DISPLAY	-11.8406
PROPERTIES	-11.8413
XMPP	-11.8414
VARIABLE	-11.8442
Recipe	-11.8442
INTERVAL	-11.8442
Lease	-11.8444
genome	-11.8473
("0")	-11.8474
EXIST	-11.8474
upperBound	-11.8482
Greater	-11.8485
STRUCT	-11.8485
-8");	-11.8485
****************	-11.8485
corpus	-11.8499
Availability	-11.8528
JAVA	-11.8543
half	-11.8547
∈	-12.8499
é	-13.0436
á	-13.4842
·	-13.5529
е	-13.5769
а	-13.6267
↦	-13.6352
и	-13.6702
т	-13.7633
ü	-13.8236
∧	-13.8552
о	-13.8768
р	-13.9683
ó	-13.9683
с	-14.1234
н	-14.1234
к	-14.1663
ã	-14.1959
ö	-14.2111
∀	-14.2421
ä	-14.2741
ו	-14.3767
в	-14.4134
⇒	-14.4134
×	-14.4711
ç	-14.4911
í	-14.5116
∃	-14.5537
м	-14.6436
л	-14.7168
п	-14.7424
י	-14.7425
à	-14.7688
у	-14.7688
ה	-14.7688
д	-14.7958
⦂	-14.7958
λ	-14.8236
≠	-14.8521
的	-14.8522
α	-14.9431
¬	-14.9754
מ	-15.0087
ת	-15.0087
ל	-15.0087
ь	-15.0432
כ	-15.0432
ר	-15.0789
अ	-15.0789
ł	-15.1544
ε	-15.1944
ע	-15.1944
è	-15.2361
ב	-15.2361
र	-15.2361
б	-15.2795
Ϊ	-15.2795
∅	-15.2795
μ	-15.2795
不	-15.325
з	-15.325
г	-15.325
≤	-15.325
ú	-15.325
ח	-15.325
为	-15.325
§	-15.3726
⊤	-15.3726
ê	-15.4226
ß	-15.4226
״	-15.4226
я	-15.4226
õ	-15.4226
̬	-15.4226
Θ	-15.4226
ग	-15.4226
े	-15.4226
定	-15.4752
˻	-15.4752
ა	-15.4752
⇸	-15.4752
中	-15.4752
用	-15.4753
数	-15.5308
ο	-15.5308
件	-15.5308
ש	-15.5308
ر	-15.5308
测	-15.5308
试	-15.5308
С	-15.5308
出	-15.5896
ô	-15.5896
ι	-15.5896
ڵ	-15.5896
⊆	-15.5896
ा	-15.5896
ư	-15.5896
我	-15.5896
到	-15.5897
本	-15.6521
だ	-15.6521
确	-15.6521
ज	-15.6521
Ҽ	-15.6521
ן	-15.6521
צ	-15.6521
ं	-15.6521
⁄	-15.6521
入	-15.6521
了	-15.6522
ї	-15.7187
Ѕ	-15.7187
∣	-15.7188
新	-15.7188
°	-15.7188
Ä	-15.7188
ı	-15.7188
Լ	-15.7188
ם	-15.7188
ק	-15.7188
ø	-15.7188
κ	-15.7188
ا	-15.7188
م	-15.7188
加	-15.7188
。	-15.7188
û	-15.7902
化	-15.7902
是	-15.7902
ρ	-15.7902
ͼ	-15.7902
ч	-15.7902
ي	-15.7902
â	-15.7902
请	-15.8671
开	-15.8671
æ	-15.8671
Δ	-15.8671
ύ	-15.8671
ד	-15.8671
ე	-15.8671
σ	-15.8671
↔	-15.8671
ğ	-15.8671
除	-15.8671
ր	-15.8671
连	-15.8671
å	-15.9505
日	-15.9505
ب	-15.9505
ś	-15.9505
退	-15.9505
Ʈ	-15.9505
һ	-15.9505
נ	-15.9505
߰	-15.9505
÷	-15.9505
ك	-15.9505
⤖	-15.9505
服	-15.9505
行	-15.9505
ि	-15.9505
关	-15.9505
始	-16.0414
î	-16.0414
户	-16.0414
語	-16.0414
∪	-16.0414
ñ	-16.0414
й	-16.0414
τ	-16.0414
取	-16.0414
關	-16.0414
Ü	-16.0414
一	-16.0414
文	-16.0414
点	-16.0414
注	-16.0414
过	-16.0415
码	-16.1414
名	-16.1414
Å	-16.1414
功	-16.1414
正	-16.1414
Ö	-16.1414
戏	-16.1414
ɦ	-16.1414
γ	-16.1414
ג	-16.1414
べ	-16.1414
פ	-16.1414
失	-16.1414
更	-16.1414
重	-16.1414
क	-16.1414
游	-16.1414
接	-16.1414
空	-16.1414
节	-16.1414
错	-16.1414
个	-16.2525
ー	-16.2525
参	-16.2525
€	-16.2525
原	-16.2525
π	-16.2525
ш	-16.2525
ы	-16.2525
Ӱ	-16.2525
մ	-16.2525
ه	-16.2525
ܱ	-16.2525
⊥	-16.2525
成	-16.2525
目	-16.2525
Ã	-16.2525
ą	-16.2525
ţ	-16.2525
Н	-16.2525
’	-16.2525
器	-16.2525
添	-16.2525
败	-16.2525
П	-16.2525
ю	-16.2525
า	-16.2525
有	-16.2525
ծ	-16.2525
ա	-16.2525
置	-16.2525
从	-16.2527
在	-16.3775
已	-16.3775
具	-16.3775
ψ	-16.3775
Ϻ	-16.3775
ѡ	-16.3775
۾	-16.3775
޸	-16.3775
ी	-16.3775
⇔	-16.3775
字	-16.3775
录	-16.3775
Ÿ	-16.3775
վ	-16.3775
و	-16.3775
ن	-16.3775
्	-16.3775
ด	-16.3775
त	-16.3775
ง	-16.3775
认	-16.3775
闭	-16.3775
存	-16.3775
径	-16.3775
路	-16.3775
程	-16.3776
动	-16.3776
初	-16.5203
よ	-16.5203
启	-16.5203
密	-16.5203
发	-16.5203
择	-16.5203
您	-16.5203
选	-16.5203
δ	-16.5204
ù	-16.5204
˼	-16.5204
ͳ	-16.5204
ς	-16.5204
Ϣ	-16.5204
֤	-16.5204
ט	-16.5204
ס	-16.5204
׷	-16.5204
د	-16.5204
ل	-16.5204
ი	-16.5204
რ	-16.5204
∨	-16.5204
作	-16.5204
式	-16.5204
Ó	-16.5204
ő	-16.5204
х	-16.5204
和	-16.5204
於	-16.5204
系	-16.5204
装	-16.5204
误	-16.5204
要	-16.5204
道	-16.5204
щ	-16.5204
理	-16.5204
购	-16.5204
据	-16.5204
经	-16.5204
信	-16.5205
ォ	-16.687
ダ	-16.687
ル	-16.687
送	-16.687
ז	-16.687
ु	-16.687
版	-16.687
ो	-16.687
度	-16.687
此	-16.687
能	-16.687
ă	-16.687
ǵ	-16.687
ȡ	-16.687
ʼ	-16.687
β	-16.687
η	-16.687
ν	-16.687
М	-16.687
ѯ	-16.687
Ѽ	-16.687
ֵ	-16.687
گ	-16.687
ड	-16.687
ल	-16.687
่	-16.687
ვ	-16.687
フ	-16.687
你	-16.687
后	-16.687
国	-16.687
好	-16.687
常	-16.687
时	-16.687
£	-16.687
ի	-16.687
‘	-16.687
≔	-16.687
买	-16.687
分	-16.687
删	-16.687
登	-16.687
统	-16.687
设	-16.687
Í	-16.687
打	-16.687
默	-16.687
内	-16.687
容	-16.687
条	-16.687
该	-16.687
所	-16.687
被	-16.887
ï	-16.887
输	-16.887
务	-16.887
识	-16.887
向	-16.887
吗	-16.887
实	-16.887
О	-16.887
值	-16.887
前	-16.887
标	-16.887
棡	-16.887
满	-16.887
类	-16.887
В	-16.887
़	-16.887
】	-16.887
学	-16.887
汾	-16.887
蔡	-16.887
©	-16.887
ý	-16.887
ļ	-16.887
Ʒ	-16.887
ȷ	-16.887
ɻ	-16.887
ɾ	-16.887
ʹ	-16.887
ҵ	-16.887
Ա	-16.887
Ի	-16.887
ֶ	-16.887
ֽ	-16.887
ץ	-16.887
ร	-16.887
ี	-16.887
人	-16.887
们	-16.887
君	-16.887
大	-16.887
对	-16.887
法	-16.887
表	-16.887
页	-16.887
ნ	-16.887
ქ	-16.887
图	-16.887
消	-16.887
管	-16.887
非	-16.887
清	-16.887
É	-16.887
č	-16.887
š	-16.887
ъ	-16.887
例	-16.887
可	-16.887
记	-16.887
э	-16.887
【	-16.887
次	-16.887
间	-16.887
未	-16.8871
自	-16.8871
年	-16.8872
ë	-17.137
二	-17.137
序	-17.137
当	-17.137
找	-17.137
น	-17.137
下	-17.137
态	-17.137
第	-17.137
ไ	-17.137
ά	-17.137
द	-17.137
Р	-17.137
ذ	-17.137
别	-17.137
權	-17.137
题	-17.137
ȭ	-17.137
ȸ	-17.137
́	-17.137
ھ	-17.137
औ	-17.137
意	-17.137
­	-17.137
¿	-17.137
ð	-17.137
ĸ	-17.137
Ƿ	-17.137
ɱ	-17.137
ɹ	-17.137
ͻ	-17.137
ж	-17.137
Ҳ	-17.137
ҳ	-17.137
Խ	-17.137
ե	-17.137
֪	-17.137
׸	-17.137
ت	-17.137
ز	-17.137
ݒ	-17.137
޽	-17.137
स	-17.137
ბ	-17.137
თ	-17.137
ლ	-17.137
→	-17.137
∥	-17.137
の	-17.137
ト	-17.137
于	-17.137
割	-17.137
動	-17.137
小	-17.137
滤	-17.137
采	-17.137
集	-17.137
项	-17.137
ė	-17.137
ͣ	-17.137
ֹ	-17.137
خ	-17.137
ᰡ	-17.137
Σ	-17.137
ն	-17.137
ँ	-17.137
ब	-17.137
ै	-17.137
声	-17.137
难	-17.137
使	-17.137
Á	-17.137
房	-17.137
斷	-17.137
Ε	-17.137
以	-17.137
З	-17.137
้	-17.137
型	-17.137
达	-17.137
回	-17.137
得	-17.137
覆	-17.137
配	-17.137
来	-17.137
盖	-17.137
义	-17.1371
并	-17.1371
品	-17.1372
通	-17.1372
去	-17.1373
十	-17.1373
战	-17.1374
键	-17.4703
¡	-17.4703
状	-17.4703
邮	-17.4703
或	-17.4703
与	-17.4703
助	-17.4703
按	-17.4703
规	-17.4703
Г	-17.4703
任	-17.4703
册	-17.4703
«	-17.4703
Д	-17.4703
執	-17.4703
现	-17.4703
网	-17.4703
閉	-17.4703
Μ	-17.4703
ओ	-17.4703
Æ	-17.4704
Ï	-17.4704
ț	-17.4704
ͨ	-17.4704
А	-17.4704
ф	-17.4704
ს	-17.4704
⋂	-17.4704
⋃	-17.4704
聲	-17.4704
±	-17.4704
Č	-17.4704
Ŭ	-17.4704
ų	-17.4704
ž	-17.4704
ȫ	-17.4704
ȱ	-17.4704
ʦ	-17.4704
ʧ	-17.4704
̳	-17.4704
̵	-17.4704
ή	-17.4704
Ф	-17.4704
ц	-17.4704
Ӿ	-17.4704
֡	-17.4704
֮	-17.4704
ִ	-17.4704
ַ	-17.4704
ך	-17.4704
ش	-17.4704
ی	-17.4704
ݿ	-17.4704
อ	-17.4704
მ	-17.4704
უ	-17.4704
←	-17.4704
◁	-17.4704
』	-17.4704
ま	-17.4704
伺	-17.4704
属	-17.4704
栏	-17.4704
示	-17.4704
簡	-17.4704
级	-17.4704
练	-17.4704
象	-17.4704
音	-17.4704
켣	-17.4704
￵	-17.4704
ě	-17.4704
ท	-17.4704
İ	-17.4704
ก	-17.4704
停	-17.4704
备	-17.4704
息	-17.4704
ī	-17.4704
أ	-17.4704
გ	-17.4704
ფ	-17.4704
『	-17.4704
令	-17.4704
保	-17.4704
台	-17.4704
員	-17.4704
增	-17.4704
库	-17.4704
持	-17.4704
改	-17.4704
片	-17.4704
续	-17.4704
训	-17.4704
遊	-17.4704
Ο	-17.4704
Π	-17.4704
完	-17.4704
感	-17.4704
觉	-17.4704
进	-17.4704
等	-17.4704
戲	-17.4704
指	-17.4704
案	-17.4704
查	-17.4704
线	-17.4704
语	-17.4704
单	-17.4704
建	-17.4704
业	-17.4706
产	-17.4706
断	-17.4707
移	-17.4707
代	-17.9702
源	-17.9702
ò	-17.9703
ิ	-17.9703
、	-17.9703
体	-17.9703
剪	-17.9703
只	-17.9703
同	-17.9703
应	-17.9703
操	-17.9703
架	-17.9703
样	-17.9703
框	-17.9703
知	-17.9703
运	-17.9703
א	-17.9703
»	-17.9703
ξ	-17.9703
υ	-17.9703
し	-17.9703
を	-17.9703
两	-17.9703
Ð	-17.9703
Я	-17.9703
上	-17.9703
听	-17.9703
果	-17.9703
监	-17.9703
结	-17.9703
आ	-17.9704
ऑ	-17.9704
ऒ	-17.9704
⺻	-17.9704
䣺	-17.9704
擾	-17.9704
	-17.9704
Ò	-17.9704
ì	-17.9704
ÿ	-17.9704
Ă	-17.9704
ć	-17.9704
ę	-17.9704
Ğ	-17.9704
Ĺ	-17.9704
Ľ	-17.9704
ń	-17.9704
ũ	-17.9704
ƽ	-17.9704
Ǘ	-17.9704
ǰ	-17.9704
Ǹ	-17.9704
ǹ	-17.9704
ȥ	-17.9704
Ȯ	-17.9704
Ɏ	-17.9704
ɷ	-17.9704
ʁ	-17.9704
˳	-17.9704
˵	-17.9704
˶	-17.9704
̐	-17.9704
̓	-17.9704
̔	-17.9704
̧	-17.9704
̸	-17.9704
̾	-17.9704
ͬ	-17.9704
ͱ	-17.9704
Ά	-17.9704
φ	-17.9704
χ	-17.9704
ϊ	-17.9704
ό	-17.9704
Ϸ	-17.9704
ϼ	-17.9704
Б	-17.9704
У	-17.9704
Ч	-17.9704
ѧ	-17.9704
Ѱ	-17.9704
Ѵ	-17.9704
Ґ	-17.9704
Ҫ	-17.9704
Ӧ	-17.9704
Ӳ	-17.9704
ӳ	-17.9704
Ӹ	-17.9704
ԣ	-17.9704
ָ	-17.9704
ؾ	-17.9704
َ	-17.9704
ٿ	-17.9704
ڿ	-17.9704
۲	-17.9704
ۺ	-17.9704
܂	-17.9704
߻	-17.9704
ॅ	-17.9704
ॆ	-17.9704
ত	-17.9704
্	-17.9704
ৎ	-17.9704
ฟ	-17.9704
ล	-17.9704
เ	-17.9704
์	-17.9704
ო	-17.9704
ც	-17.9704
ძ	-17.9704
–	-17.9704
“	-17.9704
”	-17.9704
•	-17.9704
↣	-17.9704
⩤	-17.9704
す	-17.9704
せ	-17.9704
で	-17.9704
ん	-17.9704
ス	-17.9704
ド	-17.9704
ポ	-17.9704
ン	-17.9704
並	-17.9704
丮	-17.9704
也	-17.9704
何	-17.9704
做	-17.9704
全	-17.9704
共	-17.9704
列	-17.9704
剔	-17.9704
包	-17.9704
号	-17.9704
处	-17.9704
异	-17.9704
性	-17.9704
方	-17.9704
无	-17.9704
机	-17.9704
模	-17.9704
毕	-17.9704
池	-17.9704
淶	-17.9704
由	-17.9704
男	-17.9704
称	-17.9704
简	-17.9704
範	-17.9704
組	-17.9704
維	-17.9704
细	-17.9704
络	-17.9704
编	-17.9704
色	-17.9704
览	-17.9704
详	-17.9704
读	-17.9704
超	-17.9704
辆	-17.9704
辑	-17.9704
这	-17.9704
運	-17.9704
陆	-17.9704
面	-17.9704
붯	-17.9704
ȣ	-17.9704
ว	-17.9704
ᷮ	-17.9704
↠	-17.9704
女	-17.9704
	-17.9704
ω	-17.9704
К	-17.9704
噪	-17.9704
平	-17.9704
提	-17.9704
止	-17.9704
灰	-17.9704
角	-17.9704
载	-17.9704
	-17.9704
̈	-17.9704
Ρ	-17.9704
之	-17.9704
否	-17.9704
返	-17.9704
แ	-17.9704
收	-17.9704
还	-17.9704
Ú	-17.9704
Α	-17.9704
ต	-17.9704
则	-17.9704
制	-17.9704
昨	-17.9704
调	-17.9704
执	-17.9704
ส	-17.9704
写	-17.9704
句	-17.9704
天	-17.9704
每	-17.9704
没	-17.9704
真	-17.9704
都	-17.9704
会	-17.9704
死	-17.9704
争	-17.9707
牌	-17.9707
竞	-17.9707
费	-17.9707
资	-17.9707
历	-17.9708
垄	-17.9708
放	-18.9702
Î	-18.9703
ช	-18.9703
に	-18.9703
允	-18.9703
协	-18.9703
根	-18.9703
笑	-18.9703
约	-18.9703
议	-18.9703
话	-18.9703
บ	-18.9703
ั	-18.9703
刀	-18.9703
卡	-18.9703
填	-18.9703
头	-18.9703
导	-18.9703
布	-18.9703
核	-18.9703
物	-18.9703
石	-18.9703
線	-18.9703
者	-18.9703
许	-18.9703
辅	-18.9703
部	-18.9703
际	-18.9703
離	-18.9703
θ	-18.9703
И	-18.9703
商	-18.9703
必	-18.9703
開	-18.9703
须	-18.9703
À	-18.9703
Ë	-18.9703
ყ	-18.9703
▷	-18.9703
客	-18.9703
志	-18.9703
率	-18.9703
稍	-18.9703
端	-18.9703
荣	-18.9703
词	-18.9703
ʾ	-18.9703
父	-18.9703
說	-18.9703
Ȳ	-18.9704
¢	-18.9704
®	-18.9704
Ç	-18.9704
È	-18.9704
Ô	-18.9704
Ø	-18.9704
Û	-18.9704
Ý	-18.9704
þ	-18.9704
ġ	-18.9704
ĺ	-18.9704
œ	-18.9704
ť	-18.9704
Ű	-18.9704
ŵ	-18.9704
Ž	-18.9704
ƥ	-18.9704
ǣ	-18.9704
Ǯ	-18.9704
Ǵ	-18.9704
ǽ	-18.9704
Ȃ	-18.9704
ȯ	-18.9704
ȶ	-18.9704
Ƀ	-18.9704
ɰ	-18.9704
ɵ	-18.9704
ɸ	-18.9704
ʽ	-18.9704
˾	-18.9704
˿	-18.9704
̄	-18.9704
̎	-18.9704
̏	-18.9704
̫	-18.9704
̴	-18.9704
̻	-18.9704
̿	-18.9704
Ι	-18.9704
Υ	-18.9704
ί	-18.9704
ΰ	-18.9704
ώ	-18.9704
ϸ	-18.9704
ϻ	-18.9704
Т	-18.9704
Ц	-18.9704
Э	-18.9704
ѷ	-18.9704
ѻ	-18.9704
Ѿ	-18.9704
Ҵ	-18.9704
ҷ	-18.9704
ӱ	-18.9704
ӵ	-18.9704
Դ	-18.9704
գ	-18.9704
է	-18.9704
֯	-18.9704
ְ	-18.9704
ֱ	-18.9704
ֻ	-18.9704
ׁ	-18.9704
ף	-18.9704
ױ	-18.9704
ء	-18.9704
ة	-18.9704
ص	-18.9704
ؼ	-18.9704
ٲ	-18.9704
ڍ	-18.9704
ڣ	-18.9704
ڱ	-18.9704
ڸ	-18.9704
ڽ	-18.9704
ۑ	-18.9704
ܳ	-18.9704
ݨ	-18.9704
ݱ	-18.9704
ݲ	-18.9704
ݺ	-18.9704
ݻ	-18.9704
޷	-18.9704
ߣ	-18.9704
ഫ	-18.9704
ป	-18.9704
ย	-18.9704
დ	-18.9704
ზ	-18.9704
კ	-18.9704
ტ	-18.9704
შ	-18.9704
წ	-18.9704
ᆢ	-18.9704
ạ	-18.9704
ế	-18.9704
ộ	-18.9704
—	-18.9704
※	-18.9704
↑	-18.9704
∉	-18.9704
√	-18.9704
∞	-18.9704
∼	-18.9704
⊄	-18.9704
⊈	-18.9704
✓	-18.9704
⩥	-18.9704
か	-18.9704
き	-18.9704
こ	-18.9704
て	-18.9704
は	-18.9704
ぴ	-18.9704
り	-18.9704
ア	-18.9704
イ	-18.9704
エ	-18.9704
キ	-18.9704
セ	-18.9704
タ	-18.9704
ッ	-18.9704
テ	-18.9704
ユ	-18.9704
レ	-18.9704
䶑	-18.9704
三	-18.9704
且	-18.9704
主	-18.9704
么	-18.9704
习	-18.9704
予	-18.9704
云	-18.9704
介	-18.9704
仯	-18.9704
份	-18.9704
假	-18.9704
准	-18.9704
切	-18.9704
华	-18.9704
即	-18.9704
变	-18.9704
合	-18.9704
含	-18.9704
命	-18.9704
啟	-18.9704
困	-18.9704
基	-18.9704
夹	-18.9704
如	-18.9704
子	-18.9704
安	-18.9704
宋	-18.9704
宝	-18.9704
家	-18.9704
対	-18.9704
尽	-18.9704
层	-18.9704
山	-18.9704
帮	-18.9704
幕	-18.9704
幻	-18.9704
张	-18.9704
影	-18.9704
很	-18.9704
徊	-18.9704
徘	-18.9704
心	-18.9704
忠	-18.9704
快	-18.9704
忽	-18.9704
情	-18.9704
態	-18.9704
才	-18.9704
把	-18.9704
抽	-18.9704
排	-18.9704
控	-18.9704
描	-18.9704
支	-18.9704
效	-18.9704
敗	-18.9704
明	-18.9704
普	-18.9704
景	-18.9704
暂	-18.9704
書	-18.9704
月	-18.9704
杂	-18.9704
板	-18.9704
构	-18.9704
格	-18.9704
检	-18.9704
榜	-18.9704
機	-18.9704
檔	-18.9704
民	-18.9704
浏	-18.9704
淘	-18.9704
混	-18.9704
為	-18.9704
特	-18.9704
狂	-18.9704
玩	-18.9704
环	-18.9704
生	-18.9704
电	-18.9704
略	-18.9704
看	-18.9704
立	-18.9704
符	-18.9704
簢	-18.9704
索	-18.9704
經	-18.9704
绍	-18.9704
继	-18.9704
绰	-18.9704
缀	-18.9704
義	-18.9704
联	-18.9704
肵	-18.9704
背	-18.9704
获	-18.9704
菜	-18.9704
言	-18.9704
论	-18.9704
课	-18.9704
贴	-18.9704
跳	-18.9704
车	-18.9704
转	-18.9704
边	-18.9704
追	-18.9704
里	-18.9704
鈕	-18.9704
长	-18.9704
队	-18.9704
预	-18.9704
风	-18.9704
高	-18.9704
ꍇ	-18.9704
국	-18.9704
대	-18.9704
민	-18.9704
봫	-18.9704
뵥	-18.9704
뵽	-18.9704
컹	-18.9704
켳	-18.9704
쳣	-18.9704
ā	-18.9704
ē	-18.9704
ū	-18.9704
⊂	-18.9704
⤀	-18.9704
⤔	-18.9704
带	-18.9704
đ	-18.9704
Į	-18.9704
グ	-18.9704
公	-18.9704
占	-18.9704
块	-18.9704
宽	-18.9704
將	-18.9704
授	-18.9704
暗	-18.9704
权	-18.9704
笔	-18.9704
終	-18.9704
账	-18.9704
随	-18.9704
骨	-18.9704
Γ	-18.9704
Κ	-18.9704
Ν	-18.9704
έ	-18.9704
が	-18.9704
つ	-18.9704
厂	-18.9704
就	-18.9704
見	-18.9704
订	-18.9704
述	-18.9704
Ϋ	-18.9704
仍	-18.9704
儲	-18.9704
判	-18.9704
工	-18.9704
強	-18.9704
待	-18.9704
料	-18.9704
滚	-18.9704
畢	-18.9704
直	-18.9704
租	-18.9704
站	-18.9704
資	-18.9704
居	-18.9705
掉	-18.9705
析	-18.9705
然	-18.9705
缓	-18.9705
解	-18.9705
创	-18.9706
