<unk>	0
<s>	0
</s>	0
▁the	-2.6438
.	-2.78077
s	-3.74178
▁of	-3.91261
▁a	-3.92785
▁to	-4.03742
▁is	-4.33549
,	-4.41059
▁this	-4.42766
▁for	-4.48348
▁	-4.49484
▁method	-4.78004
▁in	-4.84639
▁and	-4.94467
▁Returns	-4.9792
▁This	-5.0018
▁value	-5.12414
▁be	-5.17734
▁if	-5.22275
▁that	-5.2425
▁an	-5.25537
▁Sets	-5.29037
'	-5.44537
▁object	-5.5074
▁from	-5.50763
▁with	-5.53524
-	-5.54161
▁by	-5.57564
▁(	-5.61149
▁{@	-5.62933
link	-5.62999
▁it	-5.64212
▁property	-5.66221
▁given	-5.66521
▁The	-5.68153
▁not	-5.73437
)	-5.7358
▁will	-5.78087
▁or	-5.81147
▁all	-5.8328
ing	-5.85797
ed	-5.87219
▁specified	-5.92568
▁Gets	-5.93735
▁on	-5.94172
▁are	-5.95455
:	-5.95569
▁set	-5.97645
▁new	-6.00152
▁name	-6.0237
▁class	-6.05221
▁Get	-6.07082
▁as	-6.08455
▁Set	-6.10262
▁If	-6.13592
_	-6.16661
▁when	-6.18091
d	-6.18954
▁returns	-6.20361
▁current	-6.20429
▁list	-6.20999
}	-6.22103
▁used	-6.23456
e	-6.23857
t	-6.26055
▁file	-6.28054
▁has	-6.31273
(	-6.31946
▁type	-6.35957
▁can	-6.38322
▁number	-6.39308
()	-6.4095
▁"	-6.41056
▁data	-6.42124
▁instance	-6.42831
▁default	-6.43051
▁null	-6.43445
▁get	-6.47862
▁string	-6.48041
er	-6.51293
▁Return	-6.53337
"	-6.53423
▁which	-6.54936
;	-6.55921
▁initializes	-6.56823
/	-6.57211
▁at	-6.57287
▁element	-6.59425
▁true	-6.59554
▁should	-6.62351
▁node	-6.64083
▁user	-6.65207
▁return	-6.66804
▁one	-6.67172
▁attribute	-6.68057
▁whether	-6.69336
r	-6.73268
▁implementation	-6.73435
▁no	-6.74999
▁Test	-6.75138
▁any	-6.7606
▁called	-6.76327
▁A	-6.76459
▁text	-6.79773
▁only	-6.8191
▁message	-6.8255
▁Creates	-6.82573
▁key	-6.82674
▁Adds	-6.83596
▁#	-6.83834
n	-6.84247
y	-6.90503
▁field	-6.93166
▁Method	-6.93545
▁index	-6.94221
).	-6.94353
▁use	-6.97335
▁time	-6.97509
▁component	-6.97627
al	-6.97691
▁been	-6.98082
▁event	-6.98303
S	-6.98613
▁we	-6.98929
g	-6.99239
▁so	-6.99739
▁'	-7.00037
▁into	-7.00862
a	-7.01196
ly	-7.0308
▁have	-7.03864
▁String	-7.04048
▁.	-7.04173
▁state	-7.05594
▁values	-7.07939
es	-7.0897
▁S	-7.09378
or	-7.09549
▁Add	-7.09593
▁its	-7.10462
▁first	-7.10587
Type	-7.12854
in	-7.13555
#	-7.14995
▁then	-7.15114
▁Create	-7.1601
able	-7.16018
▁using	-7.16669
▁-	-7.16871
i	-7.16925
▁column	-7.17063
▁position	-7.17145
▁returned	-7.17739
▁case	-7.19985
m	-7.21454
D	-7.21592
▁table	-7.22045
▁test	-7.23241
▁model	-7.23503
▁call	-7.23607
▁must	-7.24088
c	-7.25252
A	-7.25392
▁parameter	-7.25526
▁may	-7.26649
▁re	-7.26859
p	-7.27212
▁item	-7.27689
▁was	-7.27724
▁selected	-7.2871
▁associated	-7.30315
o	-7.30595
f	-7.31462
2	-7.31714
P	-7.32403
▁does	-7.32473
get	-7.33117
▁row	-7.33523
▁array	-7.33535
re	-7.34462
▁same	-7.34722
▁It	-7.34996
▁size	-7.35425
▁function	-7.35428
1	-7.35434
▁adds	-7.35754
C	-7.35762
b	-7.3618
T	-7.36627
l	-7.36834
▁input	-7.38727
▁database	-7.38962
▁Removes	-7.39192
▁cases	-7.39917
▁ignore	-7.40638
▁feature	-7.40656
▁after	-7.40714
B	-7.42935
▁path	-7.44033
▁action	-7.44195
▁you	-7.44243
▁code	-7.44295
▁add	-7.44824
▁id	-7.45179
▁information	-7.45318
▁generated	-7.45618
▁Setter	-7.45701
▁result	-7.46094
F	-7.46487
▁Checks	-7.4775
▁date	-7.47855
▁stream	-7.48643
▁there	-7.4878
▁line	-7.50375
▁image	-7.51419
▁J	-7.51514
▁server	-7.52206
▁connection	-7.52242
▁before	-7.52322
▁other	-7.52405
Name	-7.5253
▁C	-7.53002
▁view	-7.53209
x	-7.53835
▁end	-7.53995
▁next	-7.55004
code	-7.55167
▁point	-7.55397
▁request	-7.55641
▁up	-7.56008
E	-7.56013
▁content	-7.56119
}.	-7.56839
▁In	-7.57033
▁map	-7.5735
▁output	-7.57748
▁last	-7.57834
k	-7.58061
▁P	-7.58198
▁document	-7.5821
▁created	-7.59123
▁descriptor	-7.60184
id	-7.60312
▁page	-7.60441
ation	-7.60537
▁source	-7.60705
▁than	-7.60741
▁representation	-7.61105
▁false	-7.61232
▁but	-7.61424
▁Note	-7.61598
▁error	-7.61878
▁context	-7.62354
▁objects	-7.62569
▁sets	-7.63034
▁each	-7.63069
▁listener	-7.63552
3	-7.63764
▁update	-7.64418
▁character	-7.6449
L	-7.6496
▁create	-7.64966
▁operation	-7.65403
▁thread	-7.65928
▁order	-7.66063
▁change	-7.66392
▁parent	-7.66795
▁start	-7.67425
set	-7.68122
ar	-7.68366
▁button	-7.68452
▁elements	-7.68504
▁do	-7.69137
G	-7.69526
▁color	-7.6969
ion	-7.70271
Object	-7.7053
▁length	-7.71017
▁I	-7.71043
▁two	-7.7107
▁p	-7.71201
▁collection	-7.71392
▁org	-7.71411
▁tree	-7.73452
M	-7.7346
▁currently	-7.7355
▁XML	-7.73878
on	-7.73969
▁properties	-7.74572
▁reference	-7.75082
h	-7.75702
▁application	-7.75931
▁command	-7.76231
▁added	-7.76437
▁resource	-7.76785
▁description	-7.77258
▁exception	-7.77357
▁B	-7.77418
▁s	-7.77839
▁out	-7.77955
▁form	-7.78374
▁status	-7.78584
v	-7.78665
▁Getter	-7.78678
▁Called	-7.78698
▁entry	-7.78742
▁useful	-7.79219
▁un	-7.79565
N	-7.79795
u	-7.80083
▁Re	-7.80354
▁label	-7.80925
▁f	-7.81115
▁empty	-7.81763
▁check	-7.82061
▁ID	-7.82763
▁display	-7.82827
▁sub	-7.82952
▁contains	-7.83
▁For	-7.83763
▁location	-7.8432
▁Check	-7.84498
▁child	-7.84593
ent	-7.8493
String	-7.85034
▁group	-7.85106
▁0	-7.85263
O	-7.85419
w	-7.85818
▁already	-7.86416
▁Auto	-7.86911
ic	-7.86987
▁read	-7.87125
le	-7.87145
List	-7.87174
▁configuration	-7.87339
▁based	-7.87518
▁e	-7.87724
▁x	-7.87751
▁system	-7.88078
▁b	-7.88741
▁format	-7.89044
▁Tests	-7.8918
▁within	-7.89486
▁interface	-7.89527
&	-7.89907
▁window	-7.90261
▁=	-7.9058
▁service	-7.91085
it	-7.91651
▁}	-7.91718
▁between	-7.91739
▁tag	-7.92472
▁panel	-7.92505
is	-7.92637
▁buffer	-7.93302
▁1	-7.93623
▁some	-7.93664
▁selection	-7.93768
▁where	-7.94076
▁version	-7.94194
▁defined	-7.94458
▁listeners	-7.94566
▁argument	-7.94669
▁session	-7.94908
▁menu	-7.95258
▁more	-7.95366
▁equal	-7.95697
▁being	-7.95796
▁Remove	-7.96151
R	-7.96513
▁passed	-7.96517
▁record	-7.96711
Id	-7.97065
▁M	-7.97086
▁directory	-7.97197
▁setter	-7.97293
▁available	-7.97451
4	-7.97482
▁m	-7.97672
?	-7.98219
▁variable	-7.98277
▁found	-7.98342
▁specific	-7.98559
▁target	-7.98758
▁mode	-7.98969
▁level	-7.99756
▁F	-7.9982
▁D	-7.99994
▁changed	-8.00037
▁entity	-8.00242
an	-8.00397
▁client	-8.01028
▁here	-8.01295
▁j	-8.01545
I	-8.0247
▁parameters	-8.02661
▁part	-8.0289
Data	-8.03065
▁adapter	-8.03127
▁process	-8.03185
▁valid	-8.03336
▁E	-8.03788
at	-8.03899
▁changes	-8.04076
▁query	-8.04132
▁,	-8.04877
▁log	-8.05139
▁c	-8.05264
▁also	-8.05401
▁another	-8.05611
▁children	-8.05773
▁i	-8.05993
▁cache	-8.06071
▁de	-8.06536
▁URL	-8.06603
H	-8.06758
▁Object	-8.07106
et	-8.07269
Exception	-8.07326
ment	-8.07347
▁&	-8.07476
▁dialog	-8.07641
V	-8.07773
▁range	-8.08023
▁frame	-8.08269
▁R	-8.0842
▁com	-8.08836
j	-8.09165
▁catch	-8.09302
ID	-8.09657
▁flag	-8.10029
▁single	-8.10194
▁override	-8.10453
▁filter	-8.11611
▁'{@	-8.11668
▁header	-8.11747
▁}'	-8.11748
▁base	-8.12445
▁Retrieves	-8.12717
▁registered	-8.1273
Value	-8.12749
im	-8.12919
▁calls	-8.13626
▁local	-8.13677
▁corresponding	-8.13734
▁t	-8.13915
lt	-8.14357
▁n	-8.14474
▁calling	-8.14707
▁exists	-8.14836
en	-8.14888
▁expression	-8.14937
▁easily	-8.15857
▁remove	-8.15999
▁cell	-8.16015
▁L	-8.16035
▁instances	-8.16205
▁inheritance	-8.16403
▁characters	-8.16665
▁root	-8.16786
▁copy	-8.1698
▁search	-8.17017
W	-8.17133
▁non	-8.17199
▁anyway	-8.17414
name	-8.17611
▁need	-8.17709
▁otherwise	-8.17771
▁different	-8.17856
▁2	-8.18123
▁maximum	-8.18468
▁vector	-8.18582
▁events	-8.18725
▁control	-8.18839
▁such	-8.18989
▁stored	-8.19088
ur	-8.19089
▁example	-8.19344
▁T	-8.19349
if	-8.19412
U	-8.19952
as	-8.20239
▁project	-8.2064
▁provided	-8.20749
▁access	-8.20793
▁int	-8.20807
to	-8.21421
▁graph	-8.21428
▁their	-8.21665
▁just	-8.2195
0	-8.22095
▁attributes	-8.2212
▁width	-8.22137
el	-8.22535
▁byte	-8.22999
▁java	-8.23194
▁internal	-8.23413
▁nothing	-8.23527
▁constructor	-8.23997
▁over	-8.24111
=	-8.24856
Y	-8.24921
▁task	-8.25079
z	-8.25312
▁count	-8.25627
▁editor	-8.25752
▁Description	-8.25917
Set	-8.26016
▁N	-8.26442
▁style	-8.26603
▁files	-8.26689
▁response	-8.27184
ter	-8.27261
Listener	-8.27308
Event	-8.27542
▁about	-8.27611
▁your	-8.27751
▁address	-8.27792
▁handler	-8.28152
▁want	-8.28386
▁right	-8.29264
▁run	-8.29265
)}	-8.29437
▁X	-8.29488
▁containing	-8.29545
▁Java	-8.29789
▁required	-8.29994
▁G	-8.30161
Manager	-8.30439
th	-8.30827
▁H	-8.31498
File	-8.31622
▁player	-8.32109
X	-8.32121
▁they	-8.32164
!	-8.32214
▁Updates	-8.32215
▁appropriate	-8.32395
▁supplied	-8.32767
▁transaction	-8.32897
]	-8.32941
▁setting	-8.33031
▁sequence	-8.33119
▁fields	-8.33823
▁instead	-8.34036
▁mouse	-8.34219
▁container	-8.34274
▁nodes	-8.34895
▁without	-8.35198
▁W	-8.35321
▁either	-8.3556
▁To	-8.35709
5	-8.35717
▁y	-8.35755
▁match	-8.35785
ll	-8.35877
▁block	-8.35898
▁Determines	-8.35929
▁store	-8.3629
Info	-8.36821
Node	-8.36974
▁stack	-8.37084
ro	-8.37358
▁back	-8.37521
▁items	-8.38198
▁see	-8.38279
▁3	-8.38335
▁receiver	-8.38557
▁underlying	-8.38735
▁bytes	-8.38863
Model	-8.3955
▁contents	-8.3968
()}	-8.40024
▁displayed	-8.40148
▁active	-8.40162
▁O	-8.40492
▁removed	-8.40678
ive	-8.41079
▁title	-8.4167
▁Data	-8.41835
▁main	-8.4202
Element	-8.4202
▁through	-8.42339
▁font	-8.42405
▁queue	-8.42407
ator	-8.42481
st	-8.42553
▁integer	-8.42599
line	-8.42756
▁always	-8.42807
▁token	-8.43976
▁because	-8.44533
▁unit	-8.44722
▁needed	-8.44923
▁:	-8.45145
▁matrix	-8.45155
▁port	-8.45543
gt	-8.45706
▁left	-8.45816
▁Retrieve	-8.45878
▁bean	-8.45919
J	-8.46538
▁work	-8.46784
ce	-8.4706
▁area	-8.47133
▁When	-8.47424
ity	-8.4746
▁factory	-8.4771
▁boolean	-8.48087
▁contained	-8.48133
un	-8.48405
up	-8.48885
▁d	-8.48913
Re	-8.48935
ri	-8.49073
▁statement	-8.49099
▁done	-8.49284
▁Send	-8.49652
▁zero	-8.49712
▁height	-8.4984
▁necessary	-8.49884
▁existing	-8.50165
▁Default	-8.5032
▁enabled	-8.5037
Class	-8.50432
▁creates	-8.50476
▁Used	-8.50495
▁screen	-8.50648
▁make	-8.50658
▁show	-8.50776
▁List	-8.50951
▁exist	-8.5104
▁tab	-8.51578
▁find	-8.51782
de	-8.51802
In	-8.52169
Item	-8.52202
▁invoked	-8.52277
▁gets	-8.52279
me	-8.52401
▁checks	-8.5257
▁open	-8.52619
▁pattern	-8.52915
▁[	-8.53049
ol	-8.53264
▁possible	-8.53334
▁manager	-8.53352
type	-8.53429
),	-8.53908
▁box	-8.53929
▁top	-8.54019
▁visible	-8.54056
▁contain	-8.54268
value	-8.54399
▁actual	-8.54408
▁space	-8.54465
▁g	-8.54826
▁until	-8.54913
▁write	-8.55393
▁components	-8.55676
▁Update	-8.55883
▁identifier	-8.56179
▁pre	-8.5626
▁handle	-8.56267
te	-8.56291
▁names	-8.56428
▁subclasses	-8.56757
▁classes	-8.57038
ate	-8.57155
▁both	-8.57405
▁messages	-8.57551
▁would	-8.58228
est	-8.58475
and	-8.58529
▁during	-8.58645
int	-8.58728
▁game	-8.59129
▁notification	-8.59228
ant	-8.59257
Panel	-8.5931
▁rule	-8.59464
▁offset	-8.59603
▁previous	-8.59691
am	-8.59753
▁File	-8.59862
▁uses	-8.59898
▁Writes	-8.60294
To	-8.60719
ul	-8.60999
▁SQL	-8.61203
ap	-8.61208
▁how	-8.61331
▁thrown	-8.61631
);	-8.61673
▁r	-8.61673
▁total	-8.6179
▁h	-8.61979
▁channel	-8.62428
end	-8.62472
eclipse	-8.62503
Field	-8.6257
▁resources	-8.62893
ac	-8.63026
▁present	-8.63129
▁results	-8.63201
▁load	-8.63328
▁according	-8.63617
▁Use	-8.63627
▁option	-8.63937
▁Is	-8.64059
▁initial	-8.64098
ge	-8.64251
▁iterator	-8.648
lo	-8.65219
▁methods	-8.65493
▁supported	-8.65552
▁package	-8.65557
▁info	-8.65608
out	-8.65784
us	-8.65838
ad	-8.66096
▁long	-8.66224
▁mapping	-8.6627
▁structure	-8.6642
▁->	-8.66433
▁hash	-8.66466
▁|	-8.66492
▁icon	-8.6659
▁bar	-8.66928
▁since	-8.6715
▁device	-8.67187
▁following	-8.67206
▁save	-8.67325
▁Insert	-8.6739
▁support	-8.67705
▁URI	-8.67806
▁v	-8.68014
▁down	-8.68051
▁definition	-8.68818
um	-8.68987
▁double	-8.69045
▁via	-8.69565
▁layout	-8.69717
▁An	-8.69735
▁relative	-8.69764
▁insert	-8.69765
▁types	-8.69966
Context	-8.69969
edit	-8.70047
▁Write	-8.70063
▁Un	-8.70193
▁o	-8.70245
8	-8.70405
▁close	-8.70493
▁coordinates	-8.70769
▁template	-8.70777
mo	-8.70962
io	-8.70973
▁Type	-8.71076
▁Append	-8.71081
▁coordinate	-8.71399
▁them	-8.7158
▁Indicates	-8.7159
▁module	-8.71941
▁background	-8.71967
)}.	-8.71993
▁w	-8.72216
▁correct	-8.72261
▁widget	-8.72454
▁automatically	-8.72619
▁+	-8.72906
▁primary	-8.72924
▁unique	-8.73098
▁pool	-8.73098
▁particular	-8.73426
▁User	-8.73958
▁effect	-8.74203
▁extension	-8.74208
▁send	-8.74559
▁getter	-8.74621
▁max	-8.74638
se	-8.7468
▁De	-8.75023
▁creating	-8.75083
▁amount	-8.751
▁cached	-8.75133
▁)	-8.75466
▁implement	-8.75482
▁minimum	-8.75536
▁report	-8.75638
▁processing	-8.75966
▁related	-8.75971
one	-8.76571
▁original	-8.76679
▁modified	-8.76969
ot	-8.77148
▁what	-8.77306
},	-8.77457
▁named	-8.77522
▁link	-8.77573
▁directly	-8.77587
Map	-8.776
▁every	-8.77853
K	-8.78079
▁standard	-8.78357
Key	-8.78403
▁edge	-8.78571
▁represents	-8.78634
emf	-8.78652
ve	-8.7872
ra	-8.788
▁doesn	-8.78801
ex	-8.79137
▁Creation	-8.79298
Button	-8.7935
▁select	-8.79395
command	-8.79553
▁like	-8.80023
▁custom	-8.8004
ir	-8.80077
▁settings	-8.80204
▁cursor	-8.80246
Text	-8.80298
▁means	-8.80366
[	-8.80453
Time	-8.80582
▁multiple	-8.80622
Message	-8.80665
▁stop	-8.80701
▁layer	-8.80702
▁per	-8.80748
op	-8.80831
tion	-8.80857
▁representing	-8.81012
▁Reads	-8.81021
▁public	-8.8107
▁prefix	-8.81081
▁Initializes	-8.81216
▁TODO	-8.81265
▁second	-8.8144
▁language	-8.81489
▁execution	-8.81558
▁host	-8.81642
7	-8.81807
▁under	-8.81854
▁determine	-8.81962
▁All	-8.82058
▁viewer	-8.82131
6	-8.82302
time	-8.82389
▁Override	-8.8266
▁full	-8.82663
▁starting	-8.82706
com	-8.82991
▁rows	-8.8314
▁focus	-8.83408
ch	-8.8342
▁We	-8.83482
▁agent	-8.83578
▁axis	-8.83587
▁Map	-8.83622
▁folder	-8.83624
▁random	-8.83743
▁sent	-8.83969
▁V	-8.8403
▁comment	-8.84321
▁points	-8.84341
▁options	-8.84673
▁way	-8.84702
▁Read	-8.8478
▁Subclasses	-8.84929
▁job	-8.84986
▁running	-8.85004
▁loaded	-8.85038
null	-8.85065
Component	-8.85356
il	-8.85466
View	-8.85504
▁removes	-8.85528
▁entries	-8.85821
ie	-8.85832
▁parse	-8.85917
▁Class	-8.86165
▁allowed	-8.864
▁namespace	-8.86437
▁See	-8.86497
▁password	-8.86642
▁reset	-8.86661
▁itself	-8.86731
▁updated	-8.86901
Of	-8.8729
ip	-8.87303
▁auto	-8.87326
Group	-8.87538
▁{	-8.87629
▁columns	-8.87854
▁matches	-8.88069
▁memory	-8.88224
▁short	-8.88569
▁updates	-8.8864
▁allow	-8.88688
ated	-8.88752
ect	-8.88907
▁UI	-8.88926
▁account	-8.89431
▁place	-8.89501
▁made	-8.89623
▁draw	-8.89696
▁Log	-8.89743
▁Action	-8.89744
▁Node	-8.8982
Index	-8.89906
▁Print	-8.8995
▁Does	-8.90157
lang	-8.90186
▁plugin	-8.90222
ig	-8.90363
▁Initialize	-8.90633
Handler	-8.909
▁closed	-8.91053
AR	-8.91173
▁old	-8.9127
ting	-8.91423
Factory	-8.91545
▁body	-8.91585
▁move	-8.9166
▁throws	-8.91667
Table	-8.91771
",	-8.91793
▁most	-8.91916
▁-1	-8.92016
▁edit	-8.9207
▁distance	-8.92074
ies	-8.92286
▁allows	-8.92302
▁throw	-8.92338
▁off	-8.92527
▁those	-8.9259
▁build	-8.92779
▁GUI	-8.92894
▁HTML	-8.92928
ER	-8.9305
Date	-8.93071
▁cannot	-8.9322
data	-8.93295
om	-8.93429
▁could	-8.93553
DE	-8.93732
ance	-8.93747
▁delete	-8.93896
▁member	-8.94081
Property	-8.94374
Response	-8.94456
▁behavior	-8.94503
▁once	-8.94683
▁simple	-8.94745
▁/	-8.94771
ial	-8.95048
Action	-8.95199
▁Compares	-8.956
▁etc	-8.95688
▁super	-8.95765
eg	-8.9587
▁tool	-8.95933
▁adapted	-8.95951
▁domain	-8.95977
▁step	-8.96173
▁initialized	-8.96246
▁post	-8.96565
▁performed	-8.96614
ating	-8.96792
▁print	-8.97072
Service	-8.97164
not	-8.97254
▁actions	-8.97294
▁schema	-8.97382
▁algorithm	-8.97655
▁Call	-8.97687
▁Converts	-8.97867
the	-8.97915
▁variables	-8.98249
State	-8.98266
▁arguments	-8.9828
▁yet	-8.98285
▁represented	-8.98515
▁Otherwise	-8.98547
▁Handles	-8.98564
▁sure	-8.98797
▁our	-8.98914
▁network	-8.99073
▁direction	-8.99164
▁con	-8.99356
▁previously	-8.99377
em	-8.99414
▁while	-8.99471
▁tests	-8.99785
▁own	-8.99806
▁handles	-8.99967
▁complete	-9.00162
▁Find	-9.00194
ED	-9.00313
let	-9.00365
ec	-9.0039
▁Delete	-9.00481
▁normal	-9.00552
()}.	-9.0063
▁By	-9.00794
▁Clears	-9.00839
▁Name	-9.00874
Path	-9.00981
ary	-9.0099
▁progress	-9.01216
la	-9.01411
▁executed	-9.0146
ted	-9.01483
▁section	-9.02077
▁remote	-9.02397
load	-9.02559
▁pro	-9.02608
Bean	-9.02667
▁parser	-9.02688
ally	-9.02732
▁initiliazed	-9.02915
▁Element	-9.02953
Count	-9.03084
no	-9.031
▁register	-9.03117
ho	-9.03248
Size	-9.03253
▁Start	-9.03311
▁10	-9.03317
add	-9.03519
ue	-9.03614
Request	-9.03657
▁inside	-9.03785
▁were	-9.03919
▁optional	-9.03993
▁Only	-9.04021
▁grid	-9.04133
▁don	-9.04159
▁transform	-9.04193
▁these	-9.04353
▁Message	-9.044
java	-9.04431
▁written	-9.04466
▁perform	-9.04778
▁bit	-9.04792
▁matching	-9.04867
IN	-9.04913
▁lock	-9.05011
▁received	-9.05042
RE	-9.05104
▁packet	-9.05143
do	-9.05335
User	-9.05457
li	-9.05479
▁sort	-9.05551
▁Loads	-9.05578
▁clear	-9.05634
▁ignored	-9.0569
log	-9.05731
▁saved	-9.05767
Ref	-9.06145
Q	-9.06169
Result	-9.06218
▁special	-9.06952
vi	-9.06967
▁implemented	-9.06997
▁script	-9.07032
iv	-9.07261
+	-9.07368
▁execute	-9.07409
▁Convenience	-9.07511
▁put	-9.07523
▁equality	-9.07655
age	-9.07718
▁Load	-9.07956
ers	-9.08183
AL	-9.08337
▁rectangle	-9.08357
▁interval	-9.08608
os	-9.08751
of	-9.08799
ag	-9.08828
po	-9.08914
▁external	-9.09017
form	-9.09021
▁expected	-9.09152
▁Date	-9.09185
per	-9.09314
▁bounds	-9.09339
9	-9.09345
▁requested	-9.09449
▁constant	-9.09886
model	-9.10009
▁Event	-9.10092
▁symbol	-9.10102
▁keys	-9.10109
▁destination	-9.10351
▁Process	-9.10355
cl	-9.10406
ite	-9.10424
▁limit	-9.10441
▁instruction	-9.10643
▁Con	-9.10704
pe	-9.10767
ci	-9.10816
▁socket	-9.10912
▁scope	-9.11081
▁condition	-9.11137
▁validation	-9.11169
▁pressed	-9.11224
▁config	-9.11238
▁4	-9.11306
ta	-9.11412
▁longer	-9.11428
▁adding	-9.11568
▁derived	-9.11589
▁shown	-9.11609
▁equals	-9.1165
▁bound	-9.11885
ence	-9.1223
▁shape	-9.12349
▁controller	-9.12467
▁Save	-9.12499
▁xml	-9.12567
▁include	-9.12648
ized	-9.12813
▁//	-9.12891
▁provide	-9.13094
▁operator	-9.13389
▁url	-9.13854
ne	-9.13903
▁side	-9.13958
ut	-9.14052
▁category	-9.14163
▁Convert	-9.14179
▁real	-9.14291
ist	-9.14321
▁Invoked	-9.14326
▁program	-9.14435
▁receive	-9.1454
▁less	-9.14607
min	-9.14658
▁Resets	-9.14681
ms	-9.14963
▁Deletes	-9.15084
▁encoding	-9.15134
▁No	-9.15221
▁product	-9.153
▁Prints	-9.15336
▁annotation	-9.15343
ick	-9.15351
De	-9.15372
▁U	-9.1553
list	-9.15557
".	-9.15635
▁tr	-9.15636
ization	-9.15903
▁Component	-9.15909
▁sample	-9.15971
▁1.	-9.16002
Command	-9.16076
▁segment	-9.16107
▁track	-9.16142
▁me	-9.16152
▁operations	-9.16206
▁border	-9.16215
▁overridden	-9.16226
▁net	-9.1665
▁You	-9.16923
▁day	-9.16947
▁sends	-9.16969
▁region	-9.1697
ical	-9.16972
ay	-9.17143
▁configured	-9.17151
Source	-9.17176
▁additional	-9.17418
▁pass	-9.17716
▁paint	-9.17733
▁Determine	-9.17847
▁Changes	-9.18029
mp	-9.18197
Connection	-9.18211
co	-9.18287
▁initialize	-9.18388
▁invalid	-9.18389
▁might	-9.18432
▁Text	-9.18545
▁Y	-9.1859
▁Property	-9.1866
▁relation	-9.18667
Tree	-9.1876
▁period	-9.18779
util	-9.18801
▁Do	-9.18915
ten	-9.18991
tor	-9.19063
▁negative	-9.1908
Code	-9.19176
▁turn	-9.19265
▁locale	-9.19328
▁actually	-9.19652
all	-9.19774
▁equivalent	-9.1985
▁Notifies	-9.20127
for	-9.20201
();	-9.20239
▁term	-9.20381
▁pair	-9.20473
▁simply	-9.20622
port	-9.20657
▁co	-9.20733
ug	-9.20817
▁word	-9.20917
▁lines	-9.20919
▁provider	-9.21058
▁Starts	-9.21153
▁Not	-9.21277
▁Closes	-9.21295
▁needs	-9.21346
▁least	-9.21404
▁exit	-9.21468
▁Constructs	-9.21507
▁NOT	-9.21571
▁references	-9.21572
▁jButton	-9.21669
▁K	-9.21704
▁Performs	-9.2171
▁generate	-9.21856
00	-9.21897
▁Calculates	-9.21904
file	-9.22115
▁tile	-9.2224
▁deleted	-9.22393
▁repository	-9.22404
[]	-9.22411
quot	-9.22482
▁l	-9.22692
▁global	-9.22721
▁HTTP	-9.2282
▁Value	-9.22841
▁represent	-9.2335
ma	-9.23512
ct	-9.23556
client	-9.23676
▁cause	-9.23754
▁forward	-9.23758
▁scale	-9.2379
▁against	-9.2398
▁constraint	-9.24111
▁servlet	-9.24123
▁Helper	-9.24236
▁clone	-9.24376
▁Make	-9.24478
▁ensure	-9.24536
▁role	-9.24741
▁DOM	-9.24838
▁reason	-9.24928
▁retrieve	-9.24953
▁debugging	-9.24993
▁binding	-9.25068
con	-9.25104
▁scroll	-9.25247
▁creation	-9.25285
▁ex	-9.25287
▁Fire	-9.25458
▁never	-9.25501
▁protocol	-9.25537
▁convenience	-9.25675
▁Generates	-9.25792
▁Calls	-9.25834
▁char	-9.25943
▁web	-9.26029
▁greater	-9.2631
pa	-9.26402
▁Saves	-9.26825
Error	-9.26858
▁connected	-9.26985
Number	-9.26991
▁including	-9.27122
▁starts	-9.27197
xml	-9.27215
ti	-9.27231
▁describing	-9.27385
▁k	-9.27554
Query	-9.2766
▁whos	-9.27817
▁known	-9.27832
LE	-9.28106
▁activity	-9.28252
▁certain	-9.28351
ud	-9.28358
ping	-9.28411
▁declaration	-9.2872
row	-9.28769
▁Close	-9.28811
▁well	-9.28823
Pane	-9.28884
Resource	-9.28983
▁started	-9.29006
▁series	-9.29398
▁meta	-9.29481
class	-9.29524
▁metadata	-9.29543
▁driver	-9.29564
▁none	-9.29619
▁Parses	-9.29737
ative	-9.29912
▁filename	-9.3
▁indicating	-9.30074
▁buttons	-9.30092
▁applied	-9.30278
Entry	-9.30322
ill	-9.30396
▁Should	-9.30415
Point	-9.30423
q	-9.30552
("	-9.30651
By	-9.30684
▁note	-9.30686
▁many	-9.30702
▁look	-9.30732
▁Field	-9.30745
▁assigned	-9.30856
▁handling	-9.30935
▁min	-9.30936
▁pane	-9.30947
Form	-9.30951
▁loop	-9.30971
▁fill	-9.30983
▁wait	-9.30998
av	-9.31013
▁nested	-9.31411
OR	-9.3142
▁environment	-9.31446
▁Clear	-9.31508
Con	-9.31555
Attribute	-9.31721
▁Image	-9.31825
▁subclass	-9.31953
▁overload	-9.3207
▁initialization	-9.3216
Impl	-9.32178
▁center	-9.32314
▁toString	-9.32334
▁parsing	-9.32383
▁occurs	-9.32675
▁absolute	-9.32679
▁Item	-9.3294
▁try	-9.33088
▁bundle	-9.33188
Image	-9.3347
▁card	-9.33585
▁connect	-9.33769
▁vertex	-9.33893
▁still	-9.34007
▁passes	-9.34031
▁enable	-9.34185
▁fixture	-9.34319
▁factor	-9.34379
sh	-9.3464
All	-9.34726
▁Document	-9.34759
Format	-9.34838
▁take	-9.34927
20	-9.34928
▁Change	-9.34951
▁now	-9.34967
Obj	-9.35019
Part	-9.35045
ling	-9.35054
▁multi	-9.35135
▁immediately	-9.35227
▁lower	-9.35241
▁Id	-9.35353
▁Run	-9.35435
Graph	-9.35452
▁rendering	-9.35452
▁spec	-9.35557
▁popup	-9.3558
▁drawing	-9.35697
▁validate	-9.35703
act	-9.3571
▁debug	-9.3588
▁Executes	-9.36087
unc	-9.36232
map	-9.36447
▁else	-9.36448
SE	-9.36467
▁init	-9.36616
Line	-9.36817
▁callback	-9.36917
use	-9.36957
Row	-9.37005
ual	-9.37127
▁Constructor	-9.37324
ack	-9.37422
▁Open	-9.37466
▁know	-9.37608
▁transition	-9.37611
▁Attribute	-9.37622
▁rules	-9.37686
▁Inserts	-9.37703
ure	-9.37765
▁dis	-9.37805
▁warning	-9.37901
▁Shows	-9.37949
▁static	-9.37984
IT	-9.38087
▁Finds	-9.38132
Page	-9.38162
▁float	-9.38176
▁proxy	-9.38233
▁Display	-9.38306
▁render	-9.38323
▁parsed	-9.38358
point	-9.38366
iz	-9.38523
▁preferred	-9.3853
▁begin	-9.38558
▁There	-9.38559
▁Reset	-9.38591
▁Vector	-9.38676
▁individual	-9.38714
serv	-9.38737
ia	-9.38839
▁weight	-9.38843
▁errors	-9.3897
▁timeout	-9.38983
▁disabled	-9.39155
▁free	-9.39201
▁entire	-9.39273
▁considered	-9.39322
▁details	-9.39344
ty	-9.39484
▁testing	-9.39595
specific	-9.39622
▁NOTE	-9.39666
ca	-9.39767
bit	-9.39802
▁Handle	-9.39842
▁cluster	-9.3991
ound	-9.39926
Test	-9.39944
▁indicates	-9.40265
▁depending	-9.40267
▁storage	-9.404
▁Show	-9.40506
▁owner	-9.40577
ast	-9.4058
▁engine	-9.40892
box	-9.40896
▁click	-9.40899
▁5	-9.40928
▁login	-9.4096
For	-9.40962
▁included	-9.41012
▁loading	-9.41021
Document	-9.41091
▁specifies	-9.41234
▁Pro	-9.41349
▁works	-9.41539
ak	-9.41569
so	-9.41619
▁correctly	-9.41717
▁pixels	-9.41813
ver	-9.41965
ep	-9.42009
▁notified	-9.42011
ine	-9.42017
Editor	-9.42045
▁pixel	-9.4207
▁import	-9.42168
▁takes	-9.42218
sum	-9.42228
▁Service	-9.42269
▁keep	-9.42403
▁invocation	-9.42461
▁...	-9.425
ding	-9.42592
▁View	-9.42602
▁subsequent	-9.42692
▁returning	-9.428
ide	-9.43016
▁Provide	-9.4302
Instance	-9.43036
▁Request	-9.43061
▁renderer	-9.43163
▁specification	-9.43218
▁cancel	-9.4332
▁monitor	-9.43429
▁help	-9.43494
hi	-9.43565
▁connections	-9.43629
▁times	-9.43675
▁persistent	-9.43759
▁visit	-9.43962
AT	-9.43987
▁units	-9.4401
Frame	-9.4408
▁whenever	-9.44109
▁records	-9.44138
▁Perform	-9.44178
10	-9.44222
▁Co	-9.44255
▁join	-9.4434
org	-9.44351
tri	-9.44411
▁Collection	-9.44424
▁year	-9.44431
text	-9.44481
▁month	-9.44486
▁System	-9.44514
pr	-9.44535
impl	-9.44648
▁Tree	-9.44651
DO	-9.44785
▁animation	-9.44802
Array	-9.44852
▁who	-9.44905
atch	-9.44984
▁attempt	-9.45034
ail	-9.45077
▁even	-9.45281
▁Connection	-9.45333
▁vertical	-9.454
▁positive	-9.45476
▁refresh	-9.4551
key	-9.45573
IC	-9.45669
Input	-9.45694
Reader	-9.45717
que	-9.45733
nt	-9.45736
▁comp	-9.45776
▁history	-9.45794
ru	-9.45951
ition	-9.45962
ice	-9.46128
res	-9.46214
▁Format	-9.46291
▁beginning	-9.46319
▁param	-9.46391
▁horizontal	-9.46468
▁Generate	-9.46581
ui	-9.466
▁DB	-9.46616
Server	-9.46845
▁priority	-9.46849
▁en	-9.46987
▁sole	-9.47079
▁finished	-9.47081
▁profile	-9.47133
▁At	-9.47189
▁Can	-9.47204
▁implements	-9.47356
Status	-9.47371
ix	-9.47437
▁construct	-9.47505
▁us	-9.47508
Content	-9.47581
▁iteration	-9.47607
NS	-9.47751
▁Parse	-9.47761
▁notifications	-9.4782
▁release	-9.48017
▁Register	-9.48059
Buffer	-9.48165
ens	-9.4819
▁append	-9.48214
▁checked	-9.48245
▁jPanel	-9.48254
pos	-9.4844
ize	-9.48495
ib	-9.4855
▁Execute	-9.48692
cur	-9.48748
://	-9.48794
view	-9.48916
▁counter	-9.48948
ab	-9.49109
▁avoid	-9.49155
▁dataset	-9.4918
|	-9.4922
▁something	-9.49282
der	-9.49298
Filter	-9.49386
01	-9.49412
ear	-9.49522
ject	-9.49726
▁email	-9.49916
ase	-9.49956
▁timer	-9.49961
▁drawn	-9.50049
default	-9.50177
▁association	-9.50238
▁indicate	-9.50264
▁trace	-9.5029
▁convert	-9.50309
ON	-9.50419
▁ResultSet	-9.50532
▁person	-9.50613
▁0.	-9.50673
▁bits	-9.50752
▁abstract	-9.50779
net	-9.50808
▁primitive	-9.50821
▁Makes	-9.50975
▁inserted	-9.50986
mm	-9.5105
ness	-9.5105
▁score	-9.5109
▁==	-9.51102
create	-9.51143
ped	-9.51254
Color	-9.51644
▁subject	-9.51661
Writer	-9.51695
▁http	-9.51696
▁_	-9.51773
▁completed	-9.51795
▁contact	-9.51922
▁designated	-9.51968
▁After	-9.52049
gif	-9.52241
Tag	-9.5228
▁switch	-9.52394
▁st	-9.52441
▁Time	-9.52466
▁transfer	-9.52478
▁Z	-9.52487
▁chart	-9.52583
▁OK	-9.52676
read	-9.52704
Column	-9.5274
Config	-9.52742
▁Abstract	-9.5283
▁invoke	-9.52838
▁API	-9.52895
▁corresponds	-9.53013
▁replaced	-9.53166
▁later	-9.53265
▁Will	-9.53312
action	-9.53342
▁upper	-9.53408
▁Implements	-9.53456
▁Any	-9.53466
Mode	-9.53565
ates	-9.53707
▁browser	-9.53713
▁getting	-9.53752
this	-9.53875
▁occur	-9.53963
▁Sub	-9.54075
▁se	-9.54091
▁pointer	-9.54161
▁angle	-9.54235
▁export	-9.54508
▁determines	-9.5452
▁visitor	-9.54541
Exp	-9.54554
our	-9.54605
▁processed	-9.54626
▁converted	-9.54695
▁Graph	-9.54811
▁writer	-9.54937
▁Resource	-9.55005
go	-9.55117
▁media	-9.5512
ub	-9.55122
ChangeEvent	-9.5527
Z	-9.553
")	-9.55308
▁supports	-9.55371
▁accept	-9.55393
▁controls	-9.55394
▁go	-9.55399
▁Key	-9.55411
SS	-9.55473
▁Number	-9.55494
▁seconds	-9.55545
▁reading	-9.5562
▁common	-9.55847
press	-9.55925
▁private	-9.55935
▁di	-9.56225
▁mark	-9.56253
Method	-9.56341
▁marked	-9.5635
▁rendered	-9.5636
▁Form	-9.56423
▁signature	-9.56427
val	-9.56443
smartgwt	-9.56513
▁whole	-9.56598
▁clause	-9.56602
▁wrapped	-9.56606
▁users	-9.5663
▁Each	-9.56632
▁peer	-9.56831
Header	-9.56908
ff	-9.56912
="	-9.5694
▁milliseconds	-9.57095
▁duration	-9.57317
ile	-9.57329
▁compute	-9.57434
AS	-9.57461
Box	-9.57505
izer	-9.57577
di	-9.57658
mi	-9.57668
▁constraints	-9.57671
▁purpose	-9.57698
▁purposes	-9.57739
▁wizard	-9.57763
▁Pre	-9.57898
▁makes	-9.5791
AC	-9.58178
ha	-9.58223
Record	-9.58224
▁trigger	-9.58251
▁author	-9.58294
▁modify	-9.58306
▁signal	-9.58403
▁IN	-9.58436
▁drop	-9.58659
▁preference	-9.59064
part	-9.59103
▁download	-9.5915
na	-9.59185
▁words	-9.59198
▁affect	-9.5939
lat	-9.59419
▁final	-9.5942
▁formatted	-9.59513
▁tags	-9.59517
▁Table	-9.59577
▁tip	-9.59659
▁chain	-9.5967
nbsp	-9.59714
▁Displays	-9.59737
ENT	-9.59849
▁dimension	-9.59857
user	-9.59861
▁simulation	-9.59898
▁z	-9.59927
▁Exp	-9.59981
yClassCode	-9.60036
Label	-9.60088
▁specify	-9.60126
▁attached	-9.60174
▁constructB	-9.60241
▁again	-9.60241
▁responsible	-9.60312
▁requests	-9.60386
▁logging	-9.60405
true	-9.6042
ring	-9.60443
ee	-9.60511
▁ch	-9.60529
AN	-9.6053
man	-9.60586
▁delegate	-9.60621
▁Also	-9.60728
▁origin	-9.60764
▁threads	-9.60791
▁basic	-9.60924
▁rate	-9.60972
pl	-9.60989
ner	-9.60993
ach	-9.61005
▁exp	-9.61015
mit	-9.61066
▁increment	-9.61105
DI	-9.61106
Store	-9.61115
lu	-9.61164
1.	-9.61232
▁modification	-9.6124
▁Build	-9.61253
▁upon	-9.61299
▁Draws	-9.61306
▁general	-9.61335
cc	-9.6135
app	-9.61363
qui	-9.6145
▁issue	-9.6146
▁policy	-9.61517
ability	-9.61526
▁sum	-9.61594
Un	-9.61619
▁notify	-9.61656
▁restore	-9.61854
11	-9.61991
gram	-9.62154
Definition	-9.62173
Whether	-9.6222
▁fail	-9.6226
▁comparison	-9.62267
va	-9.62277
ient	-9.62298
▁retrieved	-9.62376
▁Builds	-9.62444
▁atom	-9.62452
▁checking	-9.62525
Session	-9.6258
▁6	-9.6267
Menu	-9.62772
▁Registers	-9.62819
ron	-9.62825
▁reader	-9.62831
▁jTextField	-9.63006
▁my	-9.6307
▁Render	-9.63081
plain	-9.63108
▁obtain	-9.63173
reach	-9.63259
▁Integer	-9.63328
ever	-9.63491
▁clean	-9.63523
▁taken	-9.63681
▁replace	-9.63709
Expression	-9.6373
▁Fill	-9.63735
On	-9.63766
2.	-9.63778
Pro	-9.63901
space	-9.63931
Search	-9.63971
pre	-9.64067
Style	-9.64068
▁force	-9.64072
▁Accessor	-9.64148
▁preferences	-9.64201
▁speed	-9.64261
amp	-9.64288
▁hierarchy	-9.64405
▁Moves	-9.64516
Descriptor	-9.64549
▁failure	-9.64654
▁superclass	-9.64678
vert	-9.64717
▁texture	-9.64901
▁timestamp	-9.65031
Parameter	-9.65038
▁Stop	-9.65117
ign	-9.65125
▁commit	-9.6518
▁working	-9.65231
ther	-9.65485
ven	-9.65523
mb	-9.65527
od	-9.6561
▁endpoint	-9.65633
CE	-9.65761
▁fixed	-9.65794
TO	-9.65901
▁--	-9.65945
ible	-9.65956
▁Tells	-9.66082
▁Error	-9.66292
▁Stores	-9.66303
▁distribution	-9.66393
her	-9.66411
tra	-9.66434
▁caller	-9.66495
▁canvas	-9.66544
ang	-9.66579
optional	-9.66662
cr	-9.66696
▁direct	-9.66697
▁Stops	-9.66734
▁bottom	-9.6674
pi	-9.66879
ob	-9.66907
▁Simple	-9.67046
he	-9.67178
▁Has	-9.6718
▁around	-9.67184
equals	-9.67236
▁onto	-9.67431
▁fire	-9.67491
▁generator	-9.67526
LO	-9.67602
▁Example	-9.67839
▁plot	-9.6787
▁As	-9.67942
only	-9.67969
▁sending	-9.68022
▁Q	-9.68054
▁Select	-9.68087
▁unless	-9.68155
▁AST	-9.68244
▁Throws	-9.68282
▁security	-9.68328
▁apply	-9.68367
▁cells	-9.68448
▁tasks	-9.68476
Stream	-9.68502
▁lookup	-9.68602
▁disk	-9.68742
▁kind	-9.68823
URL	-9.68852
Layout	-9.68977
▁Computes	-9.69012
TE	-9.69028
CA	-9.6907
▁wrapper	-9.69182
▁Describe	-9.69229
▁Query	-9.69261
TextField	-9.69267
core	-9.69322
Address	-9.69384
▁sp	-9.69396
ME	-9.69414
▁incoming	-9.69482
▁native	-9.69522
Controller	-9.69591
▁JDBC	-9.69739
▁Visits	-9.69803
▁setup	-9.69872
▁Ensure	-9.69906
Provider	-9.69909
▁platform	-9.69933
▁Access	-9.69966
▁Implementation	-9.6998
▁customer	-9.69987
▁helper	-9.70051
be	-9.7008
ow	-9.70107
▁belongs	-9.70185
▁figure	-9.70238
▁identified	-9.7034
▁transformation	-9.70384
▁extract	-9.70387
Reference	-9.70466
▁mapped	-9.70506
ML	-9.70527
▁su	-9.70689
ian	-9.70801
▁conversion	-9.70806
group	-9.70814
ake	-9.70945
▁So	-9.70948
▁Function	-9.70995
Dir	-9.71097
▁Obtain	-9.71107
▁round	-9.71134
rc	-9.71193
▁editing	-9.7123
▁successfully	-9.71336
▁edges	-9.71352
▁Model	-9.71428
From	-9.71705
over	-9.71897
UI	-9.71929
Changed	-9.7198
ification	-9.7204
Control	-9.72162
▁encoded	-9.72266
Range	-9.72274
▁along	-9.72379
▁fully	-9.7238
▁Task	-9.72393
Tool	-9.724
▁managed	-9.72438
▁alias	-9.72531
▁board	-9.72543
▁depth	-9.72555
lic	-9.72568
Entity	-9.72622
▁properly	-9.72629
▁Thread	-9.72637
gg	-9.72674
▁Record	-9.72686
▁resulting	-9.72827
Collection	-9.72909
red	-9.72978
▁referenced	-9.72985
Bar	-9.7308
str	-9.73085
▁Ensures	-9.73158
table	-9.73169
▁hold	-9.73237
▁topic	-9.73276
▁alignment	-9.73287
by	-9.73331
Update	-9.73491
▁entities	-9.73497
▁binary	-9.73555
test	-9.73623
ash	-9.73635
▁fragment	-9.7376
▁indices	-9.73761
▁framework	-9.73783
ning	-9.73852
level	-9.73863
▁composite	-9.73866
doc	-9.73874
Selection	-9.73886
Base	-9.73889
▁loader	-9.73895
▁mail	-9.73934
start	-9.73961
▁shared	-9.74067
▁piece	-9.7413
rt	-9.74187
Properties	-9.74187
▁produce	-9.74194
new	-9.7433
ous	-9.7436
ST	-9.74364
widgets	-9.74366
ise	-9.74371
▁above	-9.74395
▁Transform	-9.74404
▁Internal	-9.74483
Window	-9.745
▁answer	-9.74502
▁Search	-9.74522
{	-9.74558
\	-9.74571
▁Store	-9.74601
▁Specifies	-9.74608
▁separator	-9.74632
▁undo	-9.74633
▁Window	-9.74822
▁sorted	-9.74847
Client	-9.74897
▁builder	-9.74904
ld	-9.7502
▁authentication	-9.75087
▁split	-9.75251
▁phase	-9.75302
Out	-9.75313
▁determined	-9.75393
ireNotifyChanged	-9.75408
▁drag	-9.75409
▁sign	-9.75447
Helper	-9.75449
▁graphics	-9.75567
-1	-9.75725
ifier	-9.75802
uch	-9.75887
▁provides	-9.75898
▁flow	-9.75986
▁username	-9.76087
▁library	-9.76108
▁machine	-9.76153
▁IP	-9.76154
▁enumeration	-9.76162
oc	-9.76186
▁Init	-9.76303
▁Opens	-9.76378
▁combo	-9.76504
▁rather	-9.76541
▁op	-9.76684
▁marker	-9.76714
▁commands	-9.76781
cap	-9.76795
▁constants	-9.76799
ify	-9.77065
▁Callback	-9.77066
ph	-9.7712
▁handled	-9.77186
▁rotation	-9.77303
▁regular	-9.77412
▁Given	-9.77446
rm	-9.77627
▁appear	-9.77679
Start	-9.77824
▁Calculate	-9.77844
▁Notify	-9.77861
▁Assign	-9.77912
▁except	-9.77919
>	-9.77923
At	-9.77972
updateChildren	-9.77983
▁question	-9.78125
fi	-9.78164
IF	-9.78171
▁ob	-9.78272
▁concept	-9.78299
▁8	-9.78438
▁hand	-9.78604
▁removing	-9.78678
▁includes	-9.78708
position	-9.78722
Case	-9.7875
▁extra	-9.7884
ING	-9.78862
▁Compare	-9.78921
▁desired	-9.78955
▁enter	-9.79068
▁logger	-9.79094
▁writing	-9.79233
▁zoom	-9.79289
▁slot	-9.79345
bo	-9.79347
▁opened	-9.79388
OP	-9.79407
▁Replaces	-9.7949
▁exceptions	-9.7955
open	-9.79568
▁Server	-9.79579
ular	-9.79613
▁behaviour	-9.7968
▁tick	-9.79758
▁Application	-9.79762
bar	-9.798
▁registry	-9.79865
▁predicate	-9.79904
▁having	-9.79904
▁functionality	-9.7996
Link	-9.79971
mon	-9.80005
▁translation	-9.8002
▁compare	-9.80049
ities	-9.80082
pose	-9.80206
sql	-9.80313
▁ready	-9.80464
▁th	-9.80905
▁square	-9.81088
process	-9.81111
ado	-9.81121
Sub	-9.81124
▁images	-9.81135
▁repeat	-9.81149
▁labels	-9.81184
▁These	-9.81221
▁Sort	-9.81312
▁site	-9.81351
▁En	-9.8138
light	-9.81482
▁clicked	-9.81504
%	-9.81578
Edit	-9.81613
▁raw	-9.81825
▁fails	-9.81833
▁built	-9.81886
tic	-9.81919
EN	-9.81948
▁Control	-9.81967
▁JUnit	-9.81997
▁stores	-9.81997
▁waiting	-9.82131
▁inner	-9.82178
Add	-9.82182
▁Draw	-9.82228
▁hit	-9.82239
Ex	-9.8233
au	-9.82369
Util	-9.82519
▁fetch	-9.82642
▁Move	-9.82652
tu	-9.82659
run	-9.82661
▁headers	-9.82665
▁temporary	-9.8269
▁assign	-9.82773
▁processor	-9.82784
▁calculated	-9.82802
▁world	-9.82805
remove	-9.82839
▁logic	-9.82936
Unit	-9.82944
▁EntityManager	-9.82954
▁members	-9.82969
▁problem	-9.82971
ful	-9.83012
▁Enables	-9.83024
Max	-9.8307
Description	-9.83078
fe	-9.83098
Mapping	-9.83104
▁app	-9.83112
))	-9.83127
▁Validates	-9.83206
▁permission	-9.83307
▁flush	-9.83326
IS	-9.83352
Token	-9.83382
izing	-9.83429
▁outside	-9.83477
▁requires	-9.8354
▁visual	-9.83547
select	-9.8358
fer	-9.83615
▁numeric	-9.83626
▁End	-9.83629
Log	-9.83644
▁camera	-9.83675
▁chunk	-9.83675
▁declared	-9.83675
▁play	-9.83688
▁calendar	-9.8374
▁strings	-9.838
▁Output	-9.83908
MS	-9.8409
EC	-9.84109
Char	-9.84186
▁failed	-9.84195
▁syntax	-9.84258
Doc	-9.84288
pro	-9.84294
Cell	-9.84322
AP	-9.84368
▁isn	-9.84385
▁fact	-9.84412
ier	-9.84419
▁Work	-9.84432
▁Copies	-9.84434
▁Session	-9.84572
▁anything	-9.84612
▁Entity	-9.84658
▁addition	-9.84698
▁persistence	-9.84743
▁runtime	-9.84797
Parser	-9.84814
▁identity	-9.84834
sf	-9.84854
1,	-9.84956
▁complex	-9.85023
▁keyword	-9.85356
order	-9.85356
Def	-9.85482
▁Color	-9.85709
▁room	-9.85734
US	-9.8574
gen	-9.85775
Container	-9.85808
▁scan	-9.85833
▁internally	-9.85887
▁Extract	-9.85896
▁prior	-9.86011
▁robot	-9.86031
▁sound	-9.86077
▁1.0	-9.86252
▁Group	-9.86283
we	-9.86314
▁dictionary	-9.86329
▁delay	-9.8633
▁occurrence	-9.86449
ave	-9.86492
▁route	-9.86536
▁Project	-9.86559
▁duplicate	-9.86809
▁plug	-9.86845
(),	-9.86849
▁logged	-9.86931
ency	-9.86943
▁javax	-9.86987
▁fired	-9.87058
▁audio	-9.87111
▁Parameter	-9.87126
▁writes	-9.87195
▁Utility	-9.87291
▁Allows	-9.8733
2)	-9.87423
▁copied	-9.87533
CH	-9.87565
▁Some	-9.87617
db	-9.87633
▁edited	-9.87663
En	-9.87713
▁Setting	-9.87724
▁closing	-9.87775
sub	-9.87912
▁?	-9.87919
▁certificate	-9.88018
▁explicitly	-9.88023
▁var	-9.88045
Length	-9.88079
▁relationship	-9.88084
▁inform	-9.88121
▁choice	-9.8814
Queue	-9.882
▁convention	-9.88322
ified	-9.88415
▁literal	-9.88444
▁best	-9.88496
0,	-9.8854
▁Answer	-9.88541
▁Compute	-9.88646
▁trans	-9.88726
▁Invoke	-9.88785
ock	-9.88847
▁successful	-9.8885
▁Web	-9.88855
▁criteria	-9.88934
TR	-9.89106
▁moved	-9.89107
Cache	-9.89132
path	-9.89137
ok	-9.8924
off	-9.89261
▁res	-9.89278
index	-9.89295
▁Release	-9.89426
▁Copy	-9.89438
▁zone	-9.89449
▁links	-9.89472
back	-9.8962
XML	-9.89643
Dialog	-9.89671
▁selector	-9.89675
Param	-9.89676
▁feed	-9.898
struct	-9.89818
EX	-9.89869
den	-9.89881
CL	-9.89887
▁generation	-9.89924
▁Since	-9.89983
Bound	-9.90027
▁ME	-9.9016
▁visibility	-9.90231
mark	-9.90313
Default	-9.90352
0)	-9.90353
▁Valid	-9.90394
▁proper	-9.90412
less	-9.90451
▁exactly	-9.90536
▁fit	-9.90579
▁inter	-9.90587
▁procedure	-9.9073
▁Verifie	-9.9073
▁Inter	-9.90742
▁PM	-9.90756
19	-9.90809
Task	-9.90925
IP	-9.90942
Builder	-9.91043
▁Filter	-9.91072
Area	-9.91111
html	-9.91119
field	-9.91127
base	-9.91162
▁head	-9.91168
▁def	-9.91189
▁generic	-9.91202
▁Overrides	-9.91216
▁html	-9.91218
ight	-9.91385
ni	-9.91477
▁la	-9.91478
▁design	-9.91557
Comp	-9.9158
▁performs	-9.916
▁tell	-9.9161
▁quote	-9.91619
▁gra	-9.91749
ically	-9.91753
▁statements	-9.91878
System	-9.91878
▁separate	-9.91928
Down	-9.91929
▁SWT	-9.91988
▁refer	-9.92008
▁Construct	-9.92332
duc	-9.92339
comp	-9.92366
CON	-9.92367
▁Client	-9.92418
▁he	-9.92428
▁le	-9.92497
▁Selects	-9.92681
▁intended	-9.92686
▁cast	-9.92865
ration	-9.92883
▁On	-9.92899
▁sheet	-9.92984
▁Input	-9.9299
▁usage	-9.93024
▁However	-9.932
12	-9.93323
size	-9.9334
▁remain	-9.93387
▁difference	-9.93517
▁Index	-9.93524
Access	-9.93545
RA	-9.93554
▁calculation	-9.93582
▁define	-9.93586
▁mappings	-9.93599
LA	-9.93664
Process	-9.93684
write	-9.93728
▁Uses	-9.93731
▁Applies	-9.93777
ao	-9.93801
BO	-9.93853
▁future	-9.93904
▁modifier	-9.93907
▁bounding	-9.9397
▁blocks	-9.93986
qu	-9.94062
▁mechanism	-9.94097
▁9	-9.94099
▁db	-9.94113
▁constructed	-9.94219
▁Ex	-9.9422
CP	-9.9426
▁cookie	-9.94421
▁Attempt	-9.94486
bi	-9.94506
▁qualified	-9.94556
update	-9.9461
▁able	-9.94637
lock	-9.94656
▁shutdown	-9.94683
▁high	-9.94775
ement	-9.94793
▁groups	-9.94847
▁Content	-9.94852
cal	-9.94876
▁entered	-9.94877
▁observer	-9.9488
ger	-9.94909
check	-9.94921
▁statistics	-9.94973
▁performance	-9.94973
which	-9.94991
▁console	-9.95006
▁Bean	-9.95148
ea	-9.9522
▁scene	-9.95333
▁cl	-9.95378
▁happens	-9.9545
Location	-9.95656
pon	-9.95776
OM	-9.95838
▁Give	-9.95871
==	-9.96022
▁num	-9.96084
16	-9.96182
Member	-9.96187
▁alpha	-9.96253
Spec	-9.96283
▁Point	-9.96307
Order	-9.96327
▁Command	-9.96352
▁further	-9.96385
▁prevent	-9.96385
▁Tra	-9.96684
Co	-9.96727
▁home	-9.9685
▁arg	-9.96852
da	-9.96975
▁plan	-9.97031
Level	-9.97126
▁Configure	-9.97187
TH	-9.97532
▁assumed	-9.97616
▁below	-9.97925
Extension	-9.97985
▁Link	-9.9804
▁good	-9.98062
▁average	-9.98119
▁Base	-9.98126
▁coll	-9.98158
ry	-9.98164
▁described	-9.9825
ES	-9.98284
▁Processes	-9.9833
ute	-9.98347
▁Line	-9.98382
TYPE	-9.98388
Next	-9.98445
▁identical	-9.98458
▁Post	-9.98463
che	-9.98497
▁clients	-9.98507
▁applet	-9.98606
▁very	-9.98661
mer	-9.98692
Change	-9.98839
▁comments	-9.98873
▁displays	-9.98895
day	-9.98965
old	-9.99022
ft	-9.99094
▁Exception	-9.99095
▁void	-9.991
▁batch	-9.99199
Channel	-9.99201
▁str	-9.99242
▁suitable	-9.99269
▁changing	-9.99337
▁finish	-9.99354
▁dimensions	-9.99359
;&	-9.99372
▁pages	-9.99456
▁doc	-9.99474
▁choose	-9.99494
Thread	-9.99577
▁cont	-9.99641
▁moves	-9.99675
Child	-9.99679
▁State	-9.99751
trans	-9.99842
CS	-9.99886
CO	-9.99911
▁formula	-9.99952
▁mean	-9.99954
Configuration	-10.0006
▁That	-10.0011
▁activated	-10.0012
▁reached	-10.0016
Pre	-10.002
▁geometry	-10.0023
▁Null	-10.0027
▁usually	-10.0027
book	-10.0028
▁classpath	-10.0028
▁lo	-10.0032
IM	-10.0033
▁Trans	-10.0036
30	-10.0038
▁appended	-10.0042
As	-10.0042
▁Cancel	-10.0043
▁defines	-10.0055
▁leaf	-10.0057
▁leave	-10.0058
Attributes	-10.0062
^	-10.0064
▁normally	-10.0067
▁typically	-10.0073
▁break	-10.0078
event	-10.0093
Gen	-10.0097
▁three	-10.0099
▁whitespace	-10.0099
TA	-10.0106
NO	-10.0118
graph	-10.0123
▁]	-10.0126
▁corner	-10.0126
▁really	-10.0131
▁safe	-10.0137
DL	-10.0142
DAO	-10.0148
node	-10.0153
▁separated	-10.017
▁Foreign	-10.0175
▁archive	-10.0175
▁toolbar	-10.0177
▁dispatch	-10.0185
End	-10.0185
Loader	-10.0187
▁calculate	-10.0189
uc	-10.0193
Position	-10.021
▁virtual	-10.021
▁showing	-10.0213
jo	-10.0215
▁repaint	-10.0217
▁deal	-10.0226
▁extend	-10.0229
▁deep	-10.023
▁u	-10.0231
Permission	-10.0243
work	-10.0249
Output	-10.0251
▁startup	-10.0253
▁0,	-10.0266
▁activation	-10.0266
▁construction	-10.0267
▁Page	-10.0271
method	-10.028
▁Edit	-10.0284
▁due	-10.0285
▁hidden	-10.0287
MP	-10.0289
▁chat	-10.029
▁Factory	-10.029
rain	-10.0291
▁ordered	-10.0294
▁happen	-10.0295
Vector	-10.0302
▁evaluate	-10.031
▁Main	-10.0313
are	-10.0315
▁Receive	-10.0316
▁documentation	-10.0316
reg	-10.0322
▁capacity	-10.0323
▁tokens	-10.0324
Auth	-10.0331
▁terms	-10.0337
▁Runs	-10.0352
tain	-10.0361
▁indicator	-10.0365
▁immutable	-10.0372
▁completion	-10.0379
Matrix	-10.0386
ref	-10.0391
▁closes	-10.0391
▁routine	-10.0408
▁Currently	-10.0412
▁anchor	-10.0422
swing	-10.0422
▁missing	-10.0429
▁cost	-10.043
Port	-10.0432
Version	-10.0438
▁human	-10.0444
▁True	-10.0444
▁cycle	-10.045
iate	-10.0453
▁expect	-10.0454
false	-10.046
▁accessor	-10.046
Target	-10.046
sensitive	-10.0465
▁Report	-10.0467
▁tables	-10.0469
▁Basic	-10.0471
active	-10.0481
getChildren	-10.0496
▁mask	-10.05
▁Axis	-10.0501
▁followed	-10.0501
▁Context	-10.0505
▁released	-10.051
▁detail	-10.0515
▁Comp	-10.0519
▁Part	-10.0525
like	-10.053
ware	-10.0542
Sequence	-10.0555
▁iff	-10.0567
▁give	-10.0568
▁obtained	-10.0573
par	-10.0578
Syn	-10.058
art	-10.0586
Wrapper	-10.0588
Card	-10.0593
FF	-10.0603
▁disable	-10.0604
▁rec	-10.0605
verse	-10.0605
ution	-10.0609
▁success	-10.0616
▁Array	-10.0618
▁Source	-10.0618
▁indicated	-10.0631
▁deduce	-10.0632
ough	-10.0634
▁InputStream	-10.0635
▁functions	-10.0636
DB	-10.0638
side	-10.064
▁highlight	-10.0641
SP	-10.0645
▁Code	-10.0647
▁Clean	-10.0654
▁pick	-10.0665
AD	-10.0666
count	-10.0666
element	-10.0668
▁New	-10.0675
▁portion	-10.0677
▁dynamic	-10.0686
cent	-10.0688
▁business	-10.069
length	-10.0695
▁foreground	-10.0698
Rule	-10.0703
▁comma	-10.0707
▁remaining	-10.0715
apache	-10.072
▁converts	-10.0721
▁increase	-10.0734
▁placed	-10.0735
Template	-10.074
auth	-10.074
▁SAX	-10.0749
▁Clone	-10.0757
▁Option	-10.0758
see	-10.0772
entity	-10.0776
▁Defines	-10.0781
▁Ch	-10.0781
▁Result	-10.0783
▁branch	-10.0786
dr	-10.0801
plication	-10.0804
▁light	-10.0806
▁Searches	-10.0821
Domain	-10.083
▁arbitrary	-10.0838
▁pending	-10.0841
▁span	-10.0852
▁assumes	-10.0874
char	-10.0877
▁jScrollPane	-10.0878
Block	-10.0882
SI	-10.0883
UR	-10.0885
▁listen	-10.0889
synchronous	-10.089
▁May	-10.0892
▁<	-10.0894
▁diagram	-10.0898
Device	-10.0898
generated	-10.0902
▁large	-10.0906
▁serial	-10.0918
▁applicable	-10.0921
▁logical	-10.0922
lob	-10.0922
02	-10.0931
▁relevant	-10.0936
Pool	-10.0937
▁inherited	-10.0939
down	-10.0943
ple	-10.0948
▁ontology	-10.0951
▁Term	-10.0956
▁Dis	-10.0962
▁clip	-10.0971
▁;	-10.0978
UN	-10.0981
▁install	-10.0981
Section	-10.0983
▁Tag	-10.0987
Space	-10.0989
▁Prepare	-10.0995
▁Must	-10.0996
▁displaying	-10.0997
▁flags	-10.0997
Engine	-10.1004
head	-10.1008
▁becomes	-10.101
ble	-10.1013
▁too	-10.1022
RO	-10.1023
▁depends	-10.1028
Width	-10.1034
▁ok	-10.1038
▁bug	-10.1043
init	-10.1045
No	-10.1047
New	-10.1048
▁operand	-10.1049
▁participant	-10.1057
Proxy	-10.1057
acao	-10.1059
▁7	-10.1067
▁computed	-10.1069
▁Verify	-10.1072
▁RE	-10.1075
▁parts	-10.1091
▁Player	-10.1093
Preference	-10.1093
▁recursively	-10.11
Lock	-10.1102
▁Graphics	-10.1115
▁experiment	-10.1127
▁passing	-10.1129
ax	-10.1135
finite	-10.1136
▁ref	-10.1152
03	-10.1154
▁invokes	-10.1156
▁fr	-10.1156
▁sensor	-10.1164
▁ask	-10.1168
▁percentage	-10.1172
▁identify	-10.1174
▁core	-10.1174
▁newly	-10.1179
tim	-10.1189
EM	-10.1196
▁Order	-10.1203
▁pairs	-10.1205
top	-10.1209
RI	-10.121
ade	-10.1211
▁Be	-10.1218
Operation	-10.122
Project	-10.123
▁jar	-10.1238
rit	-10.1239
▁clears	-10.1247
▁polygon	-10.1265
▁txt	-10.1269
Widget	-10.1273
▁Enable	-10.1277
▁require	-10.1278
▁shows	-10.1284
▁admin	-10.1297
MenuItem	-10.1305
▁diff	-10.1305
▁hashCode	-10.1305
from	-10.1307
where	-10.1324
▁resets	-10.1325
25	-10.1334
item	-10.1336
lation	-10.1336
▁adjust	-10.1339
sc	-10.1339
TER	-10.136
Int	-10.137
▁wrap	-10.1387
based	-10.1388
▁probability	-10.139
▁Iterator	-10.1391
strict	-10.1391
Day	-10.1394
with	-10.1395
AddCommand	-10.1396
▁iterate	-10.1397
script	-10.1401
▁Properties	-10.1413
▁cross	-10.1422
bl	-10.1422
▁plane	-10.1431
▁stopped	-10.1432
▁terminate	-10.1433
▁metric	-10.1435
my	-10.144
▁classifier	-10.144
▁services	-10.1441
Display	-10.145
meter	-10.1452
createCommand	-10.1458
▁conditions	-10.1466
▁had	-10.1467
▁ancestor	-10.1469
▁week	-10.1469
▁transport	-10.147
▁Calling	-10.1473
▁prints	-10.1474
▁vertices	-10.1477
ai	-10.1477
▁documents	-10.1482
RemoveCommand	-10.1493
Constants	-10.1494
▁16	-10.1499
Viewer	-10.15
▁physical	-10.1501
▁updating	-10.1501
▁threshold	-10.1509
▁linked	-10.1515
▁views	-10.1516
▁orientation	-10.1517
cat	-10.152
18	-10.1523
Identifier	-10.1525
▁tuple	-10.1525
▁book	-10.1527
▁navigation	-10.1533
▁hide	-10.1537
store	-10.1538
▁summary	-10.1549
▁Logs	-10.1553
▁Transaction	-10.1553
▁resolve	-10.1553
▁Put	-10.1555
▁Increment	-10.1556
▁become	-10.1559
▁pop	-10.1564
▁evaluation	-10.1573
▁front	-10.1573
▁reflect	-10.1573
▁continue	-10.1581
▁strategy	-10.1581
▁Custom	-10.1581
▁held	-10.1582
▁20	-10.1587
most	-10.1589
())	-10.1592
▁im	-10.1593
▁curve	-10.1597
ned	-10.1602
▁sh	-10.1609
▁Local	-10.1609
▁gui	-10.1612
MoveCommand	-10.1614
Byte	-10.1619
Iterator	-10.162
▁br	-10.1625
▁Cache	-10.1632
2,	-10.1632
▁interrupt	-10.1634
spec	-10.1634
▁filled	-10.1638
▁extended	-10.1645
OS	-10.1648
▁thus	-10.1649
▁car	-10.165
▁bo	-10.165
▁shall	-10.1663
Work	-10.1669
but	-10.1673
▁loads	-10.1675
▁catalog	-10.1678
▁causes	-10.1679
DA	-10.1689
Get	-10.1691
Or	-10.1693
▁explicit	-10.1702
air	-10.1705
▁several	-10.1718
▁everything	-10.1718
▁100	-10.1725
Icon	-10.1727
Account	-10.1727
▁numbers	-10.173
▁consist	-10.173
▁chosen	-10.1734
▁-->	-10.1741
▁Turn	-10.1749
▁directories	-10.175
▁building	-10.1752
Create	-10.1752
dd	-10.1756
▁Menu	-10.1759
Equal	-10.1759
The	-10.1772
case	-10.1777
▁Double	-10.1782
ose	-10.1791
64	-10.1797
▁Block	-10.1798
stream	-10.1801
▁Mark	-10.1809
▁el	-10.1809
▁overwrite	-10.1812
▁sprite	-10.1825
▁overwritten	-10.1825
▁applies	-10.1825
▁scheme	-10.1833
▁checkbox	-10.1833
▁printed	-10.1835
▁outline	-10.1841
▁holds	-10.1842
▁Connect	-10.1849
▁executing	-10.1849
▁editable	-10.1861
istic	-10.1861
PRO	-10.187
▁resolution	-10.1874
right	-10.1877
▁val	-10.1877
▁Boolean	-10.1906
▁launch	-10.1907
▁sync	-10.1913
▁Multi	-10.1914
▁encountered	-10.1915
▁Two	-10.1916
▁Dispose	-10.1916
Term	-10.192
▁blank	-10.1924
▁grammar	-10.1924
UT	-10.1927
▁hashtable	-10.1935
");	-10.194
▁reply	-10.1941
Click	-10.1941
number	-10.1952
▁care	-10.1956
▁unknown	-10.1959
Up	-10.1967
▁runs	-10.1979
▁meaning	-10.1983
And	-10.1994
▁Mutator	-10.1999
▁states	-10.201
wards	-10.2013
VALUE	-10.2024
SC	-10.2026
versa	-10.2026
Short	-10.2033
tree	-10.2038
▁OS	-10.2039
▁Database	-10.2046
api	-10.2049
▁Specify	-10.2049
▁team	-10.2049
cast	-10.205
▁won	-10.2052
▁consider	-10.2055
▁Pass	-10.2056
▁Frame	-10.2057
Tra	-10.2059
▁low	-10.2059
▁invoking	-10.2066
Bundle	-10.2075
▁accepted	-10.2077
▁slider	-10.2079
▁expanded	-10.2082
▁verify	-10.2083
vo	-10.209
date	-10.2092
MI	-10.21
14	-10.21
▁players	-10.21
▁filters	-10.2102
▁Configuration	-10.2103
▁reverse	-10.2108
Book	-10.2109
Disable	-10.2109
▁indexed	-10.2117
▁embedded	-10.2125
▁listening	-10.2133
▁various	-10.2134
55	-10.2139
▁Cell	-10.2142
▁Implement	-10.2145
isation	-10.2151
▁Translate	-10.2151
used	-10.2164
▁snapshot	-10.2168
▁rank	-10.2168
HO	-10.2183
▁video	-10.2185
▁schedule	-10.2186
▁letter	-10.2187
▁delegates	-10.2187
▁Game	-10.2198
▁located	-10.2201
▁assignment	-10.2206
TION	-10.2208
▁Gene	-10.221
17	-10.2217
50	-10.2219
▁reads	-10.2224
Off	-10.2227
range	-10.2228
Stack	-10.2229
lies	-10.2238
▁suffix	-10.2245
▁dec	-10.2247
▁glyph	-10.2253
▁saving	-10.2262
Statement	-10.2265
▁ordering	-10.2269
▁resolved	-10.2275
▁Statement	-10.2277
sign	-10.2285
▁persist	-10.2286
▁together	-10.2288
▁First	-10.2295
Url	-10.2297
Selected	-10.23
09	-10.2303
cept	-10.2308
PO	-10.2312
15	-10.2315
08	-10.232
▁surface	-10.2331
▁volume	-10.2331
Parent	-10.2332
▁Feature	-10.2334
cu	-10.2337
▁degrees	-10.2337
▁sql	-10.2346
az	-10.2352
IL	-10.2357
▁Pop	-10.236
▁power	-10.2366
▁allocated	-10.2366
ries	-10.2369
VER	-10.2372
Directory	-10.2374
▁redirect	-10.2375
▁serialization	-10.2378
▁Replace	-10.2381
▁queries	-10.2383
▁contract	-10.2384
tract	-10.2387
23	-10.2389
activ	-10.239
With	-10.2391
▁HSQLDB	-10.2392
▁Spring	-10.2392
▁btn	-10.2392
▁compareTo	-10.2396
▁sorting	-10.2398
▁tooltip	-10.2409
Back	-10.241
▁12	-10.241
▁worker	-10.2412
▁disconnect	-10.2417
ga	-10.242
▁upload	-10.2425
24	-10.2442
1)	-10.2448
Composite	-10.2453
tm	-10.2456
cover	-10.2457
Tab	-10.2463
Drop	-10.2464
ALL	-10.2465
Not	-10.2484
▁maps	-10.2499
ext	-10.2507
▁occurred	-10.2507
▁bind	-10.2508
cho	-10.2516
modified	-10.2523
▁Tries	-10.2524
object	-10.2526
lect	-10.2528
tro	-10.253
▁implementing	-10.2534
▁skip	-10.254
▁Container	-10.2547
▁Label	-10.2548
▁cleared	-10.2553
Profile	-10.2558
crypt	-10.2567
04	-10.2577
▁jContentPane	-10.2585
dic	-10.2592
▁revision	-10.2599
▁Wait	-10.2613
▁Unit	-10.2614
vista	-10.2621
OUT	-10.2628
objects	-10.2628
▁DOCUMENT	-10.2634
vol	-10.2637
▁neighbor	-10.2647
Check	-10.2648
Password	-10.2652
Last	-10.2661
▁comparator	-10.2665
▁gene	-10.2666
build	-10.2667
▁making	-10.2674
Trans	-10.268
▁frequency	-10.2692
▁XS	-10.2693
▁price	-10.2701
▁completely	-10.2706
▁colour	-10.2711
delete	-10.2713
▁ensures	-10.2716
▁going	-10.2716
Split	-10.2719
ard	-10.272
▁attachment	-10.273
▁validator	-10.274
try	-10.2741
MAX	-10.2749
▁dispose	-10.2754
▁matched	-10.2754
▁succeed	-10.2755
▁better	-10.2756
IO	-10.2757
change	-10.2757
▁submitted	-10.2765
commit	-10.277
DT	-10.2782
wi	-10.2784
▁Resolve	-10.2785
Interface	-10.2785
▁CSS	-10.2788
▁Then	-10.2788
▁serialized	-10.2793
service	-10.2797
▁Over	-10.2799
▁annotations	-10.28
ba	-10.28
▁textual	-10.2802
▁dependent	-10.2802
ber	-10.2802
▁dot	-10.2808
PL	-10.2809
Height	-10.281
▁reload	-10.2815
axis	-10.2817
▁far	-10.283
MA	-10.2835
search	-10.2837
▁DC	-10.2837
ChangeListener	-10.2839
▁red	-10.284
Constraint	-10.2846
▁solution	-10.2846
▁higher	-10.2849
▁Puts	-10.2854
▁shell	-10.2855
▁Apply	-10.2861
▁>	-10.2862
▁unchanged	-10.2864
Me	-10.2865
▁JS	-10.2873
▁Serialize	-10.2874
▁generates	-10.2876
bean	-10.2877
[0]	-10.2877
▁things	-10.2884
page	-10.2901
▁interest	-10.2912
ale	-10.2918
▁Address	-10.2918
Body	-10.2919
Values	-10.2925
06	-10.2927
▁Style	-10.2928
▁follows	-10.2943
▁Path	-10.2949
▁days	-10.295
system	-10.2951
Op	-10.2953
DF	-10.2954
▁$	-10.296
▁fires	-10.2962
bound	-10.2977
Integer	-10.2979
▁moving	-10.2983
▁200	-10.2984
ward	-10.2991
▁enough	-10.2994
properties	-10.2998
Feature	-10.2998
Parameters	-10.2998
▁permissions	-10.3006
▁combination	-10.3011
low	-10.3014
can	-10.3022
▁phone	-10.3024
▁disables	-10.303
ml	-10.303
▁Asserts	-10.3031
▁overrides	-10.3034
state	-10.3037
▁course	-10.3039
▁similar	-10.3046
▁Expression	-10.3049
▁cover	-10.305
▁push	-10.3058
serialize	-10.3058
selected	-10.3062
▁doing	-10.3063
boolean	-10.3064
▁Column	-10.3064
▁hook	-10.3076
▁cr	-10.3078
▁his	-10.3083
▁Validate	-10.3083
07	-10.3084
Adapter	-10.3085
▁OR	-10.3096
NAME	-10.3114
du	-10.3122
▁keyboard	-10.3123
voe	-10.3126
▁obj	-10.3137
Min	-10.3139
ident	-10.314
▁Just	-10.3142
▁DO	-10.3143
▁Once	-10.3154
Variable	-10.3158
▁stroke	-10.3161
direct	-10.3167
▁dependency	-10.317
▁reported	-10.317
▁encode	-10.3181
▁publish	-10.3195
prop	-10.3202
▁readable	-10.3203
▁replacement	-10.3204
▁11	-10.3205
Host	-10.3209
▁undefined	-10.3212
2]	-10.3212
▁Swing	-10.3217
})	-10.3223
▁Variable	-10.3229
Flag	-10.3229
rate	-10.3236
ATE	-10.3238
▁band	-10.3239
Annotation	-10.3246
▁populate	-10.3254
Policy	-10.3255
late	-10.3255
LI	-10.3262
▁Schema	-10.3265
AM	-10.3266
▁white	-10.3269
▁Grid	-10.3271
Complete	-10.3275
TS	-10.3276
ential	-10.328
▁executes	-10.3289
▁much	-10.329
Renderer	-10.3292
lin	-10.3294
----------------	-10.3298
Structure	-10.3303
Seq	-10.3308
▁clicks	-10.3313
▁handlers	-10.3314
13	-10.3315
connect	-10.3315
▁1,	-10.3316
Plan	-10.3316
▁expand	-10.3317
Login	-10.3327
Top	-10.3329
▁hint	-10.3342
▁geo	-10.3345
▁radio	-10.3347
▁compared	-10.3347
▁Populate	-10.3351
Valid	-10.3352
Var	-10.3353
▁Initialise	-10.3361
▁partial	-10.3366
▁Same	-10.337
App	-10.3379
▁tries	-10.3388
▁steps	-10.3388
▁Me	-10.3393
▁respect	-10.3396
▁reimplement	-10.3398
uml	-10.3404
▁definitions	-10.3405
▁decimal	-10.3408
RC	-10.3409
▁MS	-10.3412
▁Defaults	-10.3413
▁descriptors	-10.3414
▁UnsupportedOp	-10.3418
cut	-10.3423
ler	-10.3426
▁probably	-10.3427
Enabled	-10.3428
▁sender	-10.3428
▁wish	-10.3438
column	-10.3447
▁spaces	-10.3447
Root	-10.3448
▁pos	-10.345
version	-10.345
defined	-10.345
erationException	-10.3453
▁Http	-10.3454
DD	-10.3454
▁let	-10.3456
▁acc	-10.3457
Processor	-10.3459
▁\	-10.3464
▁Reference	-10.3465
▁garbage	-10.3466
XXX	-10.3466
▁Long	-10.3466
Stat	-10.3478
▁col	-10.3492
▁says	-10.3494
▁Standard	-10.3498
web	-10.3498
Right	-10.35
ux	-10.3508
▁Operation	-10.3515
cs	-10.3516
ater	-10.3527
ich	-10.3529
▁measure	-10.353
:(	-10.3531
▁though	-10.3535
Function	-10.3536
▁colors	-10.3536
▁ending	-10.3538
▁Information	-10.3544
▁Shift	-10.3544
▁velocity	-10.3544
▁instantiated	-10.3553
▁shift	-10.3563
▁analysis	-10.3573
▁Accepts	-10.3585
iation	-10.3585
▁recent	-10.3589
▁assert	-10.3598
▁dir	-10.3602
Role	-10.3605
▁clock	-10.3606
NG	-10.3611
▁decide	-10.3614
▁workflow	-10.3614
▁synchronized	-10.3618
▁inclusive	-10.3621
▁expressions	-10.3622
▁refers	-10.3631
▁notifies	-10.3632
cess	-10.3642
▁dependencies	-10.3642
server	-10.3646
▁Always	-10.3662
▁arc	-10.3663
▁Try	-10.3666
▁installed	-10.3689
▁translated	-10.3691
▁dirty	-10.3692
Title	-10.3695
win	-10.3699
Repository	-10.3701
▁delimiter	-10.3711
Module	-10.3716
metric	-10.3718
▁actor	-10.3721
tory	-10.373
▁WARNING	-10.3731
▁margin	-10.3731
▁Font	-10.3738
Drag	-10.3738
Options	-10.3741
▁gap	-10.3751
▁Play	-10.3753
Rect	-10.3755
tag	-10.376
▁Overridden	-10.3761
▁exact	-10.3765
component	-10.3765
Total	-10.3774
arg	-10.3778
▁saves	-10.3781
Literal	-10.3781
format	-10.379
▁Look	-10.379
▁merge	-10.3791
▁JSON	-10.3797
▁enum	-10.3798
▁Up	-10.3801
uid	-10.3801
Sheet	-10.3801
▁smaller	-10.3805
▁(0	-10.3807
▁uri	-10.3808
string	-10.3811
▁localized	-10.3812
close	-10.3814
▁Listener	-10.3817
▁backward	-10.3825
ific	-10.3833
AI	-10.3834
▁configure	-10.3835
$	-10.3836
▁Restore	-10.3836
Binding	-10.3845
Option	-10.3847
▁semantics	-10.3847
DS	-10.3852
▁important	-10.3856
TL	-10.386
▁converter	-10.386
registration	-10.3867
Call	-10.387
▁destroy	-10.3872
Specific	-10.3878
▁latest	-10.3883
izes	-10.3889
▁compilation	-10.3892
▁terminal	-10.3892
▁Location	-10.3893
▁newline	-10.3904
Transaction	-10.3906
▁wants	-10.391
any	-10.3925
▁tax	-10.3927
▁Calendar	-10.3927
Interval	-10.3929
▁inverse	-10.393
EL	-10.3932
▁radius	-10.3932
Finish	-10.3932
Support	-10.3935
▁edu	-10.3936
Offset	-10.3938
▁therefore	-10.3943
qvt	-10.3943
▁Associate	-10.3953
▁minutes	-10.3955
SQL	-10.3959
InputStream	-10.3961
21	-10.3961
▁plus	-10.3963
▁Refresh	-10.3964
▁Th	-10.3966
22	-10.397
gu	-10.3977
▁subtree	-10.3978
▁Delegate	-10.3979
Public	-10.3983
last	-10.3986
▁however	-10.3987
▁looks	-10.3993
▁belong	-10.3995
▁interaction	-10.3997
▁country	-10.3998
▁Schedule	-10.3999
▁Notification	-10.3999
▁presentation	-10.4002
CD	-10.4007
;/	-10.4011
▁playing	-10.4013
▁wire	-10.4015
og	-10.4022
▁retrieves	-10.4023
▁mut	-10.4025
Mo	-10.4025
Word	-10.4031
▁patient	-10.4034
▁poll	-10.4035
byte	-10.4036
flow	-10.4037
▁highest	-10.4037
smart	-10.4038
▁IS	-10.404
Inter	-10.4058
ender	-10.4061
▁selects	-10.4062
▁communication	-10.4078
dl	-10.4084
▁gives	-10.4084
▁Port	-10.4095
▁roll	-10.4096
Protocol	-10.4096
▁submit	-10.4104
deploy	-10.4106
Mail	-10.4108
▁prompt	-10.4117
▁fix	-10.4122
▁big	-10.4131
▁Force	-10.4138
▁goal	-10.4139
▁registers	-10.414
CR	-10.4148
▁population	-10.4148
pot	-10.4154
▁Refreshes	-10.4157
Registry	-10.4158
▁IllegalArgument	-10.4158
▁prepare	-10.4169
▁15	-10.417
▁interfaces	-10.4175
▁rest	-10.4178
▁lowest	-10.4181
▁overriden	-10.4185
Match	-10.4195
call	-10.4195
place	-10.4196
▁Destroy	-10.42
▁temp	-10.42
▁One	-10.4202
ulation	-10.4207
▁subtract	-10.4236
mission	-10.4242
▁Template	-10.4245
SO	-10.4258
Schema	-10.4262
info	-10.4264
▁JavaScript	-10.4265
▁packets	-10.4266
▁Switch	-10.4266
▁workspace	-10.4267
05	-10.4272
ult	-10.4276
▁act	-10.4283
▁Encode	-10.4288
dom	-10.4289
▁Mouse	-10.4296
Email	-10.4302
long	-10.4307
▁ISO	-10.4314
hu	-10.4319
80	-10.4327
parse	-10.4331
Note	-10.4333
Product	-10.4337
itive	-10.4344
▁Row	-10.4351
▁translate	-10.4359
▁reduce	-10.4364
▁Paints	-10.4379
Metadata	-10.4381
▁compiler	-10.4386
▁protected	-10.439
disable	-10.439
▁delta	-10.44
▁guaranteed	-10.4405
▁ship	-10.4406
99	-10.4407
acion	-10.4409
▁Please	-10.4411
▁receiving	-10.4411
ATION	-10.4414
▁blog	-10.4426
Num	-10.4427
▁restriction	-10.4432
Desc	-10.4437
▁2.	-10.4437
▁instantiate	-10.4444
TP	-10.4445
▁accordingly	-10.4454
▁(1	-10.4457
col	-10.4457
source	-10.4462
width	-10.4466
▁Person	-10.4471
▁master	-10.4475
▁updater	-10.4478
UL	-10.4484
▁estimate	-10.4486
▁Import	-10.4499
Gra	-10.45
▁recommended	-10.4503
▁prepared	-10.4514
tud	-10.4515
▁looking	-10.4521
▁Fetch	-10.4521
▁resize	-10.4524
max	-10.4524
▁caret	-10.4525
Monitor	-10.4529
▁singleton	-10.4529
▁attempts	-10.453
▁watch	-10.4533
▁Visit	-10.4537
URI	-10.4541
▁calculates	-10.4543
▁jMenuItem	-10.4545
▁Mo	-10.4546
Declaration	-10.455
▁hour	-10.4551
lib	-10.4552
http	-10.4552
▁did	-10.4561
▁playlist	-10.4563
▁larger	-10.4567
ComboBox	-10.458
▁categories	-10.4583
▁processes	-10.4584
Current	-10.4586
/2001	-10.4593
prov	-10.4599
▁Role	-10.4602
▁material	-10.4605
Local	-10.4616
board	-10.4619
lig	-10.4623
▁live	-10.4624
▁digits	-10.4625
sheet	-10.4628
▁resume	-10.4633
▁across	-10.4637
▁detect	-10.4637
ature	-10.4639
▁Target	-10.4655
▁compatible	-10.4658
▁Takes	-10.4658
Items	-10.4658
▁shut	-10.466
26	-10.4667
▁photo	-10.467
▁Job	-10.4672
▁alter	-10.4677
▁Button	-10.4679
▁positions	-10.468
▁stops	-10.468
Principal	-10.4681
▁Rule	-10.4685
ik	-10.4695
▁registration	-10.4699
Ad	-10.4701
▁life	-10.4703
Hash	-10.4703
und	-10.4707
▁Locale	-10.4707
Font	-10.4707
rd	-10.4718
▁OutputStream	-10.472
ern	-10.4721
▁PDF	-10.4724
Per	-10.4731
▁ratio	-10.4746
▁precision	-10.4747
Ch	-10.4747
▁refs	-10.4754
▁deletes	-10.4754
▁indexes	-10.4756
▁Rectangle	-10.4758
▁macro	-10.4758
▁accessed	-10.476
bra	-10.4766
▁small	-10.4774
▁subset	-10.478
▁self	-10.478
visible	-10.4786
Settings	-10.4789
▁possibly	-10.4795
TI	-10.4799
Concept	-10.4816
▁foreign	-10.4825
▁Paint	-10.4825
40	-10.4827
▁Bind	-10.4832
▁removal	-10.4835
▁paragraph	-10.4847
▁connector	-10.485
▁Place	-10.485
▁past	-10.4863
▁coord	-10.4869
▁lost	-10.4873
▁linear	-10.4876
▁correspond	-10.4877
▁Visitor	-10.4877
▁appears	-10.488
▁moment	-10.488
▁picture	-10.4891
2000	-10.4897
▁heap	-10.4905
Ext	-10.4908
print	-10.4909
led	-10.491
▁Geo	-10.4914
▁Useful	-10.4917
▁printing	-10.492
Choice	-10.4925
▁Here	-10.4925
▁cards	-10.4929
style	-10.4932
▁widgets	-10.4936
▁filtered	-10.4941
▁Token	-10.4959
▁mod	-10.4963
way	-10.4965
▁qu	-10.4969
▁implicit	-10.497
Report	-10.4972
Java	-10.4976
▁formatting	-10.4977
inheritDoc	-10.4981
▁arrays	-10.4983
▁Toggle	-10.5003
Chart	-10.5005
play	-10.5012
click	-10.5014
Bam	-10.5016
▁suite	-10.5018
▁indent	-10.5018
▁Setup	-10.5035
Popup	-10.5038
▁ends	-10.504
Folder	-10.5045
▁concrete	-10.5049
mar	-10.5064
▁requirement	-10.5065
▁comes	-10.5068
frame	-10.5068
▁Entry	-10.507
▁maintain	-10.507
▁What	-10.5072
▁scaling	-10.5072
fix	-10.5078
▁Assert	-10.5082
awt	-10.5084
▁hex	-10.5086
▁major	-10.5094
▁alert	-10.5096
▁Layout	-10.5105
▁Tell	-10.511
▁identifiers	-10.5113
的	-10.5117
▁assertion	-10.5122
▁face	-10.5127
Criteria	-10.5129
Run	-10.513
TextArea	-10.5134
▁Go	-10.5135
▁collision	-10.514
▁depend	-10.514
cha	-10.5144
▁q	-10.5153
toString	-10.5164
▁scheduled	-10.5168
▁performing	-10.5171
▁utility	-10.5175
▁occured	-10.5191
hop	-10.5196
▁buffered	-10.5196
▁quick	-10.5199
Mod	-10.5205
left	-10.5215
www	-10.5232
▁Instance	-10.5234
Face	-10.5235
Man	-10.5239
Read	-10.5241
Pattern	-10.5242
▁copies	-10.5244
▁divide	-10.5244
▁arrow	-10.5245
▁collected	-10.5245
DEFAULT	-10.5255
DateTime	-10.5266
▁My	-10.5266
Assertion	-10.5267
▁Remote	-10.5269
If	-10.5274
▁Hide	-10.5275
Scale	-10.5278
▁Dump	-10.5279
exp	-10.5279
▁NO	-10.5282
uff	-10.5283
▁cleanup	-10.5284
▁independent	-10.5286
▁JVM	-10.529
▁More	-10.5298
bil	-10.5301
Vertex	-10.5302
FI	-10.5309
▁Dialog	-10.5314
Subject	-10.5315
▁replacing	-10.5315
▁intersection	-10.5318
▁exclusive	-10.5325
▁outgoing	-10.5325
▁triple	-10.5337
▁From	-10.5341
▁aggregate	-10.5349
▁overlap	-10.5351
▁rel	-10.5355
▁Level	-10.5358
ibility	-10.536
▁share	-10.5363
PR	-10.537
▁efficient	-10.5372
▁overriding	-10.5372
Cancel	-10.5372
▁backing	-10.5372
Coordinate	-10.5373
▁VM	-10.5378
initialize	-10.5383
High	-10.5388
current	-10.5394
Logger	-10.5397
▁Agent	-10.5403
▁padding	-10.5407
Manage	-10.5415
▁boundary	-10.5424
▁SOAP	-10.5431
Condition	-10.5431
▁normalized	-10.5436
▁consistent	-10.5436
▁ArrayList	-10.5437
Selector	-10.5441
Flow	-10.5442
other	-10.5442
▁Allow	-10.5446
▁stage	-10.5446
▁semantic	-10.5448
Player	-10.545
▁canonical	-10.5454
▁exceed	-10.5454
ION	-10.5456
▁validity	-10.5456
PI	-10.5459
Only	-10.5466
ScrollPane	-10.5485
▁cut	-10.5488
▁Or	-10.5491
▁legal	-10.5502
▁treated	-10.5509
TableModel	-10.551
▁AM	-10.5511
▁implies	-10.5514
▁Op	-10.5541
▁Scroll	-10.5543
▁({@	-10.5546
▁Author	-10.555
▁Activity	-10.555
screen	-10.5551
▁leading	-10.5551
empty	-10.5551
▁triggered	-10.5551
▁consume	-10.5552
ou	-10.5553
allocate	-10.5558
Period	-10.5562
▁manage	-10.5574
->	-10.5595
lip	-10.5596
Do	-10.5597
32	-10.5598
ture	-10.5601
▁holding	-10.5602
Border	-10.5606
▁Delegates	-10.5606
ze	-10.5608
▁Define	-10.5609
▁movement	-10.5613
▁produced	-10.562
ico	-10.5627
▁compares	-10.5635
▁NULL	-10.5642
▁0.0	-10.5643
next	-10.5644
▁Match	-10.5645
▁reuse	-10.5655
Packet	-10.5658
▁trim	-10.5659
xsd	-10.5663
▁wether	-10.5668
▁Evaluates	-10.5674
▁instructions	-10.5677
▁desc	-10.5677
Screen	-10.5682
▁formatter	-10.5682
▁article	-10.5694
Visible	-10.5694
Prefix	-10.5697
▁Interface	-10.5702
▁partition	-10.5704
Details	-10.5704
▁alternative	-10.5706
▁jSeparator	-10.5707
Edge	-10.572
▁Handler	-10.5724
▁1)	-10.5724
register	-10.5728
▁detected	-10.5737
▁And	-10.5738
▁training	-10.5742
▁regardless	-10.5743
▁goes	-10.5743
Rel	-10.5749
cate	-10.5751
Mut	-10.5754
▁palette	-10.5755
Include	-10.5755
▁Tab	-10.5755
syn	-10.5757
▁clipboard	-10.5767
Print	-10.5774
▁Comment	-10.5775
cp	-10.5775
▁JSP	-10.5785
Open	-10.579
Grid	-10.5791
▁Looks	-10.5793
ric	-10.5798
NaN	-10.5805
MIN	-10.5819
▁controlled	-10.5819
▁problems	-10.5823
▁decode	-10.5825
▁Extend	-10.5828
lab	-10.5828
▁CR	-10.5831
▁rotate	-10.5841
reparedStatement	-10.5846
▁len	-10.5857
▁Per	-10.5859
▁Tri	-10.5863
Custom	-10.587
that	-10.5877
▁projection	-10.5877
▁PC	-10.588
▁XPath	-10.5889
▁desktop	-10.589
▁specifying	-10.5892
▁restart	-10.5894
▁Edge	-10.5898
Sort	-10.59
▁particle	-10.5902
Track	-10.5911
▁roles	-10.5912
▁Product	-10.5914
▁Position	-10.5915
▁Bit	-10.5916
▁instant	-10.5926
▁permanently	-10.5942
OutputStream	-10.5946
▁respective	-10.5954
▁MBean	-10.5968
▁Generic	-10.5973
▁automatic	-10.5976
▁generating	-10.5976
HTML	-10.5983
▁marks	-10.5988
▁descendant	-10.5989
▁Instead	-10.6001
Serial	-10.6004
tation	-10.6005
Application	-10.6008
▁searches	-10.6025
RES	-10.6026
▁bond	-10.6027
ulate	-10.6027
▁Plugin	-10.6028
▁exc	-10.6029
non	-10.6031
31	-10.6035
ja	-10.6044
ship	-10.6044
hand	-10.605
has	-10.6052
▁initialise	-10.6054
▁accepts	-10.6055
▁Need	-10.6065
ish	-10.6067
27	-10.6068
bb	-10.6068
▁accessible	-10.6069
▁adapt	-10.6071
▁locked	-10.6083
▁Status	-10.6089
▁abort	-10.6089
valid	-10.6105
▁).	-10.6106
▁viewport	-10.6111
▁seed	-10.6112
▁evaluated	-10.6113
Generator	-10.6114
Focus	-10.6115
▁Security	-10.6115
▁Export	-10.6117
pc	-10.6119
save	-10.6138
▁involve	-10.614
pass	-10.614
reserve	-10.6141
▁Thus	-10.6155
▁Warning	-10.6161
END	-10.6163
▁Plot	-10.6165
▁extent	-10.6191
▁opening	-10.6192
▁addresses	-10.6192
▁RFC	-10.6194
▁foo	-10.6196
▁stuff	-10.6204
28	-10.6207
first	-10.6212
calculate	-10.6213
▁bin	-10.6213
LL	-10.623
▁App	-10.6235
▁deletion	-10.6242
▁workbench	-10.6254
▁fraction	-10.6256
oke	-10.6259
miss	-10.626
▁reflected	-10.626
▁variant	-10.6267
Depend	-10.6267
▁Initial	-10.6276
parent	-10.6285
condition	-10.6287
▁operating	-10.6293
mail	-10.6296
▁=>	-10.6302
lap	-10.6303
`	-10.6306
▁Marks	-10.6309
▁advance	-10.6311
▁capture	-10.6319
▁Unregister	-10.632
▁Servlet	-10.6329
▁Forward	-10.6336
▁Controller	-10.6343
▁indentation	-10.635
▁compatibility	-10.6357
▁got	-10.6358
▁plain	-10.636
▁unaffected	-10.637
Use	-10.6379
▁Version	-10.638
▁sibling	-10.6383
Before	-10.6383
▁Overwrite	-10.6384
▁escape	-10.6389
▁sense	-10.6391
▁intersect	-10.6392
Association	-10.6396
▁skill	-10.6396
google	-10.6409
oo	-10.6414
▁Min	-10.6417
Holder	-10.6422
▁feedback	-10.6423
▁exchange	-10.6424
▁Float	-10.6424
▁modal	-10.6438
▁src	-10.6455
▁Adjust	-10.6461
▁locator	-10.6462
Math	-10.6465
▁hashcode	-10.6474
▁wrong	-10.6475
▁shortcut	-10.6476
foo	-10.6484
▁graphical	-10.6489
▁appearance	-10.6491
▁describes	-10.6498
Package	-10.65
CI	-10.6501
Resolver	-10.6504
▁Free	-10.6508
▁developer	-10.6514
▁collect	-10.6516
Optional	-10.6521
▁phrase	-10.6527
▁four	-10.6528
Enum	-10.6529
vision	-10.6534
▁zip	-10.654
▁storing	-10.654
Pos	-10.6541
▁slice	-10.6542
▁HashMap	-10.6542
▁vice	-10.6546
UP	-10.6549
▁respond	-10.6553
sync	-10.6554
arch	-10.6558
▁CIM	-10.6561
▁Persist	-10.6564
Left	-10.6567
▁away	-10.6573
▁artifact	-10.658
relative	-10.658
This	-10.658
reference	-10.6581
loc	-10.6582
▁replaces	-10.6584
MM	-10.659
▁feel	-10.6593
Html	-10.6594
▁Shape	-10.6596
▁painted	-10.6596
▁DataSource	-10.6598
▁extends	-10.6598
▁MIME	-10.6606
Information	-10.6607
▁filtering	-10.6607
▁manually	-10.6611
ised	-10.6616
CU	-10.6618
Wizard	-10.662
Category	-10.662
Transform	-10.6621
▁lead	-10.6635
▁whatever	-10.6637
lan	-10.664
land	-10.6644
▁Selection	-10.6644
▁payload	-10.6646
▁spacing	-10.6646
▁Don	-10.665
▁Panel	-10.6655
▁Admin	-10.6656
uction	-10.6657
Limit	-10.666
▁Editor	-10.6665
▁CG	-10.6669
▁generally	-10.6672
unit	-10.6672
Multi	-10.6674
Str	-10.668
Algorithm	-10.67
▁DTD	-10.67
▁DAO	-10.6701
▁met	-10.6702
▁Required	-10.6704
▁redraw	-10.6707
pp	-10.6715
Gui	-10.6715
▁signed	-10.6716
▁offer	-10.6717
menu	-10.6719
▁comparing	-10.6727
IVE	-10.6732
▁resolver	-10.6733
▁Step	-10.6738
Argument	-10.674
▁Sequence	-10.6747
Driver	-10.6754
▁dump	-10.6755
Double	-10.6756
First	-10.6756
▁GL	-10.6757
ination	-10.6759
ology	-10.6759
▁bot	-10.6763
▁SQLException	-10.6765
card	-10.6769
▁Disconnect	-10.6772
Single	-10.6776
queue	-10.6778
LS	-10.6779
▁taking	-10.678
Align	-10.6782
▁tested	-10.6782
▁RGB	-10.6794
▁cloning	-10.6794
Binary	-10.6795
jsp	-10.6796
▁Accept	-10.6808
Month	-10.6808
safe	-10.6811
▁sentence	-10.6814
present	-10.6818
▁MIDlet	-10.6821
▁IOException	-10.6824
▁principal	-10.6835
▁legend	-10.6835
UM	-10.6835
coordinate	-10.6838
▁expired	-10.6839
▁toggle	-10.6849
▁implementations	-10.6855
sourceforge	-10.6862
▁currency	-10.6862
▁Visual	-10.6863
▁With	-10.6863
EST	-10.6869
image	-10.687
▁searching	-10.6871
▁idle	-10.6875
▁middle	-10.6875
▁aspect	-10.6876
▁Int	-10.6885
▁Col	-10.6889
▁Missing	-10.6889
▁organization	-10.6889
Tuple	-10.6892
▁preview	-10.6895
Database	-10.69
TM	-10.6901
▁Merge	-10.6903
num	-10.6909
Background	-10.6916
▁distinguish	-10.6916
▁digit	-10.6918
▁Config	-10.6923
▁cart	-10.6929
▁DropDown	-10.693
Canvas	-10.6934
▁movie	-10.6944
History	-10.6944
Script	-10.6946
title	-10.695
rp	-10.6964
▁Title	-10.6966
OK	-10.6971
▁song	-10.6972
▁Reports	-10.6977
Center	-10.6978
▁assume	-10.6982
▁Hashtable	-10.6986
radi	-10.6986
construct	-10.6991
Memory	-10.6999
▁album	-10.6999
▁Modify	-10.6999
Segment	-10.7
Agent	-10.7004
▁caused	-10.7006
▁rename	-10.7016
DataSource	-10.7021
Dimension	-10.7027
Remove	-10.703
message	-10.7031
▁attach	-10.7037
▁ascending	-10.704
▁SSL	-10.7041
put	-10.7045
grid	-10.7046
▁charset	-10.7047
Figure	-10.7048
Score	-10.706
mod	-10.7065
▁scalar	-10.7068
▁follow	-10.7073
dir	-10.7075
▁sha	-10.7079
▁presence	-10.7082
equal	-10.7093
Sec	-10.7095
▁strip	-10.71
▁hours	-10.7101
▁AND	-10.7105
▁recursive	-10.7111
▁Undo	-10.7122
draw	-10.7123
▁scenario	-10.7124
REF	-10.7129
▁denote	-10.7136
External	-10.7138
▁closest	-10.7139
▁throwing	-10.7139
▁dropped	-10.714
Converter	-10.7143
Active	-10.7144
▁backed	-10.716
txt	-10.7161
licit	-10.7167
▁station	-10.7181
▁msg	-10.7184
Environment	-10.7194
Reply	-10.7199
▁Documentation	-10.72
▁dead	-10.7204
▁pushed	-10.7208
ray	-10.7208
void	-10.721
▁href	-10.7212
▁gain	-10.7222
▁interpreted	-10.7225
Save	-10.7227
▁stats	-10.7234
▁Relation	-10.7235
▁fast	-10.7248
Constant	-10.7249
▁propagate	-10.725
Connector	-10.7256
Move	-10.7267
▁scanner	-10.728
▁customize	-10.7301
▁circle	-10.7307
▁substitution	-10.7307
▁percent	-10.7309
inter	-10.7313
▁Empty	-10.7317
▁interpreter	-10.7318
▁Contact	-10.7335
Catalog	-10.7336
▁bracket	-10.7336
▁NullPointer	-10.7336
▁AWT	-10.7336
wise	-10.7337
▁Because	-10.735
▁nearest	-10.7351
▁32	-10.7353
▁Character	-10.7357
▁guarantee	-10.7358
▁Indicate	-10.7362
▁Hash	-10.7363
▁shadow	-10.7365
▁quantity	-10.7366
Expr	-10.7377
▁seen	-10.738
▁minor	-10.7385
▁MUST	-10.7393
▁chooser	-10.7403
▁ActionListener	-10.7409
▁substring	-10.7413
pseudo	-10.7415
▁allowing	-10.7416
TRA	-10.7418
▁mime	-10.7422
double	-10.7431
Progress	-10.7436
scale	-10.7438
lit	-10.7441
Alert	-10.7443
▁Ask	-10.7444
Close	-10.7446
▁visited	-10.7452
▁city	-10.7453
▁Transfer	-10.7461
MetaData	-10.7462
math	-10.7464
▁overlay	-10.7465
Duration	-10.7466
▁unset	-10.7468
▁thing	-10.7469
specified	-10.7472
▁activate	-10.7474
sequence	-10.7475
Socket	-10.7475
ASCII	-10.748
▁bad	-10.7484
block	-10.7489
grade	-10.7493
Common	-10.7495
▁mass	-10.7496
▁initiate	-10.7497
Select	-10.75
▁Activate	-10.7509
▁candidate	-10.7509
▁remember	-10.7511
36	-10.7516
▁acquire	-10.7517
▁credentials	-10.7518
▁Iterate	-10.7524
▁Ast	-10.7527
Simple	-10.7534
▁Condition	-10.7537
▁coefficient	-10.7538
▁kept	-10.7538
Loop	-10.7539
▁EJB	-10.7545
▁ball	-10.7546
Ast	-10.755
Foo	-10.7555
▁CF	-10.7556
Children	-10.7557
▁affected	-10.7568
▁Icon	-10.7571
▁datasource	-10.7574
▁terminated	-10.7575
TreeNode	-10.7579
▁subscription	-10.7581
▁digest	-10.7581
Comparator	-10.7582
▁hard	-10.7584
▁cloned	-10.7587
Load	-10.7592
/2002	-10.7596
▁Typically	-10.7596
▁attack	-10.7596
tribute	-10.7607
ocl	-10.7618
bind	-10.7621
▁Enumeration	-10.7625
▁Atom	-10.7626
▁Join	-10.7627
▁<=	-10.7627
▁heading	-10.7634
▁traversal	-10.764
▁Skip	-10.764
Home	-10.7641
▁conf	-10.7643
▁discarded	-10.7649
▁applying	-10.765
▁Media	-10.7653
compareTo	-10.7653
▁friend	-10.7655
Year	-10.7657
▁fall	-10.766
▁insertion	-10.7661
tool	-10.7664
▁retrieving	-10.767
▁Hook	-10.767
Plugin	-10.7682
Layer	-10.7682
▁validated	-10.7686
2001	-10.7693
▁Category	-10.7698
▁Package	-10.77
Tip	-10.77
self	-10.7706
▁ContentModel	-10.7707
▁recipient	-10.7714
complete	-10.7727
persistence	-10.7728
▁recorded	-10.7737
▁disc	-10.774
▁situation	-10.7744
Instruction	-10.7744
▁!=	-10.7744
000	-10.7747
nom	-10.7754
29	-10.7754
cm	-10.7758
▁Complex	-10.7759
Cursor	-10.7759
prim	-10.7762
▁Module	-10.7767
▁Private	-10.7771
▁invalidate	-10.7772
▁themselves	-10.7773
▁hyper	-10.7773
▁interested	-10.7774
ica	-10.7775
ListGrid	-10.7779
step	-10.778
Show	-10.7787
▁Stream	-10.7788
Primary	-10.7788
▁caching	-10.7788
Tax	-10.7789
Zoom	-10.7789
graphic	-10.7791
using	-10.7795
Over	-10.7795
▁scaled	-10.78
▁Global	-10.7805
▁backup	-10.7811
IX	-10.7814
▁Automatically	-10.7818
▁compound	-10.7821
▁discover	-10.7826
quire	-10.7826
Activity	-10.7833
Second	-10.7833
▁Tile	-10.7844
Scope	-10.7845
ending	-10.7847
▁fault	-10.7848
▁datatype	-10.7852
▁kill	-10.7853
▁likely	-10.7853
readable	-10.7855
▁Confirm	-10.7859
Assign	-10.7865
▁predict	-10.7865
Mouse	-10.7868
▁Script	-10.7874
▁du	-10.7876
▁INTERNAL	-10.7878
Long	-10.7879
▁footer	-10.7881
▁scheduler	-10.7884
▁IO	-10.7888
)==	-10.7891
▁triangle	-10.7893
▁Socket	-10.7898
0000	-10.79
▁Hibernate	-10.79
▁Meta	-10.7901
▁advanced	-10.7902
handle	-10.7907
Dictionary	-10.7909
▁Assumes	-10.7909
▁measurement	-10.7913
err	-10.7924
▁JTable	-10.7929
[])}	-10.7936
▁solve	-10.7937
RPC	-10.795
▁conflict	-10.7954
▁variance	-10.7954
EO	-10.7955
▁GET	-10.7969
expression	-10.797
delimited	-10.797
Full	-10.797
cycle	-10.7986
▁Real	-10.7988
Patient	-10.8
45	-10.8
▁How	-10.8008
▁blocking	-10.8018
▁quit	-10.8019
ACK	-10.8022
subscribe	-10.8024
ference	-10.8029
ense	-10.8042
Rec	-10.8057
error	-10.8058
MODE	-10.8061
▁disposed	-10.8065
match	-10.808
config	-10.8091
▁sleep	-10.8092
▁outer	-10.8093
uni	-10.8101
Relation	-10.8105
Chooser	-10.8106
▁black	-10.8107
▁programming	-10.8107
Step	-10.811
▁%	-10.8113
cache	-10.8113
Summary	-10.8123
▁Cause	-10.8123
▁Layer	-10.8125
▁guard	-10.8138
▁observation	-10.8138
▁scrollbar	-10.8141
Pair	-10.8153
▁molecule	-10.8153
Servlet	-10.8156
Cap	-10.816
▁reserved	-10.8169
▁Sample	-10.8175
▁exclude	-10.8179
▁recently	-10.8183
▁regard	-10.8184
Distance	-10.8185
Detail	-10.8187
support	-10.8188
dvis	-10.8189
▁played	-10.8197
▁traverse	-10.82
▁react	-10.8202
ili	-10.8214
▁SVG	-10.8216
▁bookmark	-10.8217
70	-10.8218
(...)	-10.8221
▁qualifier	-10.8231
▁MD	-10.8234
▁die	-10.824
Bit	-10.8244
▁enclosing	-10.8247
Measure	-10.8247
▁defining	-10.8247
▁imported	-10.8251
▁rowset	-10.8251
▁Expand	-10.8253
▁Begin	-10.8259
▁RDF	-10.8268
▁JMS	-10.8277
▁Language	-10.8278
RS	-10.8282
Route	-10.8283
▁holder	-10.8288
▁quality	-10.8294
▁Therefore	-10.8294
PK	-10.8301
▁broadcast	-10.831
zero	-10.8317
▁confirm	-10.832
▁consumer	-10.8325
Machine	-10.8325
ride	-10.8339
wiki	-10.834
▁datastore	-10.8342
▁pipe	-10.8347
Admin	-10.8348
▁extracted	-10.8348
sort	-10.8357
Fragment	-10.8357
▁satisfy	-10.8357
▁significant	-10.8357
persist	-10.8361
local	-10.8363
▁optimize	-10.8373
▁skipped	-10.8374
▁Non	-10.8386
Comment	-10.8394
▁UN	-10.84
real	-10.8402
ium	-10.8406
property	-10.8426
Person	-10.8426
LOC	-10.8435
Locator	-10.8436
▁Active	-10.8445
render	-10.8446
▁graphic	-10.8451
▁suspend	-10.8452
▁accumulat	-10.8452
POS	-10.8453
▁Current	-10.8455
Null	-10.8458
▁Signal	-10.8468
▁Namespace	-10.8473
content	-10.8474
56	-10.8478
▁UTF	-10.8484
▁grow	-10.8494
▁Cap	-10.8495
▁capabilities	-10.85
▁Pattern	-10.8502
ada	-10.8502
Tick	-10.8503
dao	-10.8503
show	-10.8513
▁alphabet	-10.8516
TIME	-10.8521
▁Evaluate	-10.8526
MENTO	-10.8533
Effect	-10.8549
▁stub	-10.8567
▁rating	-10.8578
knowledge	-10.8581
Execution	-10.8581
▁computation	-10.8581
Price	-10.8583
▁Other	-10.8588
ClassName	-10.859
find	-10.8591
Ignore	-10.8597
▁probe	-10.8611
▁BigDecimal	-10.8613
▁But	-10.862
AST	-10.8621
▁minute	-10.8628
▁Trigger	-10.863
fill	-10.864
Para	-10.8647
EE	-10.8655
▁Byte	-10.8658
▁neuron	-10.8662
Calendar	-10.867
Character	-10.867
ably	-10.8673
Observer	-10.8678
▁compiled	-10.868
▁Decode	-10.8687
▁Xml	-10.8694
Attachment	-10.8695
▁crawl	-10.8695
▁pipeline	-10.8697
▁patch	-10.8697
rib	-10.8705
▁Root	-10.8709
▁Exit	-10.8711
▁identifies	-10.8711
▁Scan	-10.8725
▁Equivalent	-10.8727
▁classloader	-10.8728
▁among	-10.8728
SET	-10.873
Formatter	-10.8738
▁compression	-10.8744
▁half	-10.8744
▁owned	-10.8744
▁slow	-10.8756
▁para	-10.8757
▁supposed	-10.876
▁MM	-10.8778
GR	-10.8779
▁permit	-10.8781
Temp	-10.8783
▁distinct	-10.8793
▁delivery	-10.88
▁pause	-10.8806
▁turned	-10.8811
▁hover	-10.8816
▁reflection	-10.8819
ena	-10.8819
▁Ant	-10.8821
▁Normally	-10.8826
▁<!--	-10.8843
▁walk	-10.8843
(1)	-10.8846
▁Random	-10.8846
▁charge	-10.8864
▁painting	-10.8866
javax	-10.887
Delete	-10.8873
Final	-10.8876
▁placeholder	-10.8876
▁spectrum	-10.8876
matic	-10.8881
▁Folder	-10.8881
Coll	-10.8889
▁Lookup	-10.889
▁soon	-10.889
▁prototype	-10.8893
▁smallest	-10.8896
▁Produce	-10.8896
▁Symbol	-10.8908
TabbedPane	-10.8909
project	-10.8923
actionPerformed	-10.8926
▁elapsed	-10.8926
▁synchronization	-10.8926
▁Network	-10.8929
ivity	-10.8936
▁Renderer	-10.895
Factor	-10.895
▁bus	-10.8952
▁jMenu	-10.8953
Fetches	-10.8953
▁hibernate	-10.8965
VI	-10.8965
host	-10.8971
Direction	-10.8976
Board	-10.8977
▁OID	-10.898
▁attr	-10.8981
▁committed	-10.8981
DATA	-10.899
▁retain	-10.8993
▁family	-10.8993
▁production	-10.9003
▁SELECT	-10.9007
▁overall	-10.9008
Draw	-10.9009
▁filesystem	-10.9011
▁initially	-10.9028
▁Throwable	-10.9029
Weight	-10.9036
▁formally	-10.9038
▁converting	-10.904
▁Push	-10.9042
▁milli	-10.9042
▁pin	-10.9044
▁activities	-10.9044
▁unsigned	-10.9044
Shape	-10.9074
dev	-10.908
▁Business	-10.9087
classes	-10.9087
▁Canvas	-10.909
World	-10.9095
limit	-10.9096
ContentModel	-10.9101
ERROR	-10.9112
▁necessarily	-10.9112
Timestamp	-10.9112
▁playback	-10.9113
▁established	-10.9115
▁detach	-10.9129
Car	-10.9133
▁review	-10.914
word	-10.9142
▁raised	-10.9144
▁Modifies	-10.9146
clear	-10.9147
Attr	-10.9154
▁transformed	-10.9156
▁dragged	-10.9163
▁secondary	-10.9173
▁destroyed	-10.9176
▁clipping	-10.9183
morph	-10.9183
▁dynamically	-10.9183
EntityManager	-10.9186
▁Reload	-10.9207
▁IllegalState	-10.9215
▁caption	-10.9215
▁associate	-10.9215
Decl	-10.9225
▁lifecycle	-10.9232
▁transient	-10.9234
▁merged	-10.925
Job	-10.9255
▁wall	-10.926
Col	-10.926
Float	-10.9265
Browser	-10.9273
▁treat	-10.9274
▁Db	-10.9282
▁Convenient	-10.9284
▁criterion	-10.9284
▁optimization	-10.9284
!!!	-10.9284
▁effective	-10.9295
color	-10.9296
▁idea	-10.9298
KEY	-10.9302
▁StringBuffer	-10.9304
meta	-10.9311
▁payment	-10.9319
▁employee	-10.9319
Room	-10.932
▁wave	-10.9324
Relationship	-10.9328
▁detailed	-10.9334
including	-10.9335
▁student	-10.9336
▁floating	-10.9348
Signature	-10.9354
println	-10.9354
TEXT	-10.9356
▁javascript	-10.9359
▁manipulate	-10.9371
DTO	-10.9378
▁escaped	-10.9381
second	-10.9388
Question	-10.9389
Paint	-10.9389
▁unregister	-10.9395
Msg	-10.9401
Library	-10.9406
▁few	-10.9406
Post	-10.9413
rip	-10.9423
▁Commit	-10.9424
▁rollback	-10.9425
attribute	-10.9427
▁adjusted	-10.9433
▁seq	-10.9439
▁analyze	-10.9441
▁vehicle	-10.9441
Auto	-10.9441
allow	-10.9444
arity	-10.945
input	-10.9452
array	-10.9452
▁appropriately	-10.9457
Series	-10.9463
▁discard	-10.9468
▁Operator	-10.9472
INT	-10.9476
▁deleting	-10.9477
▁cancelled	-10.9496
VO	-10.9497
▁incorrect	-10.9512
▁supply	-10.9512
display	-10.9512
access	-10.9516
▁management	-10.9525
Handle	-10.9537
▁2.0	-10.9545
body	-10.9549
Modified	-10.9566
▁checksum	-10.9568
parser	-10.9581
Dynamic	-10.9583
insert	-10.9585
▁nature	-10.9588
▁distributed	-10.9601
Authentication	-10.9619
▁surround	-10.9619
▁trailing	-10.9619
▁minimal	-10.9619
▁Both	-10.9619
MF	-10.9621
▁flip	-10.9625
RM	-10.9636
▁conversation	-10.9637
▁residue	-10.9637
▁deployment	-10.9637
compute	-10.9641
▁inventory	-10.9655
Boolean	-10.9657
▁gradient	-10.9673
▁Issue	-10.9673
schema	-10.9677
▁largest	-10.9679
▁dest	-10.969
▁encapsulated	-10.9691
▁const	-10.9691
Cluster	-10.9691
▁OB	-10.9709
▁alternate	-10.9709
normal	-10.9712
▁facet	-10.9714
▁compile	-10.9716
▁say	-10.9719
▁printer	-10.9723
▁optionally	-10.9729
child	-10.9731
Phone	-10.9746
▁delivered	-10.9748
▁Instantiate	-10.9764
▁manner	-10.9764
filter	-10.9769
▁Help	-10.9772
▁degree	-10.9779
▁resized	-10.9785
GenKb	-10.98
Val	-10.9803
▁stylesheet	-10.9804
▁interceptor	-10.9805
▁Flush	-10.981
▁stat	-10.9821
▁maintained	-10.9827
▁Let	-10.9835
▁manifest	-10.9837
▁instrument	-10.9842
Counter	-10.9844
Publish	-10.9855
Break	-10.9856
▁measured	-10.9857
▁hostname	-10.9861
Specification	-10.9866
▁creator	-10.9873
▁stamp	-10.9876
install	-10.9878
▁Subtract	-10.9893
▁dispatcher	-10.9903
Rate	-10.9906
▁pathname	-10.9916
▁BigInteger	-10.9929
button	-10.9934
Empty	-10.9934
Clip	-10.9938
QUE	-10.9946
Deploy	-10.9947
▁thumbnail	-10.9947
thread	-10.995
▁Using	-10.9952
▁statistic	-10.9957
▁fo	-10.9959
main	-10.9962
▁perspective	-10.9966
▁Rotate	-10.9966
beginTransaction	-10.997
area	-10.9974
CheckBox	-10.9978
▁star	-10.9982
▁bucket	-10.9984
▁natural	-10.9984
Applet	-10.9989
Press	-10.9999
Storage	-11.0003
Shell	-11.0003
","	-11.0015
48	-11.002
▁authenticated	-11.0022
▁compressed	-11.0022
▁firing	-11.0022
▁tracker	-11.0024
AGE	-11.0025
Main	-11.0029
▁executable	-11.003
▁Mar	-11.0037
▁navigate	-11.004
▁Unicode	-11.004
###	-11.0044
PER	-11.0044
<	-11.0047
label	-11.0051
▁emit	-11.0057
Encoding	-11.0059
▁assuming	-11.0059
Lookup	-11.0067
uck	-11.0075
▁populated	-11.0081
39	-11.0082
▁serve	-11.0085
▁fetched	-11.0094
▁replica	-11.0094
Normal	-11.0096
Maximum	-11.0097
▁wide	-11.0103
query	-11.0106
Wire	-11.0116
section	-11.0124
Priority	-11.0134
▁OpenGL	-11.0134
▁interact	-11.014
Amount	-11.0145
▁BY	-11.0145
▁originally	-11.0148
Predicate	-11.0153
▁basis	-11.0153
▁JDK	-11.0153
Graphics	-11.0162
EventListener	-11.0173
AND	-11.0174
▁anonymous	-11.0191
▁LDAP	-11.0191
▁runnable	-11.0191
▁wrapping	-11.0193
▁fitness	-11.0193
context	-11.0204
▁asked	-11.0206
▁assembly	-11.021
▁automaton	-11.021
▁Normalize	-11.0211
▁unspecified	-11.0216
▁conditional	-11.0222
▁collector	-11.0222
▁twice	-11.0229
▁fold	-11.0239
owl	-11.0244
▁fatal	-11.0248
▁spring	-11.0251
▁meant	-11.0254
59	-11.0267
▁leaving	-11.0267
▁decoration	-11.0267
known	-11.0273
▁excluded	-11.0274
return	-11.0276
▁tail	-11.0303
tab	-11.0305
▁jump	-11.0306
Arg	-11.0315
▁expire	-11.0319
▁textfield	-11.0321
▁encryption	-11.0325
▁green	-11.0325
byu	-11.0343
413.	-11.0345
resource	-11.0346
▁trust	-11.0346
▁regex	-11.0352
▁conform	-11.0353
Scroll	-11.0358
Reason	-11.0365
Bus	-11.0368
control	-11.0373
▁WSDL	-11.0383
Hit	-11.0389
location	-11.0389
Abstract	-11.0393
▁mock	-11.0394
Exist	-11.0408
phone	-11.042
NOT	-11.0422
▁predefined	-11.0426
▁persisted	-11.0446
▁mesh	-11.0448
▁highlighted	-11.0457
▁ignoring	-11.0461
▁structural	-11.0461
▁unsaved	-11.0461
▁aligned	-11.0461
▁uniform	-11.0461
▁coverage	-11.0483
▁uploaded	-11.0484
▁confirmation	-11.0486
separated	-11.0492
▁voice	-11.05
▁Special	-11.05
Tracker	-11.0507
▁inherit	-11.051
▁minus	-11.0511
Sample	-11.0512
▁mandatory	-11.0519
▁tabbed	-11.052
▁operate	-11.052
▁GC	-11.0529
▁longitude	-11.0539
▁partner	-11.0553
▁published	-11.0558
▁deprecated	-11.0559
▁yield	-11.0559
ACAO	-11.0559
▁Recursively	-11.0563
▁wildcard	-11.0578
▁baseline	-11.058
Render	-11.058
flex	-11.0589
common	-11.0596
▁Virtual	-11.0598
▁Simply	-11.0598
▁UML	-11.0603
▁immediate	-11.0609
▁Tb	-11.061
execute	-11.0611
Notification	-11.0613
Validator	-11.0616
Defined	-11.0632
▁Every	-11.0638
▁authorization	-11.0642
▁markup	-11.0647
Qualifier	-11.0658
▁shallow	-11.066
▁updateRow	-11.0684
jar	-11.0684
validate	-11.0688
▁mutable	-11.0693
▁kernel	-11.0698
▁successor	-11.07
mount	-11.0712
Diff	-11.0736
Mapper	-11.0737
▁spell	-11.0738
▁jCheckBox	-11.0741
▁finally	-11.0757
▁parallel	-11.0758
▁deviation	-11.0758
▁POST	-11.0758
▁faster	-11.0759
trace	-11.0762
▁combined	-11.077
▁xpath	-11.077
Primitive	-11.0778
▁closure	-11.0778
▁simulate	-11.0778
▁UUID	-11.0778
plan	-11.0782
usion	-11.0795
▁paused	-11.0803
▁Accessible	-11.0806
after	-11.0811
fil	-11.0818
▁verifies	-11.0818
▁THIS	-11.0818
▁balance	-11.0818
▁Pushe	-11.0821
isys	-11.0824
Strategy	-11.0838
▁third	-11.0838
ram	-11.0847
▁altered	-11.087
instance	-11.0875
Combo	-11.0879
▁think	-11.0879
Return	-11.0895
Copy	-11.0896
Certificate	-11.0899
Owner	-11.09
Locale	-11.09
▁allocation	-11.09
▁ticket	-11.0911
Zip	-11.0915
▁Simulate	-11.092
▁rectangular	-11.092
▁transparent	-11.0921
▁achieve	-11.0961
▁descending	-11.0961
▁determining	-11.0961
DOM	-11.0969
Geometry	-11.0981
scribe	-11.0983
mode	-11.0986
▁slide	-11.099
ung	-11.1003
▁termination	-11.1004
▁Flushes	-11.1012
Meta	-11.102
▁latitude	-11.1023
▁JNDI	-11.1023
▁fresh	-11.1023
▁quad	-11.1026
dict	-11.1029
Timeout	-11.1034
READ	-11.104
▁MSSBam	-11.1043
▁illegal	-11.1043
▁lazy	-11.1043
▁identification	-11.1043
▁spot	-11.1043
▁arrive	-11.1064
▁equation	-11.1064
▁maximal	-11.1064
▁hardware	-11.1065
Sql	-11.1065
▁JAR	-11.107
▁acceptable	-11.108
template	-11.1083
▁mapper	-11.1083
▁music	-11.1085
height	-11.1106
Scene	-11.1106
qualified	-11.1125
▁beyond	-11.1126
▁millisecond	-11.1147
▁Identifies	-11.1147
▁chromosome	-11.1147
▁radians	-11.1147
▁decoded	-11.1161
▁atomic	-11.1162
▁expiration	-11.1168
▁precedence	-11.1168
▁retrieval	-11.1168
▁standalone	-11.1168
▁opposite	-11.1189
domain	-11.1189
Bag	-11.1197
ordinate	-11.1207
▁Struts	-11.121
▁Requires	-11.121
▁Managed	-11.121
root	-11.1216
▁pretty	-11.1231
face	-11.1235
▁insertRow	-11.1241
▁decision	-11.1252
▁acquired	-11.1261
{@	-11.1269
Cookie	-11.1273
-----	-11.1282
force	-11.1284
▁blue	-11.1295
TOP	-11.1308
DATE	-11.131
result	-11.1318
▁chance	-11.1322
▁Take	-11.1331
▁little	-11.1337
Failed	-11.1338
status	-11.1338
Language	-11.1338
▁synchronize	-11.1338
▁quant	-11.1339
IV	-11.134
▁Google	-11.1358
▁providing	-11.1358
▁sector	-11.1358
▁dragging	-11.1358
Contact	-11.1359
▁packed	-11.1364
▁portlet	-11.1377
▁wheel	-11.138
▁colon	-11.1391
panel	-11.1409
▁potential	-11.1414
▁Fig	-11.1415
Supported	-11.1417
pane	-11.1421
▁lazily	-11.1423
▁severity	-11.1423
▁describe	-11.1432
▁discovery	-11.1437
▁near	-11.1437
▁Respond	-11.1444
▁Invalid	-11.1447
▁Collect	-11.1462
Procedure	-11.1466
▁neither	-11.1466
raw	-11.1476
API	-11.1483
▁FIXME	-11.1487
▁mirror	-11.1487
Initial	-11.149
Symbol	-11.149
direction	-11.1492
▁existence	-11.1503
hold	-11.1508
▁subscriber	-11.1509
▁pull	-11.1509
Chain	-11.1511
wrap	-11.1512
Cost	-11.153
▁encrypted	-11.1531
▁jRadioButton	-11.1533
Persist	-11.1534
▁testcase	-11.155
ABLE	-11.1551
Origin	-11.1552
▁axes	-11.1559
dependent	-11.1567
dimensional	-11.1571
Available	-11.1574
▁asynchronously	-11.1575
clockwise	-11.1579
▁pack	-11.1591
▁fxl	-11.1596
Platform	-11.1596
▁concurrent	-11.1598
encia	-11.1613
Polygon	-11.1618
▁Usually	-11.1618
▁dummy	-11.1618
▁precondition	-11.1621
▁mnemonic	-11.164
▁Fix	-11.1647
Individual	-11.1662
ORDER	-11.1662
TABLE	-11.1663
▁echo	-11.1672
▁Subsequent	-11.1684
▁slash	-11.1684
▁postback	-11.1688
▁sink	-11.1706
▁secure	-11.1706
+1	-11.1711
define	-11.1712
FORM	-11.1725
~	-11.1728
Country	-11.1732
▁bitmap	-11.1735
Media	-11.1738
▁easy	-11.175
▁correlation	-11.175
▁Listen	-11.1754
Kind	-11.1757
learn	-11.1763
COMM	-11.177
▁silently	-11.1772
▁anymore	-11.1772
▁improve	-11.1773
LINE	-11.1776
▁waypoint	-11.1781
▁recognized	-11.1791
▁OWL	-11.1795
ResultSet	-11.1799
Formula	-11.1805
▁effectively	-11.1806
ToolBar	-11.1819
▁PropertyChange	-11.1824
▁diagnostic	-11.1839
▁deactivate	-11.184
Pipe	-11.1844
Operator	-11.1846
▁Most	-11.185
Aggregate	-11.1862
▁expressed	-11.1862
▁instantiation	-11.1862
▁locate	-11.1865
Atom	-11.1874
▁swap	-11.1884
▁QName	-11.1887
copy	-11.1891
100	-11.1892
NONE	-11.1895
Xml	-11.1897
COMP	-11.1905
▁earlier	-11.1907
Diagram	-11.1907
▁alarm	-11.1907
▁exponent	-11.1908
interface	-11.1914
ious	-11.1918
Prop	-11.1919
▁gray	-11.1922
▁Similar	-11.1929
▁stock	-11.1932
just	-11.1937
▁JDOM	-11.1938
zip	-11.1951
▁accuracy	-11.1952
Slider	-11.1952
Stroke	-11.1952
request	-11.1959
▁Shutdown	-11.1975
Behavior	-11.1975
Chunk	-11.1975
123	-11.1991
▁giving	-11.1997
target	-11.2008
Poly	-11.2014
▁learning	-11.202
STATE	-11.2022
▁breakpoint	-11.2023
hashCode	-11.2028
▁unused	-11.2031
▁buddy	-11.2043
Metric	-11.2043
▁safely	-11.2049
▁energy	-11.2066
▁histogram	-11.2066
Modifier	-11.2067
Master	-11.2069
Team	-11.2095
Stop	-11.2113
▁jComboBox	-11.2119
▁inspect	-11.2135
Mark	-11.2155
▁concatenate	-11.2158
▁daemon	-11.2158
▁expansion	-11.2158
Game	-11.2169
▁>=	-11.2188
Head	-11.2191
▁DETALHA	-11.2204
Archive	-11.2204
▁matter	-11.2204
Quot	-11.2204
▁paper	-11.2204
Sensor	-11.2207
USER	-11.221
▁bag	-11.2215
compare	-11.2215
Decimal	-11.2227
▁company	-11.2229
▁transmit	-11.223
▁nice	-11.2234
▁potentially	-11.2237
▁Cast	-11.2242
ONE	-11.2247
▁concern	-11.2251
Week	-11.2254
▁decrease	-11.2298
▁routing	-11.2298
▁enforce	-11.2298
▁interpretation	-11.2302
libel	-11.2306
Basic	-11.2309
▁sym	-11.2312
without	-11.2314
▁establish	-11.2317
▁FOR	-11.2327
package	-11.2333
contains	-11.2333
▁GPS	-11.2341
▁damage	-11.2345
LEFT	-11.2345
▁Else	-11.2345
alias	-11.2351
▁directive	-11.2355
▁interpret	-11.2365
▁straight	-11.2368
▁membership	-11.2371
GUI	-11.2382
Exit	-11.2395
Callback	-11.2406
▁adjacent	-11.2415
Entries	-11.2416
▁FWT	-11.2416
500	-11.2416
▁combobox	-11.2419
1.0	-11.242
▁CDATA	-11.2423
Web	-11.2429
▁Invalidate	-11.2452
▁vendor	-11.2463
▁proceed	-11.2463
▁minimize	-11.2464
▁presses	-11.2464
▁Persistence	-11.2465
▁detection	-11.2473
Coord	-11.2473
buffer	-11.2477
▁why	-11.2496
connection	-11.2507
Cycle	-11.2511
▁prepend	-11.2511
▁stdout	-11.2511
▁javadoc	-11.2523
Minimum	-11.2535
▁motion	-11.2535
belonging	-11.2541
▁occurence	-11.2541
▁density	-11.2559
START	-11.2559
▁lease	-11.2563
task	-11.2576
▁substitute	-11.2583
▁Comparable	-11.2583
▁raise	-11.2587
▁recognize	-11.2588
▁deck	-11.2597
sample	-11.2603
▁study	-11.2607
▁dock	-11.261
Alias	-11.2611
folder	-11.2622
▁Pdf	-11.2632
▁submission	-11.2641
Animation	-11.2657
ITY	-11.2657
onym	-11.2659
function	-11.2671
▁associa	-11.2673
tick	-11.2673
▁vocabulary	-11.268
pivot	-11.268
▁strictly	-11.268
assign	-11.2681
▁shader	-11.2681
▁visualization	-11.2684
▁communicat	-11.27
▁splash	-11.2704
Facade	-11.2704
▁speak	-11.2704
▁Actually	-11.2704
▁indirectly	-11.2705
▁Resize	-11.2707
▁busy	-11.2719
▁contribution	-11.2729
▁fashion	-11.2729
▁audit	-11.2731
47	-11.2749
[1]	-11.2752
▁expensive	-11.2753
▁dash	-11.2764
▁stand	-11.2764
▁JSONObject	-11.2764
extension	-11.277
havi	-11.2772
output	-11.2773
▁stereo	-11.2778
▁transparency	-11.2778
EVENT	-11.2778
▁multicast	-11.278
▁manual	-11.2794
1][	-11.2794
Keyword	-11.2799
▁enclosed	-11.2802
▁explanation	-11.2802
▁modifies	-11.2802
▁responsibility	-11.2802
▁HttpServlet	-11.2803
▁cipher	-11.2827
▁executor	-11.2827
▁Multiple	-11.2829
▁deliver	-11.2839
▁marshall	-11.2852
BOOL	-11.2853
▁deserialization	-11.2854
wait	-11.287
Import	-11.287
▁Advance	-11.2878
▁Synchronize	-11.2902
▁demand	-11.2902
▁accurate	-11.2927
▁opaque	-11.2927
▁meaningful	-11.2928
sbc	-11.2935
▁Divide	-11.2952
▁capability	-11.2952
▁indication	-11.2977
Remote	-11.2997
▁cmd	-11.3003
▁outcome	-11.3005
FILE	-11.3006
Ok	-11.3008
▁Throw	-11.3017
session	-11.3023
▁envelope	-11.3027
▁consistency	-11.3029
▁credit	-11.3032
DatabaseMetaData	-11.304
Super	-11.3041
effect	-11.3047
xperiment	-11.3048
CHANGE	-11.3052
▁Locate	-11.3052
▁floor	-11.3052
IST	-11.3064
gui	-11.3067
PORT	-11.3068
gwt	-11.3074
▁Retorna	-11.3078
xxx	-11.308
float	-11.3099
RuntimeException	-11.3103
Angle	-11.3105
▁administrator	-11.3128
Numeric	-11.3129
throw	-11.3142
Network	-11.315
Desktop	-11.3154
▁capable	-11.3154
transform	-11.3154
▁caus	-11.3155
manager	-11.3176
Axis	-11.3176
▁broken	-11.3179
▁spatial	-11.3179
▁please	-11.3179
▁overflow	-11.3186
security	-11.3202
▁verbose	-11.3205
CLASS	-11.3205
▁CSV	-11.3205
Marker	-11.3208
▁prefer	-11.3212
document	-11.3228
▁trade	-11.3228
After	-11.3228
Light	-11.3231
ADOS	-11.3232
▁guess	-11.3257
▁vote	-11.3261
parameter	-11.328
▁increasing	-11.3282
▁Dispatch	-11.3285
Span	-11.3289
Parse	-11.3291
。	-11.3308
▁stay	-11.3315
▁lose	-11.3322
▁scheduling	-11.3334
▁sufficient	-11.3334
Fault	-11.3335
nombre	-11.3336
▁FTP	-11.3341
replace	-11.3347
Article	-11.336
DEBUG	-11.336
Security	-11.3385
Navigation	-11.3386
▁spawn	-11.3386
▁availability	-11.3386
▁genome	-11.3386
▁seperate	-11.3387
ACTION	-11.3389
ancia	-11.3399
▁primarily	-11.3413
Requirement	-11.3439
Calc	-11.3442
track	-11.3442
Zone	-11.3455
fetch	-11.3465
Modification	-11.3467
webobjects	-11.3467
office	-11.348
▁EOF	-11.3485
▁calculating	-11.3492
desc	-11.3492
Invocation	-11.3518
▁Smart	-11.3518
configure	-11.3523
append	-11.3523
▁similarity	-11.3524
▁RSS	-11.3538
▁wh	-11.354
param	-11.3543
Preferred	-11.3545
RIGHT	-11.3545
▁suppress	-11.3545
Pri	-11.3549
except	-11.355
▁cardinality	-11.3571
Material	-11.3571
Quantity	-11.3572
Distribution	-11.3598
▁Precondition	-11.3599
▁JSONArray	-11.36
▁mono	-11.3605
directory	-11.3626
▁Queries	-11.3651
speech	-11.3651
Console	-11.3652
▁careful	-11.3653
Ontology	-11.3678
Correct	-11.3705
▁sequential	-11.3705
Passes	-11.3728
Velocity	-11.3732
Destination	-11.3732
▁Finally	-11.3732
inclusive	-11.3735
plot	-11.3739
▁ground	-11.3759
▁money	-11.3759
Phase	-11.3781
▁intermediate	-11.3786
PROPERTY	-11.3814
▁strength	-11.3814
harmony	-11.3814
address	-11.3817
▁mutation	-11.3827
android	-11.3828
▁WHERE	-11.3841
Statistics	-11.3841
▁lexical	-11.3841
Actual	-11.3841
Credit	-11.3844
Forward	-11.3857
▁evaluator	-11.3896
▁decoding	-11.3896
▁license	-11.3896
▁terrain	-11.3896
▁timing	-11.3897
static	-11.3901
LIST	-11.3903
BASIC	-11.3923
Syntax	-11.3923
bayes	-11.3927
▁determin	-11.3938
▁appointment	-11.3951
▁pitch	-11.3951
▁Remember	-11.3953
Connect	-11.3976
Participant	-11.3979
▁corpus	-11.3979
▁verification	-11.3979
▁predecessor	-11.4007
▁recieve	-11.4007
related	-11.4011
metamodel	-11.4018
▁Compile	-11.4033
▁satisfied	-11.4034
▁micro	-11.4035
Insert	-11.404
SELECT	-11.404
▁motor	-11.4063
mask	-11.407
▁JMX	-11.409
▁eventually	-11.409
About	-11.4097
Http	-11.4125
▁privilege	-11.4147
▁annotated	-11.4147
Clause	-11.4147
protocol	-11.4154
▁magnitude	-11.4175
Pixel	-11.4175
Previous	-11.4203
▁Ship	-11.4203
PATH	-11.4204
▁permitted	-11.4205
witch	-11.4216
▁Customize	-11.4217
▁VisualAge	-11.4232
▁ClassCast	-11.4232
▁raster	-11.4232
▁encapsulat	-11.4232
TimeZone	-11.425
▁While	-11.426
Payment	-11.4261
▁Workflow	-11.4262
▁violate	-11.4289
▁roster	-11.4289
Power	-11.4291
Sdai	-11.4294
language	-11.4297
▁concatenation	-11.4317
▁decrement	-11.4317
▁programmer	-11.4322
Speed	-11.4324
▁Detect	-11.4327
Alter	-11.4334
▁Retreive	-11.4346
▁caught	-11.4346
▁software	-11.4346
InternalFrame	-11.4357
Write	-11.4375
▁harvest	-11.4375
▁pnl	-11.4375
Branch	-11.4404
▁carry	-11.4406
Employee	-11.4433
▁convenient	-11.4433
▁easier	-11.4433
▁Initialization	-11.4435
ibou	-11.4441
▁intercept	-11.4455
▁tune	-11.4456
▁Establish	-11.4462
▁critical	-11.4462
Glyph	-11.4462
before	-11.4473
resolve	-11.4473
Transfer	-11.4474
▁ensur	-11.4478
▁continuous	-11.4491
▁infinity	-11.4491
▁secret	-11.4491
Sell	-11.4516
▁eliminate	-11.452
▁resolving	-11.452
Dispatcher	-11.4521
Build	-11.4547
▁Allocate	-11.455
Scheme	-11.455
▁bitwise	-11.4552
structure	-11.4563
debug	-11.4591
Serializable	-11.4608
▁conjunction	-11.4608
▁serializable	-11.4608
layout	-11.4611
▁finalize	-11.4624
▁UPDATE	-11.4638
Vertical	-11.4638
▁Eclipse	-11.4668
▁gateway	-11.4668
▁polynomial	-11.4668
▁flash	-11.4668
Interaction	-11.4676
Endpoint	-11.4678
Criterion	-11.4697
▁fallback	-11.4698
MOVE	-11.4727
▁circular	-11.4727
▁flavor	-11.4727
SIZE	-11.4727
▁thumb	-11.4727
▁weapon	-11.4727
Vocab	-11.4727
Video	-11.4728
Delay	-11.4729
controller	-11.4742
▁typical	-11.4748
▁chapter	-11.4757
▁Depending	-11.4758
▁Shared	-11.4787
▁multiplied	-11.4788
▁ByteBuffer	-11.4789
Good	-11.4791
▁CPU	-11.4818
▁cert	-11.4819
high	-11.4826
IndexOutOfBounds	-11.4848
▁Possible	-11.4848
▁quaternion	-11.4848
▁travel	-11.4848
▁computing	-11.4848
▁verified	-11.4848
Surface	-11.4848
▁house	-11.4848
▁referred	-11.4851
Schedule	-11.4863
▁Decrement	-11.4878
▁cumulative	-11.4878
▁SMTP	-11.4878
memory	-11.4894
Separator	-11.4905
▁RACER	-11.4908
▁epoch	-11.4908
Mask	-11.491
▁division	-11.491
Consumer	-11.4922
▁interpolation	-11.4939
Digest	-11.4939
Iteration	-11.494
▁${	-11.4941
▁facility	-11.4969
▁calculator	-11.4969
when	-11.4986
architecture	-11.5
Success	-11.5
ActionPerformed	-11.5031
▁approach	-11.5062
▁behind	-11.5062
▁consecutive	-11.5062
▁snippet	-11.5062
▁boundaries	-11.5062
Credential	-11.5062
▁composed	-11.5062
Picture	-11.5062
▁encounter	-11.5065
Browse	-11.5082
Free	-11.5086
Evaluator	-11.5093
assemble	-11.5093
Robot	-11.5093
▁JAX	-11.5093
HEAD	-11.5097
RadioButton	-11.5121
▁Oracle	-11.5124
▁neighbour	-11.5124
▁tolerance	-11.5124
▁axiom	-11.5125
Percent	-11.5131
possibly	-11.5174
Analysis	-11.5186
▁nominal	-11.5186
Street	-11.5188
▁discrete	-11.5217
▁artist	-11.5218
▁SEG	-11.5218
Place	-11.5238
▁heartbeat	-11.5249
▁creature	-11.5249
Audit	-11.5252
Required	-11.5269
generate	-11.528
▁avatar	-11.528
▁invitation	-11.528
▁decorator	-11.5281
▁smooth	-11.5281
Allowed	-11.5292
▁traffic	-11.5312
▁intensity	-11.5312
▁heuristic	-11.5344
▁implied	-11.5376
▁reservation	-11.5376
▁cube	-11.5376
multipli	-11.5397
hibernate	-11.5398
password	-11.5398
Registration	-11.5408
Organization	-11.5408
▁descriptive	-11.5408
▁matrices	-11.5408
܂	-11.5667
用	-11.5967
一	-11.7659
个	-11.7902
为	-11.9311
Θ	-11.9311
̃	-11.9406
を	-11.9551
得	-12.0201
中	-12.0253
数	-12.041
对	-12.0463
定	-12.0896
Ԃ	-12.1234
ҵ	-12.1408
޼	-12.1466
取	-12.1525
将	-12.1703
擾	-12.1704
す	-12.1704
ִ	-12.2009
根	-12.2196
方	-12.2259
到	-12.2582
如	-12.2714
有	-12.3121
接	-12.326
法	-12.326
の	-12.3545
返	-12.3617
行	-12.3838
是	-12.3988
于	-12.4064
ü	-12.4217
ȡ	-12.4294
象	-12.4372
Ă	-12.4373
다	-12.4451
果	-12.453
Ե	-12.4611
时	-12.4772
し	-12.5189
é	-12.5361
ꂽ	-12.5361
在	-12.5535
를	-12.6079
回	-12.6172
́	-12.6267
μ	-12.6458
한	-12.6458
值	-12.6653
、	-12.6752
连	-12.7055
这	-12.7158
ó	-12.7158
κ	-12.7158
出	-12.7158
Ƿ	-12.7262
“	-12.7368
查	-12.7368
不	-12.7474
成	-12.7474
Ϊ	-12.7474
õ	-12.7582
һ	-12.7582
置	-12.7911
に	-12.7911
る	-12.7911
以	-12.7911
获	-12.8023
”	-12.8252
使	-12.8252
߰	-12.8368
ɦ	-12.8605
ま	-12.8605
除	-12.8726
和	-12.8848
前	-12.9096
Ͽ	-12.9223
作	-12.9223
新	-12.9351
Ȃ	-12.9481
入	-12.9612
ֵ	-12.9746
当	-12.9881
肳	-13.0157
е	-13.0297
件	-13.0298
表	-13.044
所	-13.0585
을	-13.0585
可	-13.0732
了	-13.0732
会	-13.0881
则	-13.1032
߂	-13.1033
ݒ	-13.1187
하	-13.1187
设	-13.1343
实	-13.1343
从	-13.1343
类	-13.1343
Ǵ	-13.1343
의	-13.1502
指	-13.1502
应	-13.1502
理	-13.1663
о	-13.1663
要	-13.1827
调	-13.1827
结	-13.1994
存	-13.1994
字	-13.2163
⁄	-13.2336
转	-13.2511
分	-13.2511
式	-13.2511
句	-13.2511
文	-13.2511
ł	-13.2511
Ƃ	-13.2511
息	-13.269
参	-13.269
ٴ	-13.269
后	-13.269
注	-13.269
名	-13.2872
이	-13.2872
·	-13.2872
׸	-13.2872
ꍇ	-13.2872
정	-13.2872
并	-13.3056
删	-13.3057
信	-13.3057
户	-13.3057
ɻ	-13.3245
Ǿ	-13.3245
更	-13.3438
ָ	-13.3438
自	-13.3633
编	-13.3634
̴	-13.3634
被	-13.3634
没	-13.3834
与	-13.3834
处	-13.3834
̏	-13.3834
下	-13.3834
加	-13.4038
°	-13.4038
я	-13.4038
에	-13.4038
否	-13.4038
者	-13.4246
例	-13.4246
ã	-13.4246
ڵ	-13.4246
性	-13.4246
过	-13.4459
或	-13.4459
解	-13.4459
ε	-13.4459
动	-13.4459
能	-13.4676
޾	-13.4676
는	-13.4676
通	-13.4899
页	-13.4899
ト	-13.4899
̎	-13.5126
属	-13.5126
选	-13.5126
试	-13.5358
建	-13.5358
û	-13.5358
ä	-13.5358
义	-13.5596
á	-13.5597
ʃ	-13.5597
ϸ	-13.5597
Ӧ	-13.5597
间	-13.584
认	-13.584
生	-13.584
该	-13.5841
关	-13.609
只	-13.609
录	-13.609
ǰ	-13.609
ʼ	-13.609
ɂ	-13.609
여	-13.609
析	-13.609
Ƽ	-13.6347
必	-13.6347
内	-13.6347
序	-13.6347
抛	-13.661
提	-13.661
̒	-13.661
̿	-13.661
λ	-13.661
其	-13.661
进	-13.688
改	-13.688
号	-13.688
̂	-13.688
列	-13.688
로	-13.688
т	-13.688
保	-13.688
れ	-13.688
容	-13.688
意	-13.7158
ö	-13.7158
ַ	-13.7158
た	-13.7158
始	-13.7158
测	-13.7444
程	-13.7444
配	-13.7444
换	-13.7444
か	-13.7444
化	-13.7444
态	-13.7444
Ʈ	-13.7444
ρ	-13.7444
’	-13.7444
て	-13.7444
ー	-13.7444
等	-13.7737
判	-13.7738
ȴ	-13.7738
θ	-13.7738
׷	-13.7738
情	-13.7738
合	-13.7738
现	-13.8041
把	-13.8041
码	-13.8041
子	-13.8041
が	-13.8041
最	-13.8353
上	-13.8353
݂	-13.8353
ǂ	-13.8353
Ƀ	-13.8353
ʂ	-13.8353
α	-13.8353
Ұ	-13.8353
ֱ	-13.8353
肷	-13.8353
邩	-13.8353
量	-13.8354
示	-13.8676
符	-13.8676
̸	-13.8676
서	-13.8676
で	-13.8676
器	-13.8676
次	-13.9009
ʽ	-13.9009
ͨ	-13.9009
ي	-13.9009
а	-13.9009
と	-13.9009
制	-13.9354
构	-13.9354
断	-13.9354
状	-13.9354
之	-13.9354
ļ	-13.9354
ʹ	-13.9354
需	-13.9354
面	-13.9354
包	-13.9711
写	-13.9711
и	-13.9711
용	-13.9711
״	-13.9711
ス	-13.9711
给	-13.9711
д	-13.9711
型	-13.9711
い	-13.9711
相	-13.9711
ッ	-13.9711
多	-13.9712
持	-14.0081
位	-14.0081
Ҫ	-14.0082
Ӱ	-14.0082
Լ	-14.0082
直	-14.0082
开	-14.0082
且	-14.0465
异	-14.0466
务	-14.0466
都	-14.0466
步	-14.0466
标	-14.0466
发	-14.0466
带	-14.0466
í	-14.0466
ƾ	-14.0466
β	-14.0466
票	-14.0466
해	-14.0466
函	-14.0466
记	-14.0466
ク	-14.0466
登	-14.0466
他	-14.0866
ġ	-14.0866
肵	-14.0866
보	-14.0866
引	-14.1283
束	-14.1283
变	-14.1283
가	-14.1283
Ȱ	-14.1283
̓	-14.1283
ѹ	-14.1283
串	-14.1283
格	-14.1283
ン	-14.1283
常	-14.1717
即	-14.1717
么	-14.1717
同	-14.1718
ǥ	-14.1718
ο	-14.1718
н	-14.1718
去	-14.2171
大	-14.2172
增	-14.2172
证	-14.2172
放	-14.2172
初	-14.2172
ũ	-14.2172
ؾ	-14.2172
库	-14.2172
条	-14.2172
未	-14.2647
本	-14.2648
目	-14.2648
ҳ	-14.2648
÷	-14.2648
ÿ	-14.2648
̺	-14.2648
͂	-14.2648
߿	-14.2648
폜	-14.2648
题	-14.2648
な	-14.2649
移	-14.2649
全	-14.2649
空	-14.2649
期	-14.265
然	-14.3147
事	-14.3148
터	-14.3148
Ŏ	-14.3148
ύ	-14.3148
϶	-14.3148
Ҽ	-14.3148
元	-14.3148
부	-14.3148
而	-14.3148
端	-14.3148
小	-14.3149
池	-14.3672
达	-14.3673
致	-14.3674
每	-14.3674
它	-14.3674
验	-14.3675
问	-14.3675
联	-14.3675
인	-14.3675
У	-14.3675
с	-14.3675
源	-14.3675
ı	-14.3675
Ȳ	-14.3675
̬	-14.3675
Ӽ	-14.3675
忡	-14.3675
되	-14.3675
준	-14.3675
지	-14.3675
×	-14.3675
б	-14.3675
此	-14.3675
检	-14.3675
口	-14.3675
明	-14.4228
话	-14.4229
签	-14.423
单	-14.423
总	-14.423
流	-14.423
路	-14.423
跳	-14.423
さ	-14.423
ͼ	-14.423
ת	-14.423
ص	-14.423
ڿ	-14.423
값	-14.423
ç	-14.423
送	-14.423
计	-14.423
外	-14.423
点	-14.423
资	-14.423
ら	-14.423
集	-14.423
正	-14.4818
来	-14.4818
功	-14.4818
重	-14.4818
模	-14.4818
确	-14.4818
å	-14.4819
ɕ	-14.4819
̌	-14.4819
̐	-14.4819
ԍ	-14.4819
郁	-14.4819
쐬	-14.4819
체	-14.4819
쳣	-14.4819
体	-14.4819
再	-14.4819
失	-14.5442
任	-14.5443
供	-14.5443
う	-14.5443
由	-14.5443
	-14.5444
ù	-14.5444
ĵ	-14.5444
̖	-14.5444
̰	-14.5444
ͬ	-14.5444
΂	-14.5444
Ή	-14.5444
ϳ	-14.5444
ݍ	-14.5444
⺻	-14.5444
з	-14.5444
ェ	-14.5444
オ	-14.5444
変	-14.5444
п	-14.5444
级	-14.5444
呼	-14.5444
顺	-14.5444
线	-14.611
み	-14.611
完	-14.611
Ł	-14.611
节	-14.611
装	-14.611
购	-14.611
	-14.611
ø	-14.611
ģ	-14.611
ū	-14.611
ŭ	-14.611
ӿ	-14.611
ٽ	-14.611
ڴ	-14.611
ێ	-14.611
돌	-14.611
려	-14.611
𑗐	-14.611
񻯴	-14.611
ル	-14.611
代	-14.611
こ	-14.611
は	-14.611
别	-14.611
因	-14.611
待	-14.6823
就	-14.6824
影	-14.6824
缓	-14.6824
请	-14.6824
那	-14.6824
绝	-14.6824
输	-14.6824
决	-14.6824
已	-14.6824
工	-14.6825
经	-14.6825
일	-14.6825
ā	-14.6825
ѡ	-14.6825
Ž	-14.6825
Ǹ	-14.6825
ʒ	-14.6825
ֻ	-14.6825
ڷ	-14.6825
ܼ	-14.6825
޸	-14.6825
록	-14.6825
성	-14.6825
δ	-14.6825
び	-14.6825
자	-14.6825
牌	-14.6825
里	-14.6825
セ	-14.6825
按	-14.6825
启	-14.6826
统	-14.6826
项	-14.7593
匹	-14.7594
预	-14.7594
в	-14.7594
ۂ	-14.7594
–	-14.7594
사	-14.7594
제	-14.7594
ŵ	-14.7594
ΰ	-14.7594
С	-14.7594
ׂ	-14.7594
ע	-14.7594
⿡	-14.7594
卡	-14.7594
反	-14.7594
対	-14.7594
된	-14.7594
쿡	-14.7594
ý	-14.7594
고	-14.7594
称	-14.7594
設	-14.7594
传	-14.7594
着	-14.7594
截	-14.7594
向	-14.7595
秒	-14.7595
系	-14.7595
响	-14.8426
何	-14.8427
求	-14.8427
限	-14.8427
第	-14.8427
译	-14.8427
张	-14.8427
复	-14.8427
知	-14.8427
部	-14.8427
§	-14.8427
Ű	-14.8427
ԋ	-14.8427
리	-14.8427
ķ	-14.8427
Ǘ	-14.8427
̕	-14.8427
̗	-14.8427
͵	-14.8427
Ϸ	-14.8427
г	-14.8427
ڑ	-14.8427
ݿ	-14.8427
载	-14.8427
鼭	-14.8427
으	-14.8427
행	-14.8427
	-14.8427
м	-14.8427
イ	-14.8427
ド	-14.8427
些	-14.8427
收	-14.8428
周	-14.8429
导	-14.9334
也	-14.9336
规	-14.9336
形	-14.9336
立	-14.9336
辑	-14.9336
才	-14.9336
令	-14.9336
公	-14.9336
ð	-14.9336
è	-14.9336
ô	-14.9336
ă	-14.9336
ư	-14.9336
ǵ	-14.9336
ʌ	-14.9336
̧	-14.9336
Ա	-14.9336
و	-14.9336
ڸ	-14.9336
߻	-14.9336
投	-14.9336
止	-14.9336
당	-14.9336
强	-14.9336
找	-14.9336
録	-14.9336
р	-14.9336
値	-14.9336
け	-14.9336
某	-14.9336
效	-14.9337
还	-14.9337
少	-14.9337
高	-15.0334
己	-15.0334
清	-15.0335
活	-15.0336
至	-15.0336
消	-15.0336
组	-15.0336
特	-15.0336
好	-15.0336
索	-15.0336
密	-15.0336
读	-15.0336
л	-15.0336
命	-15.0336
	-15.0336
ê	-15.0336
ò	-15.0336
č	-15.0336
Ķ	-15.0336
ĸ	-15.0336
Ļ	-15.0336
Ľ	-15.0336
ŗ	-15.0336
Ÿ	-15.0336
ƥ	-15.0336
Ȯ	-15.0336
ȸ	-15.0336
̔	-15.0336
Σ	-15.0336
ς	-15.0336
҂	-15.0336
Ҷ	-15.0336
Զ	-15.0336
ւ	-15.0336
֏	-15.0336
֡	-15.0336
ֶ	-15.0336
ض	-15.0336
ط	-15.0336
١	-15.0336
ړ	-15.0336
۾	-15.0336
≤	-15.0336
怎	-15.0336
深	-15.0336
어	-15.0336
타	-15.0336
𐶐	-15.0336
ȵ	-15.0336
등	-15.0336
입	-15.0336
Ѽ	-15.0336
照	-15.0336
无	-15.0336
链	-15.0336
場	-15.0336
看	-15.0337
择	-15.1447
括	-15.1447
显	-15.1447
论	-15.1447
よ	-15.1447
色	-15.1447
角	-15.1447
主	-15.1447
区	-15.1447
整	-15.1447
答	-15.1447
ɐ	-15.1447
구	-15.1447
실	-15.1447
있	-15.1447
¡	-15.1447
¿	-15.1447
à	-15.1447
ő	-15.1447
Ƭ	-15.1447
Ƶ	-15.1447
ɾ	-15.1447
̳	-15.1447
ͧ	-15.1447
ϊ	-15.1447
ӵ	-15.1447
ߺ	-15.1447
え	-15.1447
ラ	-15.1447
山	-15.1447
드	-15.1447
위	-15.1447
스	-15.1447
ō	-15.1447
せ	-15.1447
学	-15.1447
地	-15.1447
객	-15.1447
後	-15.1447
メ	-15.1447
友	-15.1447
終	-15.1447
超	-15.1451
真	-15.2695
但	-15.2695
布	-15.2697
释	-15.2697
及	-15.2697
员	-15.2697
逻	-15.2697
商	-15.2697
あ	-15.2697
范	-15.2697
造	-15.2697
も	-15.2697
タ	-15.2697
ú	-15.2697
Ʒ	-15.2697
̊	-15.2697
к	-15.2697
߁	-15.2697
ţ	-15.2697
ű	-15.2697
Ư	-15.2697
ƿ	-15.2697
ȫ	-15.2697
Ȼ	-15.2697
ȿ	-15.2697
ɒ	-15.2697
˵	-15.2697
̷	-15.2697
ͣ	-15.2697
ҧ	-15.2697
װ	-15.2697
ڣ	-15.2697
ڱ	-15.2697
ڶ	-15.2697
ۇ	-15.2697
司	-15.2697
邽	-15.2697
만	-15.2697
출	-15.2697
	-15.2697
򷵻	-15.2697
权	-15.2697
板	-15.2697
き	-15.2697
栏	-15.2697
ソ	-15.2697
两	-15.2697
替	-15.2697
种	-15.2697
原	-15.2697
時	-15.2697
足	-15.2697
打	-15.2698
闲	-15.2699
假	-15.4123
栈	-15.4125
我	-15.4125
缀	-15.4126
循	-15.4126
插	-15.4126
环	-15.4126
覆	-15.4126
경	-15.4126
テ	-15.4126
ċ	-15.4126
Ď	-15.4126
ē	-15.4126
ĕ	-15.4126
Ń	-15.4126
ŕ	-15.4126
ų	-15.4126
Ʋ	-15.4126
Ƴ	-15.4126
ǹ	-15.4126
ɏ	-15.4126
ɔ	-15.4126
˷	-15.4126
˹	-15.4126
̉	-15.4126
̱	-15.4126
ͳ	-15.4126
ͷ	-15.4126
Э	-15.4126
Ҳ	-15.4126
ӳ	-15.4126
Ը	-15.4126
֤	-15.4126
ײ	-15.4126
׳	-15.4126
ر	-15.4126
ۑ	-15.4126
ܹ	-15.4126
ܺ	-15.4126
ݵ	-15.4126
ݸ	-15.4126
޶	-15.4126
•	-15.4126
→	-15.4126
−	-15.4126
≥	-15.4126
拒	-15.4126
缳	-15.4126
软	-15.4126
鿡	-15.4126
기	-15.4126
든	-15.4126
력	-15.4126
은	-15.4126
콺	-15.4126
태	-15.4126
	-15.4126
𓾂	-15.4126
호	-15.4126
店	-15.4126
临	-15.4126
支	-15.4126
案	-15.4126
っ	-15.4126
圳	-15.4126
太	-15.4126
极	-15.4126
つ	-15.4126
产	-15.4126
另	-15.4126
考	-15.4126
射	-15.4126
封	-15.4126
フ	-15.4126
准	-15.4126
基	-15.4126
样	-15.4126
们	-15.4126
长	-15.4126
较	-15.4129
声	-15.5786
永	-15.5789
久	-15.5789
非	-15.5792
堆	-15.5792
汇	-15.5792
唯	-15.5792
搜	-15.5792
很	-15.5792
策	-15.5792
描	-15.5792
先	-15.5792
枠	-15.5792
静	-15.5792
啦	-15.5792
追	-15.5792
隔	-15.5792
처	-15.5792
ピ	-15.5792
プ	-15.5792
削	-15.5792
書	-15.5792
ʁ	-15.5793
͕	-15.5793
ν	-15.5793
	-15.5793
Ŭ	-15.5793
ƽ	-15.5793
Ƕ	-15.5793
ȏ	-15.5793
Ȥ	-15.5793
Ȩ	-15.5793
˴	-15.5793
͏	-15.5793
͓	-15.5793
у	-15.5793
ь	-15.5793
Ѻ	-15.5793
ҹ	-15.5793
ҽ	-15.5793
մ	-15.5793
յ	-15.5793
փ	-15.5793
֮	-15.5793
ּ	-15.5793
ٰ	-15.5793
݊	-15.5793
޽	-15.5793
Ⱑ	-15.5793
リ	-15.5793
协	-15.5793
炵	-15.5793
订	-15.5793
도	-15.5793
라	-15.5793
분	-15.5793
소	-15.5793
수	-15.5793
크	-15.5793
킹	-15.5793
𔻒	-15.5793
񂩂	-15.5793
滻	-15.5793
ř	-15.5793
品	-15.5793
実	-15.5793
排	-15.5793
だ	-15.5793
段	-15.5793
ば	-15.5793
動	-15.5793
址	-15.5793
层	-15.5793
映	-15.5793
レ	-15.5793
便	-15.5793
聚	-15.5793
ム	-15.5793
ポ	-15.5793
略	-15.5793
仍	-15.7789
做	-15.7792
年	-15.7792
展	-15.7792
战	-15.7792
具	-15.7792
派	-15.7792
册	-15.7792
游	-15.7792
込	-15.7792
読	-15.7792
头	-15.7792
父	-15.7792
网	-15.7792
见	-15.7792
Ä	-15.7792
ロ	-15.7792
速	-15.7792
ï	-15.7793
‘	-15.7793
却	-15.7793
铺	-15.7793
메	-15.7793
Ɓ	-15.7793
	-15.7793
Ĭ	-15.7793
ŏ	-15.7793
Ɩ	-15.7793
ƣ	-15.7793
Ǩ	-15.7793
ȷ	-15.7793
ɋ	-15.7793
ɵ	-15.7793
̶	-15.7793
̽	-15.7793
ͅ	-15.7793
Ђ	-15.7793
ҏ	-15.7793
ӧ	-15.7793
Ԫ	-15.7793
ռ	-15.7793
վ	-15.7793
ذ	-15.7793
ظ	-15.7793
ؿ	-15.7793
ڂ	-15.7793
ڻ	-15.7793
۴	-15.7793
ۿ	-15.7793
ݱ	-15.7793
ݴ	-15.7793
ݷ	-15.7793
޴	-15.7793
丄	-15.7793
尽	-15.7793
度	-15.7793
留	-15.7793
痕	-15.7793
迹	-15.7793
개	-15.7793
검	-15.7793
치	-15.7793
켣	-15.7793
특	-15.7793
할	-15.7793
형	-15.7793
󿡼	-15.7793
ֹ	-15.7793
鿴	-15.7793
뵽	-15.7793
덱	-15.7793
ǩ	-15.7793
Ⱦ	-15.7793
二	-15.7793
押	-15.7793
击	-15.7793
記	-15.7793
述	-15.7793
递	-15.7793
受	-15.7793
车	-15.7793
そ	-15.7793
パ	-15.7793
迭	-15.7793
继	-15.7794
望	-15.7796
抱	-16.029
控	-16.0291
远	-16.0291
毁	-16.0292
识	-16.0292
说	-16.0292
起	-16.0292
风	-16.0292
框	-16.0292
殊	-16.0292
局	-16.0292
盖	-16.0292
键	-16.0292
ュ	-16.0292
態	-16.0292
掉	-16.0292
虑	-16.0292
退	-16.0292
首	-16.0292
æ	-16.0292
ę	-16.0292
Δ	-16.0292
䵽	-16.0293
£	-16.0293
ñ	-16.0293
ź	-16.0293
ƃ	-16.0293
Ǻ	-16.0293
Ǽ	-16.0293
ǿ	-16.0293
ȥ	-16.0293
Ƚ	-16.0293
Ɉ	-16.0293
ɓ	-16.0293
ɫ	-16.0293
ɸ	-16.0293
˸	-16.0293
˾	-16.0293
̣	-16.0293
̻	-16.0293
͈	-16.0293
͐	-16.0293
͡	-16.0293
η	-16.0293
ѵ	-16.0293
ҡ	-16.0293
Ӳ	-16.0293
ӷ	-16.0293
ԭ	-16.0293
Բ	-16.0293
֧	-16.0293
ء	-16.0293
ڲ	-16.0293
ڼ	-16.0293
ܵ	-16.0293
݈	-16.0293
ݣ	-16.0293
ݺ	-16.0293
ݽ	-16.0293
ނ	-16.0293
༭	-16.0293
ᱻ	-16.0293
ṩ	-16.0293
⊓	-16.0293
ん	-16.0293
仅	-16.0293
實	-16.0293
悤	-16.0293
摜	-16.0293
滚	-16.0293
赞	-16.0293
邱	-16.0293
郊	-16.0293
鏈	-16.0293
게	-16.0293
공	-16.0293
과	-16.0293
내	-16.0293
낸	-16.0293
모	-16.0293
밪	-16.0293
삵	-16.0293
상	-16.0293
션	-16.0293
시	-16.0293
아	-16.0293
야	-16.0293
옵	-16.0293
전	-16.0293
조	-16.0293
주	-16.0293
증	-16.0293
찡	-16.0293
현	-16.0293
확	-16.0293
후	-16.0293
	-16.0293
	-16.0293
价	-16.0293
요	-16.0293
재	-16.0293
져	-16.0293
介	-16.0293
依	-16.0293
批	-16.0293
番	-16.0293
結	-16.0293
バ	-16.0293
历	-16.0293
シ	-16.0293
利	-16.0293
幻	-16.0293
暗	-16.0293
物	-16.0293
り	-16.0293
简	-16.0293
缺	-16.0293
コ	-16.0293
管	-16.0293
ア	-16.0293
告	-16.0293
省	-16.0293
错	-16.0293
開	-16.0293
满	-16.0293
几	-16.0293
承	-16.0295
减	-16.0296
希	-16.0297
额	-16.0297
缩	-16.0298
筛	-16.0302
坏	-16.3619
运	-16.3624
销	-16.3624
专	-16.3625
甚	-16.3625
终	-16.3625
场	-16.3625
家	-16.3625
扫	-16.3625
擎	-16.3625
尾	-16.3625
扩	-16.3626
架	-16.3626
约	-16.3626
厂	-16.3626
ァ	-16.3626
免	-16.3626
共	-16.3626
划	-16.3626
助	-16.3626
围	-16.3626
義	-16.3626
避	-16.3626
視	-16.3626
邮	-16.3626
±	-16.3626
Đ	-16.3626
΁	-16.3626
τ	-16.3626
親	-16.3626
词	-16.3626
따	-16.3626
진	-16.3626
	-16.3626
	-16.3626
¶	-16.3626
Å	-16.3626
Ē	-16.3626
Ĺ	-16.3626
ŋ	-16.3626
œ	-16.3626
ů	-16.3626
ŷ	-16.3626
ƌ	-16.3626
Ɠ	-16.3626
Ʊ	-16.3626
ƶ	-16.3626
ȃ	-16.3626
ȉ	-16.3626
ȹ	-16.3626
ɖ	-16.3626
ɰ	-16.3626
˳	-16.3626
͖	-16.3626
ͻ	-16.3626
Ϳ	-16.3626
γ	-16.3626
й	-16.3626
ч	-16.3626
ѳ	-16.3626
Җ	-16.3626
Ҿ	-16.3626
ӂ	-16.3626
Ӹ	-16.3626
ӽ	-16.3626
Խ	-16.3626
Կ	-16.3626
ա	-16.3626
գ	-16.3626
տ	-16.3626
ց	-16.3626
֥	-16.3626
؂	-16.3626
ا	-16.3626
ع	-16.3626
پ	-16.3626
ڰ	-16.3626
ݶ	-16.3626
ߓ	-16.3626
↦	-16.3626
わ	-16.3626
㷨	-16.3626
䡣	-16.3626
䰡	-16.3626
䱸	-16.3626
人	-16.3626
付	-16.3626
充	-16.3626
力	-16.3626
十	-16.3626
吔	-16.3626
恢	-16.3626
慢	-16.3626
會	-16.3626
母	-16.3626
续	-16.3626
课	-16.3626
身	-16.3626
逗	-16.3626
锁	-16.3626
ꂩ	-16.3626
ꂸ	-16.3626
ꖇ	-16.3626
계	-16.3626
날	-16.3626
대	-16.3626
동	-16.3626
롣	-16.3626
면	-16.3626
받	-16.3626
배	-16.3626
산	-16.3626
식	-16.3626
신	-16.3626
열	-16.3626
와	-16.3626
우	-16.3626
웹	-16.3626
읽	-16.3626
장	-16.3626
중	-16.3626
짜	-16.3626
추	-16.3626
코	-16.3626
킵	-16.3626
턴	-16.3626
페	-16.3626
회	-16.3626
	-16.3626
	-16.3626
﷨	-16.3626
𔭍	-16.3626
󂯂	-16.3626
󂯎	-16.3626
̋	-16.3626
Ф	-16.3626
げ	-16.3626
份	-16.3626
印	-16.3626
へ	-16.3626
エ	-16.3626
屏	-16.3626
竞	-16.3626
蔽	-16.3626
适	-16.3626
日	-16.3626
版	-16.3626
手	-16.3626
辆	-16.3626
础	-16.3626
业	-16.3626
感	-16.3626
搞	-16.3626
觉	-16.3626
易	-16.3626
毫	-16.3628
损	-16.8615
吃	-16.8623
楚	-16.8623
龄	-16.8623
针	-16.8624
丢	-16.8624
捕	-16.8624
政	-16.8624
估	-16.8625
离	-16.8625
评	-16.8625
险	-16.8625
县	-16.8625
挂	-16.8625
末	-16.8625
翻	-16.8625
呈	-16.8625
拼	-16.8625
推	-16.8625
荐	-16.8625
刚	-16.8625
占	-16.8625
委	-16.8625
急	-16.8625
抓	-16.8625
挥	-16.8625
景	-16.8625
無	-16.8625
坐	-16.8626
安	-16.8626
延	-16.8626
护	-16.8626
片	-16.8626
監	-16.8626
维	-16.8626
赋	-16.8626
階	-16.8626
電	-16.8626
音	-16.8626
差	-16.8626
х	-16.8626
储	-16.8626
填	-16.8626
層	-16.8626
染	-16.8626
決	-16.8626
糊	-16.8626
覧	-16.8626
遍	-16.8626
넷	-16.8626
š	-16.8626
ݕ	-16.8626
„	-16.8626
棋	-16.8626
들	-16.8626
못	-16.8626
저	-16.8626
É	-16.8626
ӹ	-16.8626
때	-16.8626
새	-16.8626
𒲂	-16.8626
󌋉	-16.8626
	-16.8626
	-16.8626
	-16.8626
	-16.8626
¤	-16.8626
¦	-16.8626
»	-16.8626
Â	-16.8626
Õ	-16.8626
ß	-16.8626
ą	-16.8626
đ	-16.8626
ě	-16.8626
Ī	-16.8626
Į	-16.8626
İ	-16.8626
ĺ	-16.8626
Œ	-16.8626
Ŕ	-16.8626
ž	-16.8626
Ɗ	-16.8626
Ǝ	-16.8626
Ə	-16.8626
ƒ	-16.8626
Ƹ	-16.8626
ƹ	-16.8626
ƻ	-16.8626
Ȋ	-16.8626
ȑ	-16.8626
Ȗ	-16.8626
Ȧ	-16.8626
ȶ	-16.8626
ɍ	-16.8626
ɗ	-16.8626
ɡ	-16.8626
ɨ	-16.8626
ɶ	-16.8626
ɼ	-16.8626
ʎ	-16.8626
ʏ	-16.8626
ʕ	-16.8626
ʡ	-16.8626
ʤ	-16.8626
ˮ	-16.8626
˰	-16.8626
˶	-16.8626
˿	-16.8626
͉	-16.8626
͌	-16.8626
͒	-16.8626
ͤ	-16.8626
Ͱ	-16.8626
Ͷ	-16.8626
͹	-16.8626
Υ	-16.8626
Χ	-16.8626
Ψ	-16.8626
ξ	-16.8626
ϡ	-16.8626
ϣ	-16.8626
М	-16.8626
Щ	-16.8626
ѭ	-16.8626
ҋ	-16.8626
ҥ	-16.8626
Ҵ	-16.8626
Ҹ	-16.8626
Ӥ	-16.8626
Ӷ	-16.8626
ԃ	-16.8626
ԣ	-16.8626
Թ	-16.8626
Ժ	-16.8626
֣	-16.8626
֯	-16.8626
ֲ	-16.8626
ׁ	-16.8626
أ	-16.8626
ز	-16.8626
ؽ	-16.8626
ى	-16.8626
ٿ	-16.8626
ہ	-16.8626
ۃ	-16.8626
ۊ	-16.8626
ە	-16.8626
ۼ	-16.8626
ܤ	-16.8626
ݑ	-16.8626
ݭ	-16.8626
ݰ	-16.8626
ݲ	-16.8626
ށ	-16.8626
ގ	-16.8626
ޱ	-16.8626
ߋ	-16.8626
ߴ	-16.8626
߾	-16.8626
༮	-16.8626
࿡	-16.8626
Ⴄ	-16.8626
᪺	-16.8626
—	-16.8626
∀	-16.8626
∈	-16.8626
∗	-16.8626
␳	-16.8626
⶧	-16.8626
く	-16.8626
ィ	-16.8626
キ	-16.8626
ゲ	-16.8626
ャ	-16.8626
㹾	-16.8626
䣬	-16.8626
予	-16.8626
争	-16.8626
什	-16.8626
余	-16.8626
佫	-16.8626
個	-16.8626
像	-16.8626
允	-16.8626
內	-16.8626
冲	-16.8626
剩	-16.8626
医	-16.8626
升	-16.8626
图	-16.8626
块	-16.8626
备	-16.8626
够	-16.8626
尔	-16.8626
弃	-16.8626
弄	-16.8626
归	-16.8626
従	-16.8626
忽	-16.8626
慮	-16.8626
拟	-16.8626
拨	-16.8626
授	-16.8626
擪	-16.8626
敗	-16.8626
數	-16.8626
施	-16.8626
晰	-16.8626
机	-16.8626
核	-16.8626
档	-16.8626
棬	-16.8626
珇	-16.8626
画	-16.8626
総	-16.8626
縦	-16.8626
繡	-16.8626
繵	-16.8626
绰	-16.8626
耗	-16.8626
若	-16.8626
让	-16.8626
议	-16.8626
许	-16.8626
访	-16.8626
责	-16.8626
费	-16.8626
迟	-16.8626
迡	-16.8626
道	-16.8626
郉	-16.8626
關	-16.8626
順	-16.8626
频	-16.8626
飬	-16.8626
鹷	-16.8626
ꏏ	-16.8626
ꤹ	-16.8626
건	-16.8626
규	-16.8626
깝	-16.8626
나	-16.8626
능	-16.8626
더	-16.8626
두	-16.8626
뒤	-16.8626
러	-16.8626
렇	-16.8626
룩	-16.8626
룺	-16.8626
릴	-16.8626
맞	-16.8626
뱅	-16.8626
뷽	-16.8626
뼺	-16.8626
뿪	-16.8626
속	-16.8626
쎌	-16.8626
씩	-16.8626
안	-16.8626
않	-16.8626
알	-16.8626
얻	-16.8626
없	-16.8626
오	-16.8626
음	-16.8626
잘	-16.8626
직	-16.8626
초	-16.8626
츦	-16.8626
킷	-16.8626
템	-16.8626
함	-16.8626
	-16.8626
	-16.8626
	-16.8626
𔭉	-16.8626
𖳌	-16.8626
𲽱	-16.8626
𸣰	-16.8626
񋟂	-16.8626
񐔂	-16.8626
󣬸	-16.8626
󣬿	-16.8626
󰡹	-16.8626
	-16.8626
ȱ	-16.8626
필	-16.8626
𒆂	-16.8626
ц	-16.8626
互	-16.8626
杨	-16.8626
涨	-16.8626
短	-16.8626
목	-16.8626
φ	-16.8626
Б	-16.8626
В	-16.8626
ォ	-16.8626
ベ	-16.8626
审	-16.8626
站	-16.8626
ち	-16.8626
今	-16.8626
単	-16.8626
往	-16.8626
曲	-16.8626
歌	-16.8626
洗	-16.8626
溜	-16.8626
現	-16.8626
电	-16.8626
租	-16.8626
規	-16.8626
视	-16.8626
负	-16.8626
陆	-16.8626
志	-16.8626
渲	-16.8626
グ	-16.8626
ネ	-16.8626
ミ	-16.8626
ワ	-16.8626
垄	-16.8626
帖	-16.8626
水	-16.8626
比	-16.8626
트	-17.8536
바	-17.8537
립	-17.8538
Р	-17.8539
尚	-17.854
삭	-17.8541
ど	-17.8542
테	-17.8543
블	-17.8544
服	-17.8545
味	-17.8546
생	-17.8547
败	-17.8548
計	-17.8549
尝	-17.855
刷	-17.8551
޹	-17.8552
ҷ	-17.8553
Ѿ	-17.8554
̈	-17.8555
Ɋ	-17.8556
际	-17.8557
闭	-17.8558
磺	-17.8559
@	-17.856
換	-17.856
拦	-17.8561
含	-17.8562
Ͼ	-17.8563
파	-17.8564
데	-17.8565
客	-17.8566
処	-17.8567
߳	-17.8568
Դ	-17.8569
변	-17.857
交	-17.8571
޵	-17.8572
Ώ	-17.8573
˻	-17.8574
설	-17.8575
绑	-17.8576
素	-17.8577
添	-17.8578
ブ	-17.8579
ジ	-17.858
ܰ	-17.8581
ֽ	-17.8582
ְ	-17.8583
Ɂ	-17.8584
趨	-17.8585
ɹ	-17.8586
Ɏ	-17.8587
般	-17.8588
径	-17.8589
ѯ	-17.859
̾	-17.8591
̑	-17.8592
ʾ	-17.8593
Ɍ	-17.8594
修	-17.8595
ɑ	-17.8596
ڽ	-17.8597
̍	-17.8598
候	-17.8599
̵	-17.86
算	-17.8601
Ѱ	-17.8602
ƴ	-17.8603
创	-17.8604
ٲ	-17.8605
ѱ	-17.8606
Է	-17.8607
况	-17.8608
반	-17.8609
־	-17.861
Ō	-17.8611
默	-17.8612
须	-17.8613
환	-17.8614
Ų	-17.8615
̹	-17.8616
ж	-17.8617
ʿ	-17.8618
语	-17.8619
操	-17.862
ȭ	-17.8621
崩	-17.8622
弹	-17.8622
泄	-17.8622
溃	-17.8622
漏	-17.8622
ȣ	-17.8622
ؼ	-17.8623
凡	-17.8624
听	-17.8624
奇	-17.8624
妙	-17.8624
微	-17.8624
怪	-17.8624
树	-17.8624
监	-17.8624
Ϣ	-17.8624
お	-17.8625
万	-17.8625
烈	-17.8625
询	-17.8625
ゾ	-17.8625
你	-17.8625
六	-17.8625
征	-17.8625
旧	-17.8625
演	-17.8625
申	-17.8625
藏	-17.8625
論	-17.8625
辅	-17.8625
釈	-17.8625
门	-17.8625
隆	-17.8625
隐	-17.8625
頭	-17.8625
Þ	-17.8626
づ	-17.8626
チ	-17.8626
ニ	-17.8626
倍	-17.8626
快	-17.8626
為	-17.8626
班	-17.8626
純	-17.8626
組	-17.8626
詳	-17.8626
采	-17.8626
Д	-17.8626
切	-17.8626
卖	-17.8626
於	-17.8626
確	-17.8626
虚	-17.8626
防	-17.8626
방	-17.8626
핸	-17.8626
Ș	-17.8626
ˬ	-17.8626
߽	-17.8626
裡	-17.8626
갯	-17.8626
린	-17.8626
범	-17.8626
올	-17.8626
	-17.8626
©	-17.8626
«	-17.8626
Ã	-17.8626
Ó	-17.8626
Ö	-17.8626
Ü	-17.8626
â	-17.8626
î	-17.8626
ć	-17.8626
Ċ	-17.8626
Č	-17.8626
Ĕ	-17.8626
Ė	-17.8626
ė	-17.8626
Ĥ	-17.8626
ň	-17.8626
Ŋ	-17.8626
Ő	-17.8626
Ŗ	-17.8626
ŧ	-17.8626
Ū	-17.8626
Ŵ	-17.8626
ż	-17.8626
ƈ	-17.8626
Ƌ	-17.8626
ƍ	-17.8626
Ƒ	-17.8626
Ɨ	-17.8626
ơ	-17.8626
Ƨ	-17.8626
ǣ	-17.8626
Ǥ	-17.8626
ǻ	-17.8626
ȍ	-17.8626
Ȏ	-17.8626
ȓ	-17.8626
ȗ	-17.8626
ș	-17.8626
ȼ	-17.8626
ɮ	-17.8626
ɲ	-17.8626
ɴ	-17.8626
ɽ	-17.8626
ɿ	-17.8626
ʐ	-17.8626
ʖ	-17.8626
ʣ	-17.8626
ʥ	-17.8626
ʺ	-17.8626
˭	-17.8626
˱	-17.8626
˲	-17.8626
˼	-17.8626
̤	-17.8626
̭	-17.8626
̼	-17.8626
͍	-17.8626
͎	-17.8626
͑	-17.8626
͢	-17.8626
ͥ	-17.8626
ͫ	-17.8626
ͱ	-17.8626
Ͳ	-17.8626
͸	-17.8626
Ρ	-17.8626
Τ	-17.8626
Φ	-17.8626
ά	-17.8626
ί	-17.8626
ζ	-17.8626
π	-17.8626
ψ	-17.8626
ϥ	-17.8626
ϻ	-17.8626
ϼ	-17.8626
Ͻ	-17.8626
Љ	-17.8626
А	-17.8626
Т	-17.8626
Х	-17.8626
Ч	-17.8626
ф	-17.8626
ш	-17.8626
ѷ	-17.8626
ѽ	-17.8626
ѿ	-17.8626
ҁ	-17.8626
҃	-17.8626
Ҍ	-17.8626
Ґ	-17.8626
Ғ	-17.8626
ң	-17.8626
Ҧ	-17.8626
ұ	-17.8626
Ӂ	-17.8626
ӡ	-17.8626
Ӣ	-17.8626
Ӫ	-17.8626
ӫ	-17.8626
Ԉ	-17.8626
Ԋ	-17.8626
Ԏ	-17.8626
Ԓ	-17.8626
ԓ	-17.8626
Ԗ	-17.8626
Ԥ	-17.8626
԰	-17.8626
դ	-17.8626
զ	-17.8626
ձ	-17.8626
ճ	-17.8626
ո	-17.8626
ս	-17.8626
։	-17.8626
֍	-17.8626
֐	-17.8626
֓	-17.8626
֕	-17.8626
֪	-17.8626
׃	-17.8626
ר	-17.8626
׵	-17.8626
׶	-17.8626
׹	-17.8626
׺	-17.8626
׼	-17.8626
׿	-17.8626
؎	-17.8626
؏	-17.8626
ؒ	-17.8626
إ	-17.8626
غ	-17.8626
ػ	-17.8626
ق	-17.8626
ٱ	-17.8626
ڋ	-17.8626
ڍ	-17.8626
ڐ	-17.8626
ڡ	-17.8626
ڹ	-17.8626
ں	-17.8626
ھ	-17.8626
۩	-17.8626
۰	-17.8626
۹	-17.8626
۽	-17.8626
ܭ	-17.8626
ܶ	-17.8626
ܾ	-17.8626
݁	-17.8626
ݎ	-17.8626
ݗ	-17.8626
ݡ	-17.8626
ݩ	-17.8626
ݹ	-17.8626
ݻ	-17.8626
ޏ	-17.8626
ޗ	-17.8626
޲	-17.8626
ߍ	-17.8626
ߵ	-17.8626
߶	-17.8626
߸	-17.8626
ణ	-17.8626
ಿ	-17.8626
Ⴂ	-17.8626
Ⴆ	-17.8626
ᡣ	-17.8626
ᱸ	-17.8626
ṹ	-17.8626
Ẻ	-17.8626
‐	-17.8626
′	-17.8626
€	-17.8626
√	-17.8626
≡	-17.8626
⣺	-17.8626
ⲿ	-17.8626
ⶫ	-17.8626
⸦	-17.8626
ぞ	-17.8626
べ	-17.8626
め	-17.8626
や	-17.8626
ダ	-17.8626
ツ	-17.8626
デ	-17.8626
ノ	-17.8626
ビ	-17.8626
ボ	-17.8626
マ	-17.8626
ョ	-17.8626
㣨	-17.8626
㣬	-17.8626
㱨	-17.8626
㲻	-17.8626
㷢	-17.8626
㹡	-17.8626
䂵	-17.8626
三	-17.8626
丮	-17.8626
丸	-17.8626
伯	-17.8626
係	-17.8626
停	-17.8626
側	-17.8626
傫	-17.8626
儿	-17.8626
克	-17.8626
則	-17.8626
剔	-17.8626
効	-17.8626
問	-17.8626
啶	-17.8626
善	-17.8626
域	-17.8626
天	-17.8626
岗	-17.8626
崇	-17.8626
嵥	-17.8626
嵵	-17.8626
席	-17.8626
平	-17.8626
彡	-17.8626
復	-17.8626
心	-17.8626
応	-17.8626
悷	-17.8626
戻	-17.8626
扄	-17.8626
报	-17.8626
拜	-17.8626
拷	-17.8626
掩	-17.8626
攻	-17.8626
敌	-17.8626
既	-17.8626
昵	-17.8626
校	-17.8626
榡	-17.8626
汾	-17.8626
油	-17.8626
浽	-17.8626
渽	-17.8626
激	-17.8626
濡	-17.8626
牺	-17.8626
率	-17.8626
玟	-17.8626
玲	-17.8626
珜	-17.8626
瑗	-17.8626
璼	-17.8626
產	-17.8626
畫	-17.8626
盟	-17.8626
硡	-17.8626
積	-17.8626
筆	-17.8626
篍	-17.8626
簢	-17.8626
籍	-17.8626
細	-17.8626
繁	-17.8626
纯	-17.8626
织	-17.8626
罫	-17.8626
胁	-17.8626
舵	-17.8626
良	-17.8626
莞	-17.8626
菜	-17.8626
蕪	-17.8626
蕶	-17.8626
触	-17.8626
觹	-17.8626
調	-17.8626
谷	-17.8626
质	-17.8626
走	-17.8626
踢	-17.8626
蹤	-17.8626
逆	-17.8626
透	-17.8626
這	-17.8626
進	-17.8626
過	-17.8626
選	-17.8626
郆	-17.8626
錒	-17.8626
錾	-17.8626
锕	-17.8626
镶	-17.8626
関	-17.8626
閾	-17.8626
闻	-17.8626
隹	-17.8626
零	-17.8626
須	-17.8626
預	-17.8626
題	-17.8626
顣	-17.8626
领	-17.8626
飩	-17.8626
駤	-17.8626
駵	-17.8626
鳤	-17.8626
鶧	-17.8626
鷽	-17.8626
鸸	-17.8626
ꂪ	-17.8626
ꊇ	-17.8626
ꎞ	-17.8626
꣬	-17.8626
ꤵ	-17.8626
ꤷ	-17.8626
각	-17.8626
같	-17.8626
것	-17.8626
결	-17.8626
관	-17.8626
균	-17.8626
닌	-17.8626
단	-17.8626
달	-17.8626
담	-17.8626
될	-17.8626
듯	-17.8626
래	-17.8626
량	-17.8626
레	-17.8626
료	-17.8626
루	-17.8626
뤺	-17.8626
름	-17.8626
매	-17.8626
문	-17.8626
미	-17.8626
및	-17.8626
뱳	-17.8626
볤	-17.8626
복	-17.8626
본	-17.8626
붙	-17.8626
뻺	-17.8626
뼶	-17.8626
뿡	-17.8626
색	-17.8626
순	-17.8626
싱	-17.8626
연	-17.8626
영	-17.8626
온	-17.8626
완	-17.8626
운	-17.8626
작	-17.8626
존	-17.8626
줿	-17.8626
즘	-17.8626
찥	-17.8626
청	-17.8626
츮	-17.8626
츸	-17.8626
캐	-17.8626
콬	-17.8626
쿣	-17.8626
쿼	-17.8626
키	-17.8626
킨	-17.8626
킸	-17.8626
통	-17.8626
평	-17.8626
푈	-17.8626
핑	-17.8626
혹	-17.8626
흉	-17.8626
	-17.8626
	-17.8626
	-17.8626
	-17.8626
	-17.8626
	-17.8626
	-17.8626
	-17.8626
	-17.8626
𑀍	-17.8626
𓝊	-17.8626
𕡐	-17.8626
𕪊	-17.8626
𕶎	-17.8626
𖼑	-17.8626
𖾎	-17.8626
𸣴	-17.8626
𿡼	-17.8626
񂪑	-17.8626
񂾂	-17.8626
񂾏	-17.8626
񃁃	-17.8626
񍐂	-17.8626
񑗐	-17.8626
񵽴	-17.8626
򣩵	-17.8626
򤹤	-17.8626
򱻵	-17.8626
򴴽	-17.8626
򵥵	-17.8626
򹹽	-17.8626
󂫗	-17.8626
󂷂	-17.8626
执	-17.8626
	-17.8626
ț	-17.8626
∙	-17.8626
쪺	-17.8626
発	-17.8626
귀	-17.8626
щ	-17.8626
ウ	-17.8626
カ	-17.8626
ハ	-17.8626
ヘ	-17.8626
㣺	-17.8626
吖	-17.8626
呵	-17.8626
啊	-17.8626
嗄	-17.8626
穴	-17.8626
箇	-17.8626
络	-17.8626
腌	-17.8626
贝	-17.8626
載	-17.8626
近	-17.8626
遇	-17.8626
阿	-17.8626
随	-17.8626
々	-17.8626
ゼ	-17.8626
モ	-17.8626
刘	-17.8626
南	-17.8626
固	-17.8626
均	-17.8626
婷	-17.8626
害	-17.8626
托	-17.8626
曾	-17.8626
柄	-17.8626
棄	-17.8626
機	-17.8626
残	-17.8626
破	-17.8626
舟	-17.8626
許	-17.8626
讲	-17.8626
間	-17.8626
障	-17.8626
～	-17.8626
ザ	-17.8627
ユ	-17.8627
寸	-17.8627
尺	-17.8627
左	-17.8627
ش	-17.8627
据	-17.8628
ȯ	-17.8629
Ѵ	-17.863
摧	-17.863
潜	-17.863
