<unk>	0
<s>	0
</s>	0
et	-0
er	-1
in	-2
);	-3
on	-4
▁}	-5
▁{	-6
te	-7
▁p	-8
le	-9
ti	-10
▁=	-11
re	-12
li	-13
get	-14
()	-15
tr	-16
or	-17
ub	-18
en	-19
is	-20
ur	-21
al	-22
th	-23
an	-24
lic	-25
▁n	-26
tion	-27
ublic	-28
▁public	-29
▁(	-30
▁r	-31
ce	-32
ing	-33
▁i	-34
ro	-35
▁s	-36
▁ret	-37
urn	-38
id	-39
▁v	-40
▁return	-41
es	-42
at	-43
ul	-44
ar	-45
▁c	-46
();	-47
tring	-48
am	-49
String	-50
ew	-51
el	-52
oid	-53
ec	-54
▁void	-55
as	-56
▁th	-57
ate	-58
ent	-59
int	-60
▁if	-61
▁f	-62
▁get	-63
ad	-64
se	-65
ull	-66
ex	-67
ue	-68
od	-69
ut	-70
st	-71
▁new	-72
Ex	-73
ac	-74
▁null	-75
ame	-76
ri	-77
ption	-78
ag	-79
In	-80
▁"	-81
("	-82
ol	-83
▁b	-84
ter	-85
ap	-86
lo	-87
ab	-88
▁this	-89
ty	-90
ect	-91
om	-92
ception	-93
Exception	-94
ed	-95
set	-96
▁d	-97
▁m	-98
▁String	-99
ch	-100
ment	-101
▁+	-102
un	-103
Con	-104
si	-105
▁set	-106
▁re	-107
alue	-108
per	-109
oo	-110
ile	-111
bj	-112
ation	-113
row	-114
add	-115
it	-116
Pro	-117
pe	-118
St	-119
age	-120
il	-121
Name	-122
Lis	-123
ser	-124
tem	-125
able	-126
bject	-127
▁int	-128
▁==	-129
ted	-130
ext	-131
ten	-132
▁throw	-133
ay	-134
");	-135
qu	-136
▁tr	-137
ode	-138
um	-139
▁e	-140
▁in	-141
to	-142
lean	-143
Re	-144
().	-145
tor	-146
oolean	-147
ve	-148
oc	-149
▁0	-150
ig	-151
ult	-152
▁o	-153
Object	-154
▁S	-155
());	-156
ction	-157
▁!	-158
Ch	-159
im	-160
▁pro	-161
las	-162
up	-163
));	-164
Ty	-165
ata	-166
riv	-167
▁!=	-168
end	-169
ren	-170
Com	-171
ow	-172
List	-173
Type	-174
cted	-175
ze	-176
oun	-177
▁boolean	-178
rivate	-179
lement	-180
and	-181
▁private	-182
Value	-183
En	-184
",	-185
dex	-186
ang	-187
ey	-188
▁I	-189
ator	-190
▁w	-191
alse	-192
ff	-193
File	-194
res	-195
lass	-196
Proper	-197
our	-198
ance	-199
sion	-200
bu	-201
put	-202
▁for	-203
▁throws	-204
())	-205
ic	-206
vent	-207
To	-208
atch	-209
Res	-210
ack	-211
else	-212
Text	-213
ess	-214
ource	-215
this	-216
new	-217
Pan	-218
▁else	-219
pl	-220
als	-221
rent	-222
xt	-223
▁t	-224
tener	-225
▁D	-226
ver	-227
▁j	-228
orm	-229
inal	-230
))	-231
len	-232
Id	-233
mo	-234
cri	-235
Se	-236
Property	-237
est	-238
ot	-239
▁res	-240
tri	-241
ild	-242
ali	-243
Col	-244
▁J	-245
con	-246
▁false	-247
ase	-248
reate	-249
Tr	-250
gth	-251
▁con	-252
ord	-253
▁A	-254
ef	-255
art	-256
▁lo	-257
vi	-258
Po	-259
eld	-260
us	-261
text	-262
ield	-263
out	-264
stance	-265
▁h	-266
tected	-267
ath	-268
tory	-269
▁protected	-270
quals	-271
ain	-272
▁l	-273
Element	-274
essage	-275
▁true	-276
Mod	-277
app	-278
rr	-279
(),	-280
ces	-281
escri	-282
ort	-283
▁add	-284
pon	-285
At	-286
aram	-287
rint	-288
▁<	-289
▁1	-290
▁value	-291
sert	-292
▁is	-293
Data	-294
▁try	-295
▁M	-296
Event	-297
Class	-298
▁catch	-299
og	-300
Listener	-301
Node	-302
length	-303
utt	-304
po	-305
ger	-306
ER	-307
Item	-308
utton	-309
ace	-310
move	-311
ure	-312
av	-313
▁ch	-314
▁-	-315
▁&	-316
▁g	-317
▁ex	-318
uble	-319
ouble	-320
ine	-321
▁)	-322
date	-323
[]	-324
tribu	-325
▁_	-326
▁0;	-327
ht	-328
ir	-329
name	-330
▁st	-331
Set	-332
ID	-333
▁B	-334
Field	-335
ount	-336
ffer	-337
ys	-338
Ad	-339
tribute	-340
▁as	-341
▁P	-342
Descri	-343
ize	-344
▁result	-345
ind	-346
ers	-347
test	-348
▁to	-349
ll	-350
).	-351
){	-352
ument	-353
em	-354
Loc	-355
Fac	-356
++	-357
key	-358
Model	-359
ax	-360
Button	-361
▁&&	-362
ore	-363
ystem	-364
append	-365
▁T	-366
Panel	-367
Sele	-368
print	-369
▁C	-370
ire	-371
▁a	-372
▁Object	-373
ON	-374
Key	-375
type	-376
urrent	-377
IN	-378
Index	-379
ans	-380
State	-381
ber	-382
Ser	-383
fo	-384
▁((	-385
ct	-386
Bu	-387
Action	-388
▁assert	-389
tent	-390
ptor	-391
▁:	-392
he	-393
▁final	-394
Tim	-395
terator	-396
mp	-397
ong	-398
Factory	-399
ponent	-400
\'	-401
equals	-402
fi	-403
Message	-404
iew	-405
fig	-406
▁>	-407
Descriptor	-408
▁);	-409
Chang	-410
cess	-411
ler	-412
▁R	-413
form	-414
ava	-415
▁test	-416
ection	-417
ream	-418
ound	-419
▁L	-420
pa	-421
size	-422
old	-423
try	-424
Of	-425
ault	-426
enu	-427
umn	-428
eck	-429
abel	-430
op	-431
UI	-432
ader	-433
ight	-434
ree	-435
Map	-436
▁*	-437
▁In	-438
anag	-439
vice	-440
▁create	-441
▁instance	-442
str	-443
efault	-444
Time	-445
yte	-446
rap	-447
Im	-448
rray	-449
Size	-450
action	-451
▁li	-452
Attribute	-453
tain	-454
read	-455
Num	-456
ail	-457
anager	-458
Un	-459
User	-460
";	-461
com	-462
Ed	-463
▁name	-464
▁log	-465
Pane	-466
loc	-467
▁|	-468
value	-469
AT	-470
Resource	-471
apter	-472
▁com	-473
UR	-474
),	-475
▁x	-476
Stream	-477
Path	-478
View	-479
Form	-480
roup	-481
EN	-482
Ac	-483
fer	-484
ST	-485
▁System	-486
quest	-487
iz	-488
Sc	-489
ties	-490
nection	-491
ln	-492
err	-493
has	-494
++)	-495
Component	-496
OR	-497
teger	-498
▁bu	-499
OException	-500
de	-501
Manager	-502
▁G	-503
null	-504
rite	-505
ession	-506
ts	-507
ard	-508
tim	-509
aw	-510
Context	-511
use	-512
AL	-513
next	-514
toString	-515
Out	-516
mand	-517
remove	-518
Table	-519
aramet	-520
tic	-521
eth	-522
Point	-523
all	-524
▁(!	-525
ence	-526
▁||	-527
An	-528
▁en	-529
▁wh	-530
uper	-531
ip	-532
of	-533
pro	-534
Err	-535
ocument	-536
final	-537
raph	-538
ak	-539
Menu	-540
lose	-541
ethod	-542
til	-543
sition	-544
▁F	-545
Info	-546
create	-547
▁double	-548
par	-549
println	-550
ector	-551
▁0)	-552
ayout	-553
update	-554
ress	-555
Color	-556
LE	-557
Error	-558
atus	-559
idth	-560
Qu	-561
tive	-562
ule	-563
rom	-564
0,	-565
itor	-566
lection	-567
eat	-568
Instance	-569
Ar	-570
\\	-571
ery	-572
index	-573
Content	-574
user	-575
trol	-576
Count	-577
sh	-578
arent	-579
▁file	-580
Buffer	-581
alu	-582
tif	-583
port	-584
Config	-585
▁2	-586
Result	-587
ml	-588
He	-589
▁se	-590
ial	-591
oot	-592
▁col	-593
De	-594
ont	-595
file	-596
arg	-597
Pre	-598
one	-599
Pl	-600
▁File	-601
Trans	-602
Th	-603
ject	-604
▁V	-605
yn	-606
act	-607
▁instanceof	-608
▁out	-609
ox	-610
ute	-611
abled	-612
Number	-613
Child	-614
▁index	-615
▁super	-616
loat	-617
▁while	-618
pt	-619
arget	-620
play	-621
alid	-622
All	-623
ib	-624
RE	-625
No	-626
leg	-627
ken	-628
Next	-629
▁y	-630
ask	-631
ork	-632
▁H	-633
▁key	-634
pec	-635
ilter	-636
];	-637
und	-638
tity	-639
Add	-640
Date	-641
Layout	-642
ML	-643
▁Exception	-644
ith	-645
Sh	-646
▁id	-647
Code	-648
▁/	-649
riter	-650
class	-651
bug	-652
Image	-653
Dis	-654
ann	-655
rid	-656
time	-657
Equals	-658
ink	-659
os	-660
gn	-661
col	-662
Hand	-663
▁case	-664
log	-665
Connection	-666
Up	-667
Log	-668
getName	-669
vel	-670
Array	-671
00	-672
ity	-673
putStream	-674
red	-675
Change	-676
▁sh	-677
Util	-678
ames	-679
ete	-680
Label	-681
order	-682
error	-683
ple	-684
tern	-685
stener	-686
TI	-687
Source	-688
alues	-689
Command	-690
▁IOException	-691
true	-692
▁loc	-693
Exp	-694
DE	-695
rame	-696
ust	-697
AR	-698
Selected	-699
▁the	-700
As	-701
Adapter	-702
▁remove	-703
Row	-704
ave	-705
ean	-706
On	-707
▁?	-708
▁at	-709
ale	-710
Group	-711
lear	-712
Column	-713
SE	-714
▁item	-715
▁object	-716
((	-717
▁data	-718
ponse	-719
arameter	-720
Enabled	-721
ly	-722
Pack	-723
Per	-724
di	-725
eature	-726
Tree	-727
(1	-728
ME	-729
boolean	-730
▁assertEquals	-731
if	-732
(){	-733
ary	-734
AN	-735
Arg	-736
ost	-737
Control	-738
Line	-739
Service	-740
legal	-741
sg	-742
arch	-743
stan	-744
Status	-745
Ref	-746
iti	-747
llegal	-748
For	-749
ayer	-750
ialog	-751
ari	-752
Entry	-753
java	-754
uration	-755
▁update	-756
Le	-757
Vis	-758
Format	-759
▁List	-760
Selection	-761
ash	-762
Request	-763
ion	-764
cl	-765
lock	-766
▁node	-767
ell	-768
false	-769
ache	-770
Stack	-771
ge	-772
TextField	-773
tains	-774
der	-775
▁.	-776
own	-777
aint	-778
RO	-779
Box	-780
QL	-781
ener	-782
Not	-783
▁type	-784
Default	-785
low	-786
ication	-787
indow	-788
Or	-789
TE	-790
gis	-791
Option	-792
ference	-793
.");	-794
lient	-795
Ver	-796
ass	-797
gin	-798
Collection	-799
roll	-800
Inter	-801
ange	-802
▁-1	-803
By	-804
Root	-805
▁W	-806
Document	-807
ron	-808
setText	-809
▁not	-810
Bound	-811
elete	-812
Changed	-813
URL	-814
gor	-815
▁getString	-816
getC	-817
Handler	-818
ast	-819
getP	-820
▁Integer	-821
ffset	-822
▁current	-823
▁start	-824
1.	-825
▁N	-826
word	-827
odel	-828
hasNext	-829
bo	-830
==	-831
Query	-832
Test	-833
event	-834
From	-835
"),	-836
Graph	-837
irst	-838
CE	-839
Str	-840
Rec	-841
Int	-842
▁check	-843
▁list	-844
current	-845
Properties	-846
ting	-847
Trace	-848
▁old	-849
▁long	-850
Token	-851
reak	-852
TY	-853
min	-854
▁Illegal	-855
Argument	-856
pace	-857
Mo	-858
Location	-859
last	-860
▁+=	-861
start	-862
tyle	-863
pp	-864
▁user	-865
getS	-866
vid	-867
iterator	-868
].	-869
\\"	-870
close	-871
"));	-872
aliz	-873
ible	-874
XML	-875
GE	-876
Package	-877
Constan	-878
SS	-879
Method	-880
Position	-881
uct	-882
sub	-883
▁dis	-884
data	-885
ifi	-886
0;	-887
write	-888
ilder	-889
ok	-890
val	-891
Par	-892
tainer	-893
ies	-894
uc	-895
0);	-896
raw	-897
Page	-898
▁text	-899
ock	-900
ook	-901
Width	-902
▁getC	-903
▁ser	-904
Check	-905
Char	-906
let	-907
Start	-908
element	-909
("_	-910
opy	-911
▁sb	-912
otif	-913
mpty	-914
▁arg	-915
Dec	-916
Len	-917
ENT	-918
ther	-919
▁ac	-920
▁listener	-921
")	-922
▁action	-923
contains	-924
▁O	-925
ages	-926
▁child	-927
▁message	-928
ner	-929
Bar	-930
ach	-931
Frame	-932
▁pre	-933
Dialog	-934
Def	-935
iter	-936
▁element	-937
pose	-938
perty	-939
▁Array	-940
▁getS	-941
▁"_	-942
Integer	-943
ob	-944
▁StringBuffer	-945
▁parent	-946
▁break	-947
angle	-948
ression	-949
UE	-950
ole	-951
string	-952
MA	-953
Input	-954
tp	-955
debug	-956
Tool	-957
[0	-958
Bounds	-959
With	-960
▁param	-961
▁be	-962
--	-963
End	-964
▁num	-965
Iterator	-966
Null	-967
▁java	-968
▁E	-969
Edit	-970
load	-971
▁row	-972
1,	-973
list	-974
lang	-975
Filter	-976
ender	-977
Bean	-978
Tag	-979
posi	-980
PE	-981
Editor	-982
"))	-983
Names	-984
Max	-985
feature	-986
▁sc	-987
▁0,	-988
ps	-989
imen	-990
ized	-991
Project	-992
uth	-993
Level	-994
▁syn	-995
ark	-996
▁de	-997
StackTrace	-998
▁buffer	-999
New	-1000
Response	-1001
tit	-1002
Entity	-1003
Session	-1004
▁event	-1005
node	-1006
Update	-1007
round	-1008
Constants	-1009
double	-1010
Scroll	-1011
imension	-1012
Address	-1013
older	-1014
parator	-1015
pare	-1016
▁po	-1017
Dir	-1018
▁");	-1019
Al	-1020
Length	-1021
AdapterFactory	-1022
ecute	-1023
plate	-1024
▁str	-1025
QLException	-1026
▁\'	-1027
ategor	-1028
itle	-1029
count	-1030
OM	-1031
__	-1032
Get	-1033
▁/*	-1034
ql	-1035
▁>=	-1036
Case	-1037
chron	-1038
Sub	-1039
Byte	-1040
▁fire	-1041
▁do	-1042
▁logger	-1043
Empty	-1044
▁he	-1045
▁max	-1046
2.	-1047
orted	-1048
ariable	-1049
Writer	-1050
Mode	-1051
VAL	-1052
Visible	-1053
url	-1054
AC	-1055
irec	-1056
▁par	-1057
Oper	-1058
pen	-1059
Lo	-1060
▁size	-1061
▁pl	-1062
sc	-1063
▁un	-1064
object	-1065
Height	-1066
▁getP	-1067
Utils	-1068
ated	-1069
printStackTrace	-1070
▁byte	-1071
Process	-1072
mage	-1073
clear	-1074
ill	-1075
Title	-1076
ition	-1077
IC	-1078
line	-1079
awt	-1080
True	-1081
LO	-1082
ret	-1083
rea	-1084
Icon	-1085
▁Vector	-1086
MenuItem	-1087
cept	-1088
▁it	-1089
▁Re	-1090
attern	-1091
▁obj	-1092
Builder	-1093
ram	-1094
chem	-1095
Window	-1096
Statement	-1097
ite	-1098
lected	-1099
ms	-1100
escription	-1101
ugin	-1102
fier	-1103
Configuration	-1104
▁float	-1105
assword	-1106
▁getJ	-1107
param	-1108
Met	-1109
andle	-1110
Thread	-1111
ations	-1112
Task	-1113
Server	-1114
▁column	-1115
dis	-1116
▁IllegalArgument	-1117
ix	-1118
query	-1119
▁ArrayList	-1120
alen	-1121
Container	-1122
▁write	-1123
▁1;	-1124
mb	-1125
▁synchron	-1126
ili	-1127
getValue	-1128
its	-1129
Hel	-1130
upp	-1131
ia	-1132
alize	-1133
▁cl	-1134
sed	-1135
untime	-1136
▁3	-1137
AME	-1138
io	-1139
annel	-1140
vider	-1141
lect	-1142
]);	-1143
odes	-1144
atab	-1145
sor	-1146
And	-1147
pre	-1148
▁read	-1149
ved	-1150
▁});	-1151
Ab	-1152
▁local	-1153
lication	-1154
ground	-1155
alidate	-1156
Valid	-1157
FI	-1158
Di	-1159
ING	-1160
back	-1161
pes	-1162
Constr	-1163
ION	-1164
ectangle	-1165
(0,	-1166
▁has	-1167
item	-1168
▁synchronized	-1169
▁run	-1170
Parameter	-1171
irectory	-1172
getInstance	-1173
▁label	-1174
Description	-1175
path	-1176
▁Iterator	-1177
temp	-1178
lag	-1179
getClass	-1180
Font	-1181
alend	-1182
Sp	-1183
getMessage	-1184
Min	-1185
Target	-1186
Descriptors	-1187
App	-1188
unction	-1189
▁context	-1190
TION	-1191
▁field	-1192
Work	-1193
▁or	-1194
Link	-1195
formed	-1196
▁*/	-1197
alendar	-1198
mit	-1199
▁on	-1200
▁end	-1201
Store	-1202
▁init	-1203
▁state	-1204
+"	-1205
Record	-1206
fix	-1207
enti	-1208
gister	-1209
ActionListener	-1210
Expression	-1211
ign	-1212
▁default	-1213
sp	-1214
ategory	-1215
▁X	-1216
ud	-1217
arr	-1218
Header	-1219
num	-1220
UL	-1221
ning	-1222
▁assertTrue	-1223
idget	-1224
▁al	-1225
Tem	-1226
Vector	-1227
arameters	-1228
▁"+	-1229
Reference	-1230
▁path	-1231
top	-1232
UT	-1233
Reader	-1234
ueue	-1235
atabase	-1236
Tab	-1237
ual	-1238
▁form	-1239
▁;	-1240
Style	-1241
parse	-1242
info	-1243
LA	-1244
tal	-1245
▁table	-1246
Values	-1247
enc	-1248
result	-1249
()));	-1250
▁load	-1251
Back	-1252
ified	-1253
point	-1254
parent	-1255
Output	-1256
Is	-1257
obj	-1258
▁model	-1259
▁Th	-1260
VALUE	-1261
▁Class	-1262
Elements	-1263
▁ed	-1264
ph	-1265
▁next	-1266
IOException	-1267
place	-1268
getString	-1269
atri	-1270
ome	-1271
▁exp	-1272
=0;	-1273
Impl	-1274
Locator	-1275
Display	-1276
URI	-1277
long	-1278
ick	-1279
max	-1280
OutputStream	-1281
Base	-1282
valid	-1283
ATE	-1284
▁class	-1285
vlet	-1286
ush	-1287
pected	-1288
▁my	-1289
Track	-1290
TR	-1291
Area	-1292
▁trans	-1293
ake	-1294
++;	-1295
▁buf	-1296
Transaction	-1297
▁count	-1298
▁sub	-1299
System	-1300
view	-1301
▁le	-1302
ScrollPane	-1303
Val	-1304
We	-1305
atrix	-1306
▁error	-1307
▁JButton	-1308
Part	-1309
Border	-1310
resh	-1311
ics	-1312
▁session	-1313
char	-1314
▁source	-1315
tension	-1316
▁Log	-1317
UN	-1318
title	-1319
ply	-1320
Local	-1321
Cell	-1322
byte	-1323
▁request	-1324
2,	-1325
tings	-1326
Version	-1327
chema	-1328
Long	-1329
▁toString	-1330
Unit	-1331
▁attribute	-1332
▁target	-1333
▁k	-1334
"+	-1335
Liter	-1336
Last	-1337
esc	-1338
▁property	-1339
ant	-1340
()).	-1341
lem	-1342
apping	-1343
▁print	-1344
not	-1345
erm	-1346
Cache	-1347
▁config	-1348
reen	-1349
ond	-1350
itch	-1351
Co	-1352
Rel	-1353
▁msg	-1354
upported	-1355
▁map	-1356
Comp	-1357
oke	-1358
▁getResource	-1359
▁initi	-1360
▁Element	-1361
omain	-1362
DI	-1363
ody	-1364
Double	-1365
md	-1366
substring	-1367
(_	-1368
ide	-1369
▁SQLException	-1370
ocket	-1371
ative	-1372
getF	-1373
Attributes	-1374
vis	-1375
InputStream	-1376
Render	-1377
▁an	-1378
description	-1379
inition	-1380
▁last	-1381
uld	-1382
▁fail	-1383
Performed	-1384
!=	-1385
▁Data	-1386
ancel	-1387
igh	-1388
SI	-1389
▁"";	-1390
ao	-1391
rl	-1392
▁Math	-1393
Gener	-1394
▁vis	-1395
Param	-1396
NAME	-1397
getRoot	-1398
Order	-1399
Enum	-1400
ttp	-1401
▁show	-1402
▁of	-1403
▁iter	-1404
Read	-1405
▁mo	-1406
TYPE	-1407
rc	-1408
Children	-1409
ape	-1410
ample	-1411
Provider	-1412
▁find	-1413
cript	-1414
face	-1415
ternal	-1416
CO	-1417
Controller	-1418
quence	-1419
getId	-1420
tn	-1421
untimeException	-1422
ati	-1423
Boolean	-1424
child	-1425
ie	-1426
Listeners	-1427
array	-1428
sign	-1429
▁Node	-1430
▁view	-1431
iled	-1432
Combo	-1433
cur	-1434
▁line	-1435
▁Rectangle	-1436
ght	-1437
Rule	-1438
Port	-1439
Search	-1440
imple	-1441
show	-1442
getText	-1443
sing	-1444
otify	-1445
tep	-1446
Block	-1447
▁Date	-1448
▁min	-1449
▁JPanel	-1450
witch	-1451
mote	-1452
DB	-1453
▁Ad	-1454
▁char	-1455
annot	-1456
ContentPane	-1457
xy	-1458
▁method	-1459
▁setC	-1460
adapter	-1461
▁other	-1462
Offset	-1463
setEnabled	-1464
PRO	-1465
CH	-1466
WT	-1467
▁Collection	-1468
Url	-1469
lot	-1470
▁process	-1471
led	-1472
AD	-1473
Over	-1474
mt	-1475
PropertyChange	-1476
Obj	-1477
▁Ser	-1478
TH	-1479
enter	-1480
ulti	-1481
pos	-1482
▁0);	-1483
essages	-1484
getProperty	-1485
ss	-1486
NO	-1487
CON	-1488
ility	-1489
()))	-1490
stract	-1491
0)	-1492
Client	-1493
Mem	-1494
local	-1495
▁ver	-1496
(0);	-1497
ep	-1498
ocus	-1499
rim	-1500
Helper	-1501
listener	-1502
Access	-1503
1);	-1504
width	-1505
message	-1506
[1	-1507
eed	-1508
Ag	-1509
lit	-1510
▁-1;	-1511
atic	-1512
▁close	-1513
▁Point	-1514
Pos	-1515
lob	-1516
▁Map	-1517
Directory	-1518
exp	-1519
ures	-1520
▁from	-1521
Mouse	-1522
server	-1523
my	-1524
undle	-1525
▁Item	-1526
Ali	-1527
getJ	-1528
KE	-1529
▁getF	-1530
Variable	-1531
Conn	-1532
▁clear	-1533
perties	-1534
AP	-1535
Constraint	-1536
rag	-1537
cod	-1538
▁",	-1539
Types	-1540
dition	-1541
ution	-1542
▁input	-1543
▁Bu	-1544
Spec	-1545
▁root	-1546
acter	-1547
db	-1548
▁conn	-1549
map	-1550
Conver	-1551
imum	-1552
▁q	-1553
Prog	-1554
ustom	-1555
gnore	-1556
2);	-1557
ission	-1558
valueOf	-1559
ause	-1560
ActionEvent	-1561
ailed	-1562
ref	-1563
▁length	-1564
Call	-1565
TO	-1566
▁content	-1567
ait	-1568
Template	-1569
Plugin	-1570
Range	-1571
▁comp	-1572
▁save	-1573
▁time	-1574
lis	-1575
Operation	-1576
▁temp	-1577
column	-1578
float	-1579
imal	-1580
▁entry	-1581
Doc	-1582
isEmpty	-1583
▁()	-1584
▁("	-1585
[0]	-1586
check	-1587
▁1);	-1588
Mon	-1589
▁url	-1590
field	-1591
Run	-1592
table	-1593
▁(((	-1594
▁<=	-1595
cei	-1596
▁pos	-1597
Det	-1598
Prefer	-1599
ft	-1600
Player	-1601
tex	-1602
ice	-1603
Notif	-1604
are	-1605
HT	-1606
▁1)	-1607
Role	-1608
▁Dimension	-1609
▁handle	-1610
Transform	-1611
source	-1612
Parent	-1613
rowable	-1614
▁ref	-1615
ERR	-1616
tivi	-1617
econd	-1618
inding	-1619
▁val	-1620
Cl	-1621
be	-1622
xml	-1623
▁send	-1624
Definition	-1625
work	-1626
Rad	-1627
▁tmp	-1628
▁resource	-1629
Lock	-1630
Ret	-1631
FA	-1632
▁(_	-1633
ursor	-1634
ere	-1635
▁query	-1636
ld	-1637
▁rec	-1638
Prod	-1639
LI	-1640
format	-1641
▁delete	-1642
ude	-1643
model	-1644
paint	-1645
indexOf	-1646
▁itemProperty	-1647
alized	-1648
▁Hash	-1649
ope	-1650
AX	-1651
state	-1652
ous	-1653
Literals	-1654
amp	-1655
BO	-1656
uto	-1657
▁4	-1658
quire	-1659
oom	-1660
The	-1661
adapterFactory	-1662
ched	-1663
otification	-1664
▁z	-1665
▁jButton	-1666
Be	-1667
alc	-1668
▁string	-1669
▁switch	-1670
do	-1671
Tracker	-1672
="	-1673
Channel	-1674
SC	-1675
Active	-1676
VE	-1677
execute	-1678
Compose	-1679
anel	-1680
conn	-1681
▁Boolean	-1682
▁ev	-1683
illis	-1684
posite	-1685
DA	-1686
Options	-1687
Separator	-1688
code	-1689
lick	-1690
ear	-1691
▁values	-1692
Viewer	-1693
lip	-1694
ATION	-1695
▁db	-1696
▁JTextField	-1697
ry	-1698
CT	-1699
Dep	-1700
ctor	-1701
PER	-1702
VER	-1703
▁output	-1704
Top	-1705
ould	-1706
1;	-1707
setBounds	-1708
copy	-1709
uage	-1710
Widget	-1711
▁Un	-1712
TA	-1713
▁getD	-1714
ments	-1715
Composeable	-1716
MP	-1717
ui	-1718
▁connection	-1719
cell	-1720
tivity	-1721
andom	-1722
entifier	-1723
Queue	-1724
util	-1725
US	-1726
▁Double	-1727
ble	-1728
▁actionPerformed	-1729
▁finally	-1730
Match	-1731
▁children	-1732
Bytes	-1733
upport	-1734
delete	-1735
ences	-1736
Pers	-1737
Edge	-1738
▁selected	-1739
Servlet	-1740
values	-1741
trans	-1742
Host	-1743
RI	-1744
▁Image	-1745
▁mod	-1746
Exec	-1747
pository	-1748
mod	-1749
▁width	-1750
height	-1751
createItem	-1752
Auth	-1753
uction	-1754
▁Color	-1755
af	-1756
Imp	-1757
gle	-1758
atas	-1759
UM	-1760
gr	-1761
Extension	-1762
5,	-1763
▁component	-1764
▁inter	-1765
Debug	-1766
Found	-1767
0.	-1768
KEY	-1769
gine	-1770
▁doc	-1771
ymb	-1772
ERROR	-1773
▁'	-1774
ists	-1775
▁group	-1776
MO	-1777
eration	-1778
0));	-1779
go	-1780
sWith	-1781
▁setS	-1782
ymbol	-1783
▁filter	-1784
entation	-1785
Loader	-1786
Items	-1787
Parser	-1788
Module	-1789
Open	-1790
▁response	-1791
Ind	-1792
getM	-1793
▁reset	-1794
Close	-1795
▁parse	-1796
mon	-1797
getD	-1798
Decimal	-1799
tiv	-1800
cs	-1801
▁getM	-1802
find	-1803
heet	-1804
ounter	-1805
ater	-1806
uccess	-1807
▁image	-1808
TER	-1809
ote	-1810
MS	-1811
ULT	-1812
Load	-1813
Create	-1814
Settings	-1815
▁Set	-1816
comp	-1817
▁format	-1818
mail	-1819
ify	-1820
Folder	-1821
(!	-1822
▁";	-1823
2)	-1824
Calendar	-1825
ower	-1826
▁Action	-1827
Background	-1828
Pattern	-1829
istory	-1830
tance	-1831
Function	-1832
EX	-1833
ank	-1834
ime	-1835
▁offset	-1836
gion	-1837
▁jPanel	-1838
▁0.	-1839
ComboBox	-1840
▁Thread	-1841
az	-1842
▁"\	-1843
wner	-1844
context	-1845
▁height	-1846
IMA	-1847
PO	-1848
getB	-1849
▁page	-1850
▁number	-1851
Annot	-1852
▁command	-1853
OG	-1854
tocol	-1855
▁exception	-1856
config	-1857
>();	-1858
getSelected	-1859
property	-1860
▁with	-1861
ED	-1862
ta	-1863
we	-1864
Locale	-1865
▁status	-1866
ish	-1867
Nodes	-1868
asic	-1869
Feat	-1870
▁sp	-1871
Sequence	-1872
uri	-1873
target	-1874
irection	-1875
Ignore	-1876
▁Com	-1877
▁button	-1878
ucture	-1879
andler	-1880
Files	-1881
icate	-1882
IMAGE	-1883
Meta	-1884
Matrix	-1885
entity	-1886
▁Se	-1887
▁initialize	-1888
org	-1889
▁getB	-1890
tend	-1891
▁Message	-1892
ical	-1893
Logger	-1894
1)	-1895
Character	-1896
tact	-1897
entry	-1898
request	-1899
Mapping	-1900
Application	-1901
IT	-1902
ANCE	-1903
BU	-1904
ecur	-1905
SO	-1906
group	-1907
wing	-1908
Current	-1909
▁Grid	-1910
setLayout	-1911
que	-1912
Initi	-1913
Del	-1914
izer	-1915
▁XML	-1916
▁info	-1917
▁color	-1918
position	-1919
Hash	-1920
resource	-1921
ory	-1922
CheckBox	-1923
▁can	-1924
ade	-1925
Ph	-1926
arning	-1927
vert	-1928
▁writer	-1929
..	-1930
plet	-1931
Focus	-1932
BLE	-1933
▁-1)	-1934
air	-1935
Password	-1936
Renderer	-1937
lobal	-1938
Down	-1939
▁fac	-1940
</	-1941
▁Border	-1942
ecurity	-1943
Modified	-1944
tili	-1945
getType	-1946
Interface	-1947
hash	-1948
▁Long	-1949
pareTo	-1950
tries	-1951
▁menu	-1952
match	-1953
Enumeration	-1954
Msg	-1955
Millis	-1956
oriz	-1957
Cap	-1958
Proxy	-1959
anguage	-1960
licy	-1961
mission	-1962
)).	-1963
FAULT	-1964
▁date	-1965
▁5	-1966
ating	-1967
lush	-1968
▁tag	-1969
(2	-1970
▁hash	-1971
._	-1972
▁U	-1973
ines	-1974
vious	-1975
Decl	-1976
open	-1977
▁notify	-1978
sum	-1979
erException	-1980
rapper	-1981
▁first	-1982
▁Default	-1983
msg	-1984
Graphics	-1985
igDecimal	-1986
over	-1987
setVisible	-1988
(3	-1989
containsKey	-1990
<?	-1991
FF	-1992
AGE	-1993
Pool	-1994
Detail	-1995
More	-1996
FileName	-1997
gistry	-1998
TreeNode	-1999
Pop	-2000
Agent	-2001
▁1,	-2002
▁display	-2003
▁Buffer	-2004
▁service	-2005
for	-2006
eft	-2007
StateException	-2008
eta	-2009
Ob	-2010
▁server	-2011
▁Pl	-2012
Parameters	-2013
ected	-2014
Term	-2015
rec	-2016
trim	-2017
▁control	-2018
▁match	-2019
Resol	-2020
▁di	-2021
Radio	-2022
▁ItemProperty	-2023
▁cur	-2024
Resources	-2025
Left	-2026
other	-2027
▁call	-2028
DO	-2029
▁args	-2030
bl	-2031
Ax	-2032
setValue	-2033
Messages	-2034
ek	-2035
▁validate	-2036
▁User	-2037
getDefault	-2038
sol	-2039
▁sto	-2040
▁rs	-2041
▁option	-2042
ataset	-2043
][	-2044
NotNull	-2045
root	-2046
ority	-2047
▁append	-2048
▁build	-2049
content	-2050
oice	-2051
getX	-2052
▁listeners	-2053
inc	-2054
▁token	-2055
inish	-2056
Card	-2057
▁document	-2058
selected	-2059
adata	-2060
Select	-2061
▁copy	-2062
▁gener	-2063
Ap	-2064
▁position	-2065
df	-2066
▁At	-2067
Pres	-2068
etch	-2069
lation	-2070
▁stop	-2071
tach	-2072
▁Adapter	-2073
OP	-2074
(\'	-2075
Profile	-2076
ason	-2077
ride	-2078
Preferred	-2079
Progress	-2080
LD	-2081
vas	-2082
Right	-2083
▁BorderLayout	-2084
getAttribute	-2085
ist	-2086
validate	-2087
ordin	-2088
▁};	-2089
Game	-2090
Su	-2091
First	-2092
Category	-2093
attribute	-2094
▁LOG	-2095
▁app	-2096
▁must	-2097
Ori	-2098
▁execute	-2099
▁Document	-2100
SP	-2101
label	-2102
▁len	-2103
▁As	-2104
▁found	-2105
▁properties	-2106
▁open	-2107
dir	-2108
NotFound	-2109
▁testGet	-2110
▁def	-2111
Print	-2112
store	-2113
▁sql	-2114
lease	-2115
Notification	-2116
▁URL	-2117
Rows	-2118
ulate	-2119
▁dec	-2120
ature	-2121
▁point	-2122
Flag	-2123
save	-2124
▁project	-2125
buffer	-2126
Only	-2127
▁"\'	-2128
**	-2129
Features	-2130
utable	-2131
river	-2132
▁Tree	-2133
Encod	-2134
UP	-2135
rup	-2136
▁port	-2137
▁grid	-2138
insert	-2139
▁tree	-2140
▁title	-2141
▁Graph	-2142
▁task	-2143
default	-2144
voke	-2145
▁Buffered	-2146
Grid	-2147
Ne	-2148
replace	-2149
init	-2150
tml	-2151
getParent	-2152
").	-2153
▁static	-2154
ward	-2155
input	-2156
OptionPane	-2157
▁equals	-2158
();)	-2159
ination	-2160
br	-2161
▁insert	-2162
cle	-2163
▁draw	-2164
11	-2165
▁ad	-2166
run	-2167
▁visit	-2168
Fields	-2169
tag	-2170
ooser	-2171
IS	-2172
▁put	-2173
▁Byte	-2174
tin	-2175
oin	-2176
▁xml	-2177
ability	-2178
Mark	-2179
atal	-2180
main	-2181
▁StringBuilder	-2182
(1,	-2183
efore	-2184
▁newValue	-2185
▁u	-2186
Xml	-2187
ient	-2188
iv	-2189
Utili	-2190
Remove	-2191
▁Command	-2192
Align	-2193
▁".	-2194
ev	-2195
Domain	-2196
Condition	-2197
loy	-2198
Gen	-2199
tro	-2200
ared	-2201
quired	-2202
▁entity	-2203
formation	-2204
Math	-2205
olog	-2206
Word	-2207
IgnoreCase	-2208
Product	-2209
Screen	-2210
Pri	-2211
nable	-2212
Show	-2213
2;	-2214
▁per	-2215
Prefix	-2216
▁SWT	-2217
▁imp	-2218
▁clone	-2219
Internal	-2220
Syn	-2221
Var	-2222
▁work	-2223
session	-2224
▁panel	-2225
initi	-2226
INST	-2227
ResultSet	-2228
Space	-2229
▁getValue	-2230
ency	-2231
hasMore	-2232
etwork	-2233
▁Dis	-2234
▁use	-2235
image	-2236
Constraints	-2237
Converter	-2238
Layer	-2239
Wh	-2240
ansition	-2241
supported	-2242
GEN	-2243
nown	-2244
Total	-2245
Job	-2246
ive	-2247
▁del	-2248
Scale	-2249
mark	-2250
▁make	-2251
>");	-2252
draw	-2253
aces	-2254
getY	-2255
▁params	-2256
clone	-2257
Return	-2258
bers	-2259
DAO	-2260
Results	-2261
iod	-2262
▁selection	-2263
edia	-2264
box	-2265
Http	-2266
▁Par	-2267
Throwable	-2268
Override	-2269
setSize	-2270
▁tab	-2271
▁client	-2272
OK	-2273
RadioButton	-2274
Relation	-2275
▁iterator	-2276
setSelected	-2277
Click	-2278
Op	-2279
=\\"	-2280
Bundle	-2281
▁")	-2282
flow	-2283
send	-2284
Account	-2285
Short	-2286
cy	-2287
FO	-2288
orre	-2289
Man	-2290
▁graph	-2291
▁we	-2292
ordinate	-2293
template	-2294
inter	-2295
Can	-2296
notification	-2297
Objects	-2298
▁JOptionPane	-2299
".	-2300
moved	-2301
struction	-2302
Tip	-2303
getKey	-2304
sql	-2305
Float	-2306
▁qu	-2307
Paint	-2308
▁Ab	-2309
Report	-2310
addElement	-2311
tx	-2312
ification	-2313
▁expected	-2314
▁Component	-2315
instance	-2316
sets	-2317
component	-2318
],	-2319
unk	-2320
▁select	-2321
SH	-2322
▁all	-2323
▁dir	-2324
down	-2325
Annotation	-2326
▁HashMap	-2327
getCurrent	-2328
Inv	-2329
▁Property	-2330
Use	-2331
▁im	-2332
Socket	-2333
Wrapper	-2334
INSTANCE	-2335
Axis	-2336
▁and	-2337
Feature	-2338
PAR	-2339
Day	-2340
method	-2341
oci	-2342
Cursor	-2343
▁player	-2344
ict	-2345
▁register	-2346
nl	-2347
Lower	-2348
tical	-2349
estamp	-2350
handle	-2351
▁frame	-2352
logger	-2353
▁Connection	-2354
estination	-2355
▁pack	-2356
Columns	-2357
solute	-2358
getResource	-2359
Policy	-2360
GENER	-2361
uster	-2362
equalsIgnoreCase	-2363
rs	-2364
ech	-2365
----	-2366
eo	-2367
Bag	-2368
so	-2369
elementAt	-2370
select	-2371
▁cell	-2372
▁base	-2373
Head	-2374
Interval	-2375
Database	-2376
Note	-2377
orizont	-2378
IG	-2379
▁{}	-2380
Save	-2381
doc	-2382
\\\\	-2383
ializ	-2384
Packet	-2385
▁St	-2386
▁getT	-2387
▁no	-2388
Play	-2389
▁ap	-2390
link	-2391
▁getName	-2392
▁search	-2393
NE	-2394
fire	-2395
sible	-2396
Script	-2397
getUser	-2398
eer	-2399
▁code	-2400
Main	-2401
orizontal	-2402
ats	-2403
SQLException	-2404
estion	-2405
▁100	-2406
arn	-2407
color	-2408
fs	-2409
▁Test	-2410
Av	-2411
Device	-2412
▁++	-2413
Delete	-2414
Activity	-2415
status	-2416
FOR	-2417
Step	-2418
PreferredSize	-2419
▁(!(	-2420
▁total	-2421
fter	-2422
clude	-2423
▁6	-2424
▁attr	-2425
▁valid	-2426
00,	-2427
filter	-2428
wer	-2429
▁txt	-2430
Binding	-2431
no	-2432
ology	-2433
Points	-2434
:"	-2435
page	-2436
bed	-2437
▁ren	-2438
elements	-2439
INE	-2440
Engine	-2441
gment	-2442
Generator	-2443
Abstract	-2444
service	-2445
Namespace	-2446
patch	-2447
au	-2448
Remote	-2449
active	-2450
nate	-2451
stop	-2452
accept	-2453
▁style	-2454
chedule	-2455
space	-2456
first	-2457
return	-2458
▁record	-2459
Cancel	-2460
(1);	-2461
▁btn	-2462
process	-2463
iber	-2464
ingle	-2465
the	-2466
legate	-2467
▁8	-2468
Conf	-2469
rupted	-2470
lassi	-2471
Protocol	-2472
Composite	-2473
()){	-2474
▁();	-2475
vices	-2476
▁Font	-2477
Handle	-2478
from	-2479
ined	-2480
COM	-2481
ounds	-2482
def	-2483
aster	-2484
▁cache	-2485
▁Resource	-2486
Member	-2487
bar	-2488
plete	-2489
▁"/	-2490
Chooser	-2491
Identifier	-2492
▁array	-2493
intValue	-2494
rop	-2495
("/	-2496
Move	-2497
▁parameter	-2498
Invalid	-2499
▁orig	-2500
[])	-2501
▁Sh	-2502
Me	-2503
▁pop	-2504
oard	-2505
▁[	-2506
Rect	-2507
▁Ac	-2508
att	-2509
hashCode	-2510
MENT	-2511
rimary	-2512
VI	-2513
▁factory	-2514
peed	-2515
▁org	-2516
Structure	-2517
▁Text	-2518
ibernate	-2519
getSource	-2520
getTime	-2521
▁evt	-2522
Lim	-2523
verse	-2524
Support	-2525
base	-2526
▁top	-2527
Des	-2528
▁store	-2529
GENERIC	-2530
▁mouse	-2531
parseInt	-2532
ending	-2533
Repository	-2534
SQL	-2535
tence	-2536
Params	-2537
Schema	-2538
▁Key	-2539
▁render	-2540
number	-2541
Web	-2542
("<	-2543
!");	-2544
COL	-2545
nt	-2546
▁link	-2547
▁prop	-2548
ZE	-2549
▁Ex	-2550
▁refresh	-2551
Vertex	-2552
register	-2553
ested	-2554
Owner	-2555
ClassName	-2556
Multi	-2557
▁main	-2558
DEFAULT	-2559
Post	-2560
Utilities	-2561
token	-2562
ene	-2563
Shape	-2564
Language	-2565
ott	-2566
getR	-2567
ATA	-2568
build	-2569
viron	-2570
Dimension	-2571
Registry	-2572
can	-2573
htable	-2574
hasMoreElements	-2575
oll	-2576
SON	-2577
Sign	-2578
ENTER	-2579
▁header	-2580
ONE	-2581
cre	-2582
Write	-2583
ached	-2584
("\	-2585
History	-2586
Tri	-2587
ixel	-2588
PRE	-2589
ulation	-2590
▁oper	-2591
Home	-2592
▁names	-2593
tract	-2594
scri	-2595
nextElement	-2596
tree	-2597
Look	-2598
▁that	-2599
den	-2600
▁Event	-2601
compareTo	-2602
ench	-2603
ume	-2604
Keys	-2605
Contact	-2606
16	-2607
Ass	-2608
buf	-2609
▁up	-2610
▁Link	-2611
▁stream	-2612
Permission	-2613
Java	-2614
▁should	-2615
izard	-2616
Sum	-2617
LL	-2618
PointerException	-2619
▁handler	-2620
dec	-2621
acity	-2622
Body	-2623
Popup	-2624
▁Abstract	-2625
▁des	-2626
▁Type	-2627
Desc	-2628
▁\'"	-2629
.",	-2630
Lib	-2631
▁Enumeration	-2632
ChangeListener	-2633
connection	-2634
ORD	-2635
lish	-2636
azz	-2637
▁InputStream	-2638
One	-2639
mar	-2640
▁attributes	-2641
andard	-2642
pack	-2643
▁window	-2644
tics	-2645
ged	-2646
assert	-2647
pc	-2648
graph	-2649
Comment	-2650
Processor	-2651
▁Attribute	-2652
ug	-2653
gorith	-2654
offset	-2655
vironment	-2656
entic	-2657
Cre	-2658
▁Model	-2659
▁filename	-2660
Draw	-2661
4,	-2662
▁ab	-2663
term	-2664
ashtable	-2665
▁contains	-2666
project	-2667
ottom	-2668
▁assertNotNull	-2669
Dt	-2670
avax	-2671
riteria	-2672
▁calc	-2673
ique	-2674
▁getText	-2675
children	-2676
("");	-2677
▁setF	-2678
reset	-2679
▁thread	-2680
inary	-2681
▁mon	-2682
gy	-2683
command	-2684
reg	-2685
▁Http	-2686
agn	-2687
)));	-2688
▁Table	-2689
RA	-2690
Split	-2691
▁spec	-2692
atis	-2693
Assign	-2694
troy	-2695
ruptedException	-2696
igure	-2697
▁host	-2698
late	-2699
startsWith	-2700
lowed	-2701
expected	-2702
host	-2703
charAt	-2704
Region	-2705
▁flag	-2706
[2	-2707
connect	-2708
getData	-2709
IP	-2710
cent	-2711
Simple	-2712
MAX	-2713
isDebug	-2714
▁JMenuItem	-2715
▁getProperty	-2716
board	-2717
If	-2718
ero	-2719
version	-2720
BL	-2721
▁over	-2722
rowser	-2723
(0	-2724
<?>	-2725
ES	-2726
kip	-2727
axis	-2728
qual	-2729
▁setValue	-2730
Stop	-2731
▁op	-2732
Information	-2733
Illegal	-2734
ced	-2735
PROPER	-2736
Series	-2737
▁\	-2738
mary	-2739
Login	-2740
ise	-2741
right	-2742
Rate	-2743
output	-2744
agram	-2745
anged	-2746
co	-2747
Absolute	-2748
_.	-2749
▁change	-2750
▁paint	-2751
▁move	-2752
ifier	-2753
▁dialog	-2754
Gr	-2755
▁Simple	-2756
▁address	-2757
▁version	-2758
gorithm	-2759
NumberOf	-2760
son	-2761
TextArea	-2762
Email	-2763
▁cal	-2764
Iter	-2765
system	-2766
12	-2767
▁constr	-2768
ane	-2769
[1]	-2770
▁right	-2771
Selector	-2772
Recei	-2773
orld	-2774
XT	-2775
Monitor	-2776
Auto	-2777
uple	-2778
▁location	-2779
ready	-2780
notify	-2781
getModel	-2782
MouseEvent	-2783
Rep	-2784
++){	-2785
ferences	-2786
(((	-2787
DF	-2788
udi	-2789
▁back	-2790
actual	-2791
currentTime	-2792
Transition	-2793
▁short	-2794
anch	-2795
Components	-2796
Pair	-2797
TP	-2798
LOG	-2799
▁De	-2800
▁rule	-2801
Weight	-2802
ycle	-2803
▁uri	-2804
Stroke	-2805
▁Run	-2806
▁stmt	-2807
setProperty	-2808
uctor	-2809
Failed	-2810
Scope	-2811
ingException	-2812
Seq	-2813
GER	-2814
SIZE	-2815
▁getR	-2816
issing	-2817
SER	-2818
▁font	-2819
IM	-2820
light	-2821
▁jTextField	-2822
exists	-2823
isDebugEnabled	-2824
▁Print	-2825
3,	-2826
oly	-2827
bench	-2828
keySet	-2829
ump	-2830
part	-2831
UID	-2832
Init	-2833
irect	-2834
▁getCurrent	-2835
TED	-2836
Alignment	-2837
uid	-2838
Atom	-2839
1()	-2840
flush	-2841
▁parameters	-2842
▁Null	-2843
oto	-2844
utor	-2845
Editable	-2846
Copy	-2847
nal	-2848
▁src	-2849
▁JScrollPane	-2850
▁options	-2851
document	-2852
edi	-2853
3.	-2854
('	-2855
▁Pre	-2856
▁editor	-2857
Sheet	-2858
control	-2859
END	-2860
button	-2861
getWidth	-2862
ped	-2863
▁setP	-2864
ric	-2865
Declar	-2866
setAttribute	-2867
▁items	-2868
CENTER	-2869
▁reader	-2870
▁order	-2871
tmp	-2872
Person	-2873
▁Display	-2874
Uri	-2875
Cons	-2876
tra	-2877
AS	-2878
HE	-2879
Details	-2880
MetaData	-2881
oreground	-2882
display	-2883
▁password	-2884
▁manager	-2885
▁tim	-2886
False	-2887
▁level	-2888
setName	-2889
Admin	-2890
change	-2891
Constant	-2892
avail	-2893
dispose	-2894
Db	-2895
leep	-2896
Zone	-2897
▁builder	-2898
▁cmd	-2899
Visitor	-2900
rows	-2901
LowerCase	-2902
▁co	-2903
▁idx	-2904
ma	-2905
SELE	-2906
menu	-2907
atalog	-2908
getChild	-2909
▁DB	-2910
names	-2911
▁App	-2912
Chart	-2913
▁elements	-2914
)){	-2915
location	-2916
▁fileName	-2917
xture	-2918
▁edit	-2919
Ok	-2920
Supported	-2921
Custom	-2922
bedPane	-2923
▁Properties	-2924
ood	-2925
MI	-2926
▁left	-2927
▁generate	-2928
▁jContentPane	-2929
▁mem	-2930
properties	-2931
types	-2932
ync	-2933
Factor	-2934
▁"<	-2935
known	-2936
▁Number	-2937
▁){	-2938
DATE	-2939
DATA	-2940
▁ar	-2941
left	-2942
Avail	-2943
getImage	-2944
Quali	-2945
▁Service	-2946
Section	-2947
BUG	-2948
PROPERTY	-2949
plex	-2950
short	-2951
▁ti	-2952
client	-2953
▁getClass	-2954
FILE	-2955
getHeight	-2956
▁props	-2957
tinue	-2958
)))	-2959
getField	-2960
SSAGE	-2961
▁part	-2962
)(	-2963
10	-2964
ChangeEvent	-2965
txt	-2966
(5	-2967
▁te	-2968
IF	-2969
▁pers	-2970
task	-2971
ier	-2972
▁tool	-2973
▁"\\"	-2974
eted	-2975
seException	-2976
▁ps	-2977
option	-2978
sty	-2979
Expr	-2980
ublish	-2981
Attr	-2982
vision	-2983
MIN	-2984
▁Error	-2985
omet	-2986
rt	-2987
▁"]	-2988
utdown	-2989
▁auth	-2990
orage	-2991
▁prefix	-2992
*/	-2993
ges	-2994
▁failed	-2995
Us	-2996
Tokenizer	-2997
AND	-2998
▁Value	-2999
getColumn	-3000
ited	-3001
search	-3002
▁ag	-3003
rie	-3004
▁lock	-3005
Symbol	-3006
▁2;	-3007
newInstance	-3008
AST	-3009
cal	-3010
Am	-3011
▁active	-3012
ookie	-3013
toLowerCase	-3014
Year	-3015
gener	-3016
Distance	-3017
Observer	-3018
▁was	-3019
player	-3020
▁dep	-3021
Shell	-3022
-1	-3023
()+"	-3024
ToolTip	-3025
Find	-3026
▁description	-3027
STR	-3028
cr	-3029
edList	-3030
▁argument	-3031
▁container	-3032
▁scale	-3033
avi	-3034
Preference	-3035
▁Unsupported	-3036
Timeout	-3037
High	-3038
ario	-3039
irm	-3040
Month	-3041
BagConstraints	-3042
▁Assert	-3043
man	-3044
Score	-3045
istent	-3046
ords	-3047
ee	-3048
anner	-3049
▁parser	-3050
Prob	-3051
clud	-3052
elp	-3053
2));	-3054
▁layout	-3055
Limit	-3056
full	-3057
me	-3058
▁sum	-3059
▁channel	-3060
Actions	-3061
okup	-3062
▁ph	-3063
font	-3064
SET	-3065
Build	-3066
OF	-3067
ORT	-3068
asure	-3069
▁Logger	-3070
mer	-3071
cb	-3072
pha	-3073
ors	-3074
▁results	-3075
idx	-3076
▁ByteArray	-3077
selection	-3078
ert	-3079
Contents	-3080
ship	-3081
des	-3082
ATTR	-3083
\');	-3084
▁1.	-3085
Fr	-3086
fied	-3087
▁Throwable	-3088
pared	-3089
ging	-3090
frame	-3091
▁JLabel	-3092
rinc	-3093
orrect	-3094
Help	-3095
HTML	-3096
>"	-3097
▁getMax	-3098
Non	-3099
▁setB	-3100
[]{	-3101
▁block	-3102
MESSAGE	-3103
CTION	-3104
unch	-3105
getElement	-3106
Tile	-3107
stream	-3108
getFile	-3109
ling	-3110
aluate	-3111
invoke	-3112
▁ind	-3113
ULL	-3114
TEXT	-3115
▁repaint	-3116
▁ali	-3117
rincip	-3118
(4	-3119
18	-3120
pop	-3121
udio	-3122
argin	-3123
addAll	-3124
wh	-3125
ased	-3126
▁ne	-3127
style	-3128
Events	-3129
Metadata	-3130
LAY	-3131
▁DE	-3132
▁icon	-3133
Red	-3134
trib	-3135
met	-3136
her	-3137
mem	-3138
▁Runnable	-3139
▁det	-3140
▁mark	-3141
Timer	-3142
fac	-3143
exit	-3144
econds	-3145
avig	-3146
ula	-3147
Upper	-3148
orter	-3149
▁play	-3150
TableModel	-3151
▁success	-3152
LOC	-3153
html	-3154
▁io	-3155
▁We	-3156
ACK	-3157
Warning	-3158
istence	-3159
sm	-3160
listeners	-3161
agnos	-3162
card	-3163
cp	-3164
Sample	-3165
▁convert	-3166
Te	-3167
▁bean	-3168
Global	-3169
BE	-3170
ni	-3171
sure	-3172
super	-3173
setLocation	-3174
http	-3175
Concept	-3176
...	-3177
Off	-3178
stall	-3179
[0];	-3180
cas	-3181
sd	-3182
▁BigDecimal	-3183
tax	-3184
ensor	-3185
OutOf	-3186
:/	-3187
Counter	-3188
▁pattern	-3189
▁tx	-3190
getNode	-3191
▁notification	-3192
grid	-3193
removeAll	-3194
▁var	-3195
▁getType	-3196
0000	-3197
arted	-3198
ctionary	-3199
aunch	-3200
▁Time	-3201
▁Session	-3202
ountry	-3203
Horizontal	-3204
Closed	-3205
src	-3206
Lines	-3207
ServletRequest	-3208
Environment	-3209
6,	-3210
available	-3211
Indi	-3212
ented	-3213
UserRef	-3214
ragment	-3215
sive	-3216
olve	-3217
▁game	-3218
inner	-3219
head	-3220
rency	-3221
INFO	-3222
ticle	-3223
ww	-3224
INT	-3225
Exit	-3226
Flow	-3227
Rectangle	-3228
any	-3229
address	-3230
ai	-3231
▁Le	-3232
trace	-3233
ker	-3234
make	-3235
▁mode	-3236
duct	-3237
Dig	-3238
Execution	-3239
eme	-3240
Prop	-3241
ular	-3242
ius	-3243
▁Query	-3244
Sim	-3245
▁recei	-3246
setPreferredSize	-3247
▁post	-3248
Ev	-3249
2()	-3250
▁Inter	-3251
www	-3252
NS	-3253
nap	-3254
getSelection	-3255
Operator	-3256
getSize	-3257
▁system	-3258
▁Float	-3259
net	-3260
Org	-3261
lay	-3262
attr	-3263
kit	-3264
ationException	-3265
ym	-3266
totype	-3267
▁assertFalse	-3268
soap	-3269
▁K	-3270
Import	-3271
▁SAX	-3272
catch	-3273
getPath	-3274
▁No	-3275
emon	-3276
▁Entity	-3277
Depend	-3278
lector	-3279
icon	-3280
gress	-3281
▁,	-3282
▁files	-3283
GUI	-3284
Entries	-3285
▁getImage	-3286
▁hashCode	-3287
Tick	-3288
warn	-3289
sort	-3290
Dirty	-3291
Norm	-3292
MenuBar	-3293
CLA	-3294
▁me	-3295
ategy	-3296
▁Calendar	-3297
OW	-3298
Attach	-3299
level	-3300
▁\\"	-3301
PL	-3302
aved	-3303
lider	-3304
Notify	-3305
▁fields	-3306
▁head	-3307
▁role	-3308
cc	-3309
Period	-3310
BigDecimal	-3311
GL	-3312
call	-3313
ertif	-3314
var	-3315
▁rows	-3316
▁el	-3317
ocation	-3318
▁<<	-3319
FormatException	-3320
▁Form	-3321
▁Mo	-3322
era	-3323
▁cancel	-3324
▁jScrollPane	-3325
oper	-3326
▁dest	-3327
▁template	-3328
▁25	-3329
▁am	-3330
apped	-3331
bean	-3332
prop	-3333
Resolver	-3334
====	-3335
Required	-3336
▁Basic	-3337
Callback	-3338
tab	-3339
ffect	-3340
▁apply	-3341
Available	-3342
Pressed	-3343
(",	-3344
igInteger	-3345
eINSTANCE	-3346
Instruction	-3347
ness	-3348
Ont	-3349
▁2)	-3350
▁continue	-3351
ou	-3352
inished	-3353
ticip	-3354
(-	-3355
Fail	-3356
record	-3357
};	-3358
▁HashSet	-3359
cache	-3360
Temp	-3361
This	-3362
Transfer	-3363
pr	-3364
▁extend	-3365
▁setM	-3366
▁unit	-3367
fill	-3368
▁report	-3369
▁Method	-3370
FORM	-3371
elf	-3372
▁IN	-3373
▁ResultSet	-3374
Errors	-3375
Dataset	-3376
Mutable	-3377
wo	-3378
book	-3379
8,	-3380
Timestamp	-3381
Encoding	-3382
Associ	-3383
WAR	-3384
ACTION	-3385
filename	-3386
▁body	-3387
ToolBar	-3388
▁accept	-3389
pati	-3390
▁sort	-3391
sTo	-3392
Real	-3393
USER	-3394
auth	-3395
oute	-3396
Reg	-3397
losing	-3398
20	-3399
CM	-3400
▁":	-3401
rincipal	-3402
▁ID	-3403
LINE	-3404
parameter	-3405
Preferences	-3406
Site	-3407
ado	-3408
setTitle	-3409
Declaration	-3410
olume	-3411
After	-3412
Cannot	-3413
atient	-3414
▁Remote	-3415
Pred	-3416
reshold	-3417
unc	-3418
edit	-3419
DEBUG	-3420
Holder	-3421
▁Field	-3422
▁Sc	-3423
ktop	-3424
▁replace	-3425
del	-3426
IndexOf	-3427
OUT	-3428
header	-3429
Minimum	-3430
▁Hashtable	-3431
▁getData	-3432
Bus	-3433
Activ	-3434
separator	-3435
▁ob	-3436
ArrayList	-3437
Topic	-3438
Sort	-3439
▁An	-3440
serv	-3441
spec	-3442
▁jSeparator	-3443
wn	-3444
▁oldValue	-3445
just	-3446
dbc	-3447
▁stack	-3448
Initial	-3449
▁Index	-3450
cm	-3451
Connector	-3452
isSelected	-3453
dd	-3454
Cur	-3455
ixture	-3456
getLength	-3457
▁getDefault	-3458
Insert	-3459
://	-3460
[0].	-3461
▁getSelected	-3462
Ge	-3463
IL	-3464
▁debug	-3465
Direction	-3466
RuntimeException	-3467
Core	-3468
ABLE	-3469
Network	-3470
Amount	-3471
Buttons	-3472
▁getAttribute	-3473
Ids	-3474
▁keys	-3475
▁wait	-3476
Lookup	-3477
▁changed	-3478
▁getUser	-3479
SU	-3480
Literal	-3481
api	-3482
▁Add	-3483
Endpoint	-3484
TabbedPane	-3485
DOM	-3486
lim	-3487
Html	-3488
▁).	-3489
▁actual	-3490
ware	-3491
▁os	-3492
▁cannot	-3493
▁configuration	-3494
ighb	-3495
▁className	-3496
iece	-3497
getAbsolute	-3498
Viewport	-3499
▁ok	-3500
dep	-3501
])	-3502
words	-3503
▁getParent	-3504
Memory	-3505
OutOfBounds	-3506
achine	-3507
arge	-3508
ertificate	-3509
00);	-3510
▁Ch	-3511
Register	-3512
ette	-3513
▁fill	-3514
Constructor	-3515
panel	-3516
Could	-3517
Book	-3518
Such	-3519
Reason	-3520
Plan	-3521
▁""	-3522
prefix	-3523
Complet	-3524
▁bounds	-3525
gram	-3526
mode	-3527
ization	-3528
ONT	-3529
▁empty	-3530
▁locale	-3531
Program	-3532
IO	-3533
Instances	-3534
response	-3535
JE	-3536
MODE	-3537
▁variable	-3538
ality	-3539
ToString	-3540
Drag	-3541
rics	-3542
▁does	-3543
Br	-3544
▁rect	-3545
getChildren	-3546
Dao	-3547
▁off	-3548
▁Pers	-3549
getComponent	-3550
SK	-3551
▁encod	-3552
Question	-3553
imation	-3554
▁compare	-3555
TIME	-3556
Send	-3557
QU	-3558
requ	-3559
▁Collections	-3560
▁-=	-3561
--;	-3562
pret	-3563
repaint	-3564
▁setField	-3565
day	-3566
▁bytes	-3567
alization	-3568
SWT	-3569
ixed	-3570
cessible	-3571
▁username	-3572
req	-3573
)");	-3574
acao	-3575
▁Z	-3576
ian	-3577
args	-3578
crement	-3579
iness	-3580
abs	-3581
sertion	-3582
Classes	-3583
kill	-3584
▁getColumn	-3585
utils	-3586
▁>>	-3587
▁module	-3588
Do	-3589
split	-3590
ne	-3591
arraycopy	-3592
riority	-3593
▁"");	-3594
Filename	-3595
▁Gener	-3596
▁Configuration	-3597
ASE	-3598
havi	-3599
way	-3600
▁step	-3601
▁range	-3602
Full	-3603
ific	-3604
tf	-3605
ffix	-3606
clu	-3607
Wizard	-3608
escriptor	-3609
});	-3610
External	-3611
chor	-3612
ORI	-3613
▁testSet	-3614
paredStatement	-3615
SplitPane	-3616
(""))	-3617
▁enable	-3618
Idx	-3619
CLASS	-3620
Ast	-3621
▁edge	-3622
ux	-3623
▁database	-3624
aj	-3625
Added	-3626
▁nodes	-3627
tribution	-3628
▁owner	-3629
>>	-3630
setBackground	-3631
undo	-3632
▁Project	-3633
amera	-3634
▁Ver	-3635
▁att	-3636
Differ	-3637
Running	-3638
ggle	-3639
lassifier	-3640
▁previous	-3641
Mail	-3642
Wait	-3643
NING	-3644
▁2);	-3645
lers	-3646
▁norm	-3647
Groups	-3648
Ter	-3649
Anal	-3650
▁ImageIcon	-3651
ALL	-3652
▁OS	-3653
▁job	-3654
▁dispose	-3655
ometry	-3656
visit	-3657
Workbench	-3658
Success	-3659
▁exec	-3660
▁Status	-3661
VO	-3662
FT	-3663
Basic	-3664
▁queue	-3665
ulator	-3666
TAG	-3667
unit	-3668
Driver	-3669
","	-3670
▁Name	-3671
ich	-3672
Depth	-3673
ByName	-3674
▁scroll	-3675
ings	-3676
Coordinate	-3677
uler	-3678
toArray	-3679
endsWith	-3680
getConnection	-3681
OPTION	-3682
lap	-3683
ng	-3684
▁have	-3685
ds	-3686
Maximum	-3687
emp	-3688
ype	-3689
()==	-3690
sleep	-3691
Place	-3692
4.	-3693
▁sign	-3694
▁--	-3695
▁/**	-3696
Forward	-3697
Has	-3698
Figure	-3699
Alias	-3700
▁Get	-3701
Price	-3702
CP	-3703
lash	-3704
Validation	-3705
aret	-3706
2(	-3707
flag	-3708
Validator	-3709
ATOR	-3710
ik	-3711
▁transaction	-3712
▁defaultValue	-3713
,"	-3714
keys	-3715
ategories	-3716
getN	-3717
()");	-3718
Noti	-3719
alette	-3720
Summary	-3721
CR	-3722
gl	-3723
getInt	-3724
▁by	-3725
Toolkit	-3726
GB	-3727
AM	-3728
getFirst	-3729
▁plugin	-3730
REF	-3731
▁transform	-3732
getItem	-3733
Allowed	-3734
>(	-3735
atform	-3736
Formatter	-3737
scale	-3738
Tokens	-3739
cmd	-3740
▁connect	-3741
▁View	-3742
▁category	-3743
▁Content	-3744
StoreException	-3745
otation	-3746
tick	-3747
▁controller	-3748
resentation	-3749
▁Application	-3750
stit	-3751
actor	-3752
tended	-3753
Connected	-3754
password	-3755
Before	-3756
getE	-3757
acion	-3758
setFont	-3759
Bit	-3760
role	-3761
▁req	-3762
AsString	-3763
isting	-3764
olution	-3765
Angle	-3766
UND	-3767
Feed	-3768
Zoom	-3769
getID	-3770
ROM	-3771
sl	-3772
▁rel	-3773
Segment	-3774
getSession	-3775
bit	-3776
▁clazz	-3777
▁setAttribute	-3778
▁getComponent	-3779
Peer	-3780
()),	-3781
orig	-3782
▁getIn	-3783
▁setup	-3784
ACE	-3785
Complete	-3786
▁BufferedReader	-3787
▁Q	-3788
ById	-3789
cep	-3790
fileName	-3791
ANGE	-3792
swing	-3793
Canvas	-3794
Removed	-3795
Duration	-3796
▁Database	-3797
Units	-3798
▁Server	-3799
Security	-3800
=\'	-3801
off	-3802
▁function	-3803
(".	-3804
▁[]	-3805
ense	-3806
****	-3807
tes	-3808
▁conf	-3809
Vertical	-3810
Serializ	-3811
shot	-3812
Algorithm	-3813
sb	-3814
itive	-3815
▁2,	-3816
▁sm	-3817
ours	-3818
FIN	-3819
▁clean	-3820
▁ctx	-3821
▁setModified	-3822
iler	-3823
ToolTipText	-3824
▁met	-3825
getObject	-3826
wait	-3827
NOT	-3828
Criteria	-3829
points	-3830
post	-3831
body	-3832
Same	-3833
PAT	-3834
Storage	-3835
gen	-3836
SION	-3837
OT	-3838
block	-3839
rieve	-3840
▁desc	-3841
getRow	-3842
▁JSON	-3843
Bl	-3844
lementation	-3845
("[	-3846
▁err	-3847
Connect	-3848
ilities	-3849
NONE	-3850
Mgr	-3851
▁statement	-3852
setF	-3853
(2,	-3854
aller	-3855
▁ioe	-3856
Rules	-3857
Expand	-3858
rule	-3859
Single	-3860
XY	-3861
stmt	-3862
▁DOM	-3863
oogle	-3864
getLast	-3865
▁calculate	-3866
▁expResult	-3867
exception	-3868
rary	-3869
▁Invalid	-3870
getAbsolutePath	-3871
▁extension	-3872
ift	-3873
CS	-3874
▁where	-3875
LIST	-3876
▁card	-3877
getParameter	-3878
Comparator	-3879
▁elem	-3880
▁LinkedList	-3881
▁16	-3882
getDocument	-3883
▁StringTokenizer	-3884
used	-3885
ITE	-3886
DataSource	-3887
▁gl	-3888
Priority	-3889
ynam	-3890
KeyEvent	-3891
Capacity	-3892
PA	-3893
▁prototype	-3894
avor	-3895
Mask	-3896
Expected	-3897
lipse	-3898
▁getN	-3899
getIn	-3900
setColor	-3901
Arch	-3902
▁ignore	-3903
[0]);	-3904
MutableTreeNode	-3905
mi	-3906
getBytes	-3907
▁getL	-3908
cancel	-3909
DTO	-3910
paces	-3911
EventListener	-3912
jo	-3913
Tags	-3914
begin	-3915
ision	-3916
▁setProperty	-3917
URCE	-3918
DateTime	-3919
▁are	-3920
PI	-3921
Services	-3922
expResult	-3923
100	-3924
setString	-3925
▁Context	-3926
▁curr	-3927
AllFrom	-3928
▁full	-3929
ained	-3930
▁extends	-3931
evt	-3932
Center	-3933
▁us	-3934
ERE	-3935
▁javax	-3936
Missing	-3937
▁getField	-3938
▁constraint	-3939
▁already	-3940
umb	-3941
Props	-3942
STATE	-3943
▁Base	-3944
ynamic	-3945
▁getE	-3946
attributes	-3947
idden	-3948
rimitive	-3949
▁Level	-3950
atistics	-3951
copyAllFrom	-3952
CL	-3953
Hint	-3954
▁exit	-3955
entication	-3956
tool	-3957
gon	-3958
eline	-3959
antity	-3960
modified	-3961
gistr	-3962
▁support	-3963
Predicate	-3964
Orientation	-3965
commit	-3966
getL	-3967
xl	-3968
Dispatch	-3969
▁RE	-3970
rammar	-3971
▁State	-3972
OB	-3973
▁getA	-3974
SELECT	-3975
prepare	-3976
▁JMenu	-3977
erge	-3978
Exists	-3979
sitive	-3980
ves	-3981
▁Con	-3982
▁Web	-3983
Board	-3984
SOURCE	-3985
▁getFile	-3986
Stats	-3987
eric	-3988
Delay	-3989
stant	-3990
getT	-3991
Commit	-3992
napshot	-3993
Args	-3994
▁Build	-3995
constr	-3996
OS	-3997
--------	-3998
olygon	-3999
▁PrintWriter	-4000
▁one	-4001
DateFormat	-4002
Ontology	-4003
jb	-4004
afe	-4005
Delegate	-4006
cheme	-4007
editor	-4008
WN	-4009
Strategy	-4010
getG	-4011
▁word	-4012
getStart	-4013
Organ	-4014
▁Swing	-4015
Unique	-4016
Bits	-4017
Setting	-4018
▁JComboBox	-4019
▁compute	-4020
▁reg	-4021
▁Expression	-4022
▁high	-4023
layout	-4024
▁JCheckBox	-4025
▁cap	-4026
▁day	-4027
▁cs	-4028
▁cp	-4029
semb	-4030
1));	-4031
▁socket	-4032
queue	-4033
window	-4034
writer	-4035
tifact	-4036
');	-4037
total	-4038
▁term	-4039
...");	-4040
Plot	-4041
=(	-4042
IBU	-4043
Replace	-4044
lastIndexOf	-4045
ases	-4046
▁getLast	-4047
▁br	-4048
Common	-4049
apache	-4050
▁20));	-4051
Previous	-4052
refresh	-4053
()-	-4054
Dat	-4055
GHT	-4056
Cast	-4057
Enc	-4058
▁URI	-4059
ool	-4060
▁getH	-4061
OL	-4062
ourse	-4063
Speed	-4064
Dictionary	-4065
CESS	-4066
DT	-4067
▁expression	-4068
Choice	-4069
ci	-4070
getAction	-4071
ustomer	-4072
▁setText	-4073
ets	-4074
pattern	-4075
IBUTE	-4076
Relative	-4077
▁Graphics	-4078
64	-4079
Author	-4080
lemented	-4081
CONT	-4082
ELE	-4083
Mapper	-4084
▁directory	-4085
params	-4086
nextToken	-4087
web	-4088
Used	-4089
peri	-4090
▁perform	-4091
ART	-4092
bum	-4093
ORDER	-4094
su	-4095
TIC	-4096
Chain	-4097
username	-4098
Labels	-4099
render	-4100
▁gr	-4101
Random	-4102
▁inv	-4103
▁getNext	-4104
Subject	-4105
sity	-4106
▁HT	-4107
▁reference	-4108
Chat	-4109
licate	-4110
anaged	-4111
▁initial	-4112
Sql	-4113
JECT	-4114
tices	-4115
▁oc	-4116
vidual	-4117
fr	-4118
vers	-4119
push	-4120
channel	-4121
▁prob	-4122
acing	-4123
setC	-4124
hs	-4125
▁Menu	-4126
setBorder	-4127
▁Path	-4128
▁settings	-4129
setIcon	-4130
▁collection	-4131
Sec	-4132
ocity	-4133
Standard	-4134
det	-4135
▁setSelected	-4136
ysi	-4137
▁application	-4138
Variables	-4139
convert	-4140
▁cb	-4141
redenti	-4142
Library	-4143
enable	-4144
▁access	-4145
Marker	-4146
▁Db	-4147
initialized	-4148
▁columns	-4149
Confirm	-4150
▁Constants	-4151
owner	-4152
sheet	-4153
▁setDefault	-4154
setM	-4155
Browser	-4156
Modifier	-4157
dr	-4158
▁Task	-4159
▁Debug	-4160
▁Ar	-4161
itional	-4162
GET	-4163
▁gen	-4164
getLocal	-4165
▁folder	-4166
now	-4167
ierarch	-4168
▁RemoteException	-4169
▁Rec	-4170
▁Str	-4171
DL	-4172
Cluster	-4173
GRO	-4174
sList	-4175
ily	-4176
mun	-4177
ChildDescriptors	-4178
fin	-4179
▁Al	-4180
▁IS	-4181
▁schema	-4182
zz	-4183
▁domain	-4184
▁widget	-4185
▁multi	-4186
Reply	-4187
ca	-4188
oad	-4189
▁Xml	-4190
Unable	-4191
▁img	-4192
▁fr	-4193
▁FileInputStream	-4194
UTF	-4195
▁Oper	-4196
oop	-4197
▁viewer	-4198
FileChooser	-4199
container	-4200
▁ans	-4201
PC	-4202
▁Java	-4203
▁begin	-4204
category	-4205
\',	-4206
ured	-4207
VALID	-4208
PS	-4209
Fl	-4210
NOR	-4211
matches	-4212
EW	-4213
lyph	-4214
ross	-4215
Chunk	-4216
Undo	-4217
▁Player	-4218
\')	-4219
handler	-4220
jButton	-4221
items	-4222
▁pe	-4223
▁compareTo	-4224
FIX	-4225
")));	-4226
▁0))	-4227
▁counter	-4228
cat	-4229
greg	-4230
▁assertNull	-4231
▁Co	-4232
ifiers	-4233
()+	-4234
[1];	-4235
▁Sp	-4236
NULL	-4237
▁rad	-4238
teps	-4239
▁Locale	-4240
cast	-4241
thread	-4242
Kind	-4243
▁internal	-4244
Free	-4245
files	-4246
ente	-4247
STRING	-4248
DS	-4249
▁Servlet	-4250
="+	-4251
game	-4252
▁SAXException	-4253
WE	-4254
ck	-4255
▁12	-4256
Clone	-4257
USE	-4258
desc	-4259
aterial	-4260
AccessException	-4261
▁annot	-4262
▁retVal	-4263
className	-4264
MPTY	-4265
tivate	-4266
force	-4267
▁prev	-4268
ired	-4269
▁mapping	-4270
Mock	-4271
▁UI	-4272
condition	-4273
getContent	-4274
1");	-4275
Flags	-4276
random	-4277
Methods	-4278
▁+"	-4279
getNext	-4280
▁getObject	-4281
."	-4282
ATTRIBUTE	-4283
stanti	-4284
▁Di	-4285
liver	-4286
▁Token	-4287
faces	-4288
ids	-4289
Cost	-4290
avigation	-4291
enabled	-4292
Enter	-4293
▁getG	-4294
▁Input	-4295
▁distance	-4296
anges	-4297
▁LOGGER	-4298
andid	-4299
▁visible	-4300
sn	-4301
longValue	-4302
Net	-4303
lier	-4304
▁sample	-4305
Public	-4306
mouse	-4307
HERE	-4308
Export	-4309
ipe	-4310
release	-4311
TABLE	-4312
eto	-4313
ven	-4314
▁comment	-4315
▁Work	-4316
▁tf	-4317
▁Sub	-4318
SY	-4319
Tools	-4320
sw	-4321
Headers	-4322
norm	-4323
ibility	-4324
uplicate	-4325
icator	-4326
▁getId	-4327
▁enum	-4328
▁JRadioButton	-4329
ester	-4330
Stub	-4331
Failure	-4332
Media	-4333
verage	-4334
Updated	-4335
Connections	-4336
ariant	-4337
CLO	-4338
▁ST	-4339
gger	-4340
It	-4341
▁login	-4342
IllegalArgument	-4343
btn	-4344
olver	-4345
▁setD	-4346
▁checkWidget	-4347
Percent	-4348
isValid	-4349
▁Transaction	-4350
amily	-4351
▁matrix	-4352
▁before	-4353
Pointer	-4354
HO	-4355
15	-4356
Old	-4357
▁enabled	-4358
getAll	-4359
maining	-4360
▁"</	-4361
sf	-4362
STAT	-4363
Equal	-4364
EC	-4365
>\	-4366
atio	-4367
▁DEFAULT	-4368
Unknown	-4369
▁su	-4370
▁engine	-4371
Notifier	-4372
White	-4373
Clause	-4374
ural	-4375
▁down	-4376
Team	-4377
fl	-4378
WID	-4379
▁10	-4380
▁device	-4381
Slider	-4382
cap	-4383
report	-4384
▁cm	-4385
Join	-4386
LEFT	-4387
▁Window	-4388
variable	-4389
.";	-4390
("</	-4391
READ	-4392
Pixel	-4393
ony	-4394
WS	-4395
Addr	-4396
schema	-4397
▁agent	-4398
edge	-4399
mploy	-4400
Subscri	-4401
URE	-4402
▁DisplayModel	-4403
▁removed	-4404
eep	-4405
core	-4406
▁entries	-4407
▁Pattern	-4408
doubleValue	-4409
Binary	-4410
andidate	-4411
▁numberOf	-4412
▁flush	-4413
Changes	-4414
▁TextField	-4415
rel	-4416
Act	-4417
▁after	-4418
nel	-4419
bytes	-4420
stack	-4421
Behavi	-4422
abilities	-4423
NUM	-4424
Records	-4425
Hex	-4426
ping	-4427
cover	-4428
▁progress	-4429
25	-4430
:");	-4431
gov	-4432
▁account	-4433
ally	-4434
▁getX	-4435
▁rep	-4436
requency	-4437
▁Client	-4438
▁Parameter	-4439
TRUE	-4440
Diagram	-4441
ful	-4442
▁delta	-4443
▁Cms	-4444
Users	-4445
Shared	-4446
▁Statement	-4447
▁getNum	-4448
▁getModel	-4449
Swing	-4450
errup	-4451
Static	-4452
addItem	-4453
▁Group	-4454
▁getRow	-4455
▁BigInteger	-4456
generate	-4457
replaceAll	-4458
EM	-4459
1",	-4460
aptor	-4461
rong	-4462
pers	-4463
cluded	-4464
rase	-4465
Metrics	-4466
Tax	-4467
lert	-4468
▁operation	-4469
WARNING	-4470
▁Config	-4471
transform	-4472
▁bl	-4473
Transport	-4474
getFieldValue	-4475
ayload	-4476
quare	-4477
▁proxy	-4478
DataType	-4479
▁amount	-4480
▁need	-4481
MessageDialog	-4482
▁Ph	-4483
▁script	-4484
Created	-4485
ReadOnly	-4486
visible	-4487
Actor	-4488
fg	-4489
Translation	-4490
setEditable	-4491
▁env	-4492
aN	-4493
▁namespace	-4494
▁Pack	-4495
COMP	-4496
▁"-	-4497
alizer	-4498
QUE	-4499
oder	-4500
getState	-4501
▁Line	-4502
widget	-4503
side	-4504
setSelection	-4505
ysis	-4506
CD	-4507
▁0.0	-4508
Ext	-4509
bre	-4510
Pass	-4511
cedure	-4512
GR	-4513
xff	-4514
▁pt	-4515
agnostic	-4516
Go	-4517
zer	-4518
Evalu	-4519
icture	-4520
TIVE	-4521
javax	-4522
adding	-4523
▁screen	-4524
ErrorMessage	-4525
About	-4526
▁prepare	-4527
ffic	-4528
cheduler	-4529
Operand	-4530
SL	-4531
Break	-4532
▁ensure	-4533
Creation	-4534
module	-4535
▁original	-4536
ORY	-4537
booleanValue	-4538
getProject	-4539
▁product	-4540
rad	-4541
Checked	-4542
VK	-4543
Week	-4544
▁Label	-4545
UTH	-4546
oft	-4547
▁sim	-4548
regor	-4549
▁FROM	-4550
HashMap	-4551
exec	-4552
ideo	-4553
Links	-4554
setToolTipText	-4555
Leg	-4556
regorian	-4557
▁Tim	-4558
Invocation	-4559
▁Character	-4560
ICATION	-4561
▁em	-4562
▁cls	-4563
getStatus	-4564
World	-4565
▁Page	-4566
▁errors	-4567
Proc	-4568
ialize	-4569
ELEMENT	-4570
Threshold	-4571
getDisplay	-4572
LOW	-4573
▁setR	-4574
executeQuery	-4575
▁skip	-4576
▁indent	-4577
posed	-4578
lex	-4579
setContentPane	-4580
Proj	-4581
getH	-4582
▁track	-4583
multi	-4584
domain	-4585
▁setUp	-4586
▁Util	-4587
Enable	-4588
VM	-4589
▁real	-4590
▁pw	-4591
▁Entry	-4592
[3	-4593
Console	-4594
▁GridData	-4595
rimaryKey	-4596
Other	-4597
▁ParseException	-4598
cbi	-4599
▁help	-4600
Facade	-4601
NODE	-4602
Transformer	-4603
▁reason	-4604
ClassLoader	-4605
▁destroy	-4606
▁setName	-4607
▁ter	-4608
vance	-4609
fe	-4610
IGHT	-4611
PTION	-4612
ipient	-4613
▁Cell	-4614
gative	-4615
ticipant	-4616
Members	-4617
▁condition	-4618
▁ds	-4619
elocity	-4620
▁Button	-4621
--)	-4622
by	-4623
addr	-4624
EClass	-4625
▁isValid	-4626
UpperCase	-4627
▁been	-4628
▁Cache	-4629
▁Filter	-4630
redicate	-4631
Relationship	-4632
▁["	-4633
getLogger	-4634
setDefault	-4635
▁destination	-4636
▁lookup	-4637
Images	-4638
▁retval	-4639
SEVER	-4640
Oc	-4641
▁second	-4642
Begin	-4643
signed	-4644
getLocation	-4645
Association	-4646
▁getJButton	-4647
Batch	-4648
nodes	-4649
▁meta	-4650
google	-4651
titude	-4652
▁packet	-4653
Different	-4654
Signature	-4655
▁Y	-4656
▁available	-4657
EV	-4658
Need	-4659
▁center	-4660
▁Comp	-4661
tities	-4662
getIndex	-4663
▁getElement	-4664
.0	-4665
nemon	-4666
Deleted	-4667
▁setVisible	-4668
irt	-4669
ving	-4670
▁monitor	-4671
NotSupported	-4672
locale	-4673
▁auto	-4674
ACT	-4675
Leaf	-4676
COLOR	-4677
▁axis	-4678
▁pass	-4679
Anchor	-4680
Refresh	-4681
rit	-4682
5);	-4683
▁pool	-4684
etAddress	-4685
trl	-4686
▁visitor	-4687
24	-4688
▁removeAll	-4689
ByteArray	-4690
ncbi	-4691
readLine	-4692
▁timeout	-4693
Elem	-4694
CHANGE	-4695
conf	-4696
periment	-4697
▁direction	-4698
EXT	-4699
Orig	-4700
Drop	-4701
▁getMessage	-4702
Dd	-4703
nih	-4704
screen	-4705
▁series	-4706
Started	-4707
▁jLabel	-4708
newVal	-4709
▁Style	-4710
dx	-4711
alformed	-4712
uzz	-4713
lide	-4714
ective	-4715
▁random	-4716
eh	-4717
Done	-4718
ceptor	-4719
nlm	-4720
Bars	-4721
nemonic	-4722
ibling	-4723
▁email	-4724
entr	-4725
CODE	-4726
plugin	-4727
options	-4728
▁verify	-4729
Compar	-4730
▁setMax	-4731
triction	-4732
Parse	-4733
jPanel	-4734
eutils	-4735
pm	-4736
▁sequence	-4737
lig	-4738
▁calendar	-4739
ayment	-4740
function	-4741
licit	-4742
▁BuildException	-4743
1_	-4744
getTarget	-4745
▁ns	-4746
▁release	-4747
▁getNode	-4748
Gu	-4749
▁Valid	-4750
ns	-4751
▁getV	-4752
▁layer	-4753
Edges	-4754
ARG	-4755
▁cursor	-4756
[][]	-4757
BER	-4758
Tuple	-4759
PopupMenu	-4760
Accessible	-4761
▁columnIndex	-4762
▁bit	-4763
vo	-4764
UMENT	-4765
Revision	-4766
ListModel	-4767
▁Game	-4768
lec	-4769
ants	-4770
pect	-4771
▁Hibernate	-4772
>";	-4773
otes	-4774
RIGHT	-4775
▁propertyName	-4776
▁month	-4777
IR	-4778
▁"",	-4779
ermission	-4780
la	-4781
xlPackage	-4782
ParseException	-4783
▁SQL	-4784
factory	-4785
rees	-4786
▁tile	-4787
▁canvas	-4788
><	-4789
So	-4790
States	-4791
Calc	-4792
getMax	-4793
road	-4794
TT	-4795
ens	-4796
▁push	-4797
El	-4798
JB	-4799
[0],	-4800
▁fieldName	-4801
come	-4802
▁Bean	-4803
img	-4804
LEN	-4805
getSub	-4806
Phase	-4807
Cmd	-4808
1(	-4809
▁html	-4810
▁split	-4811
ws	-4812
▁weight	-4813
▁getSource	-4814
Super	-4815
ework	-4816
Bam	-4817
▁addTo	-4818
CUR	-4819
Rele	-4820
▁timer	-4821
▁objects	-4822
tial	-4823
ra	-4824
▁bundle	-4825
td	-4826
enum	-4827
PT	-4828
obot	-4829
▁supported	-4830
bind	-4831
Trigger	-4832
▁Request	-4833
▁combo	-4834
Executor	-4835
MouseListener	-4836
3;	-4837
▁ip	-4838
rowse	-4839
Sync	-4840
▁vector	-4841
▁raw	-4842
sample	-4843
▁Arrays	-4844
200	-4845
CHAR	-4846
Principal	-4847
getRequest	-4848
▁Id	-4849
DESC	-4850
Finder	-4851
▁feature	-4852
sq	-4853
▁!(	-4854
gb	-4855
efetch	-4856
▁points	-4857
sue	-4858
PATH	-4859
parameters	-4860
Chars	-4861
lookup	-4862
entrySet	-4863
Attachment	-4864
▁setCurrent	-4865
utes	-4866
▁dataset	-4867
Span	-4868
range	-4869
Produc	-4870
ramework	-4871
▁non	-4872
▁global	-4873
Modify	-4874
3);	-4875
Accept	-4876
etter	-4877
▁Process	-4878
Animation	-4879
encode	-4880
▁section	-4881
[2]	-4882
apply	-4883
application	-4884
Implementation	-4885
Consum	-4886
▁evaluate	-4887
Execute	-4888
▁exc	-4889
▁ActionListener	-4890
Route	-4891
Struct	-4892
▁person	-4893
▁Box	-4894
▁types	-4895
AG	-4896
▁argu	-4897
▁Mouse	-4898
Complex	-4899
previous	-4900
ierarchy	-4901
():	-4902
▁go	-4903
ison	-4904
▁sel	-4905
itude	-4906
▁implemented	-4907
34	-4908
ELD	-4909
▁Viewer	-4910
▁import	-4911
getTable	-4912
▁expr	-4913
dialog	-4914
emplate	-4915
reader	-4916
section	-4917
▁renderer	-4918
lice	-4919
executeUpdate	-4920
getDescription	-4921
Zero	-4922
▁setIn	-4923
MSG	-4924
Initialized	-4925
TRAN	-4926
Tasks	-4927
SA	-4928
▁setUser	-4929
matcher	-4930
▁expand	-4931
Named	-4932
▁OutputStream	-4933
▁resolve	-4934
getActive	-4935
lg	-4936
Formula	-4937
▁getConnection	-4938
NaN	-4939
Turn	-4940
▁Control	-4941
▁package	-4942
▁My	-4943
▁Result	-4944
▁getItem	-4945
Catalog	-4946
▁getSub	-4947
isDirectory	-4948
▁ass	-4949
warning	-4950
bound	-4951
PK	-4952
▁Search	-4953
Fragment	-4954
▁required	-4955
Paths	-4956
empty	-4957
PORT	-4958
Sets	-4959
▁border	-4960
▁language	-4961
setAction	-4962
▁newVal	-4963
Fe	-4964
▁pk	-4965
rice	-4966
LETE	-4967
Finished	-4968
VAR	-4969
Reset	-4970
roker	-4971
▁Utils	-4972
Problem	-4973
▁getChild	-4974
cessed	-4975
Editing	-4976
getFont	-4977
aught	-4978
PUT	-4979
▁getSize	-4980
oi	-4981
▁\\""	-4982
▁trace	-4983
Clicked	-4984
CastException	-4985
seq	-4986
ture	-4987
CLOSE	-4988
tition	-4989
isEnabled	-4990
▁|=	-4991
elem	-4992
▁Tr	-4993
MM	-4994
ename	-4995
Room	-4996
Identity	-4997
▁sw	-4998
configuration	-4999
igger	-5000
urface	-5001
Download	-5002
ails	-5003
sel	-5004
lowLayout	-5005
getContext	-5006
▁zoom	-5007
++]	-5008
xFF	-5009
▁NoSuch	-5010
Measure	-5011
utom	-5012
series	-5013
getLine	-5014
ITY	-5015
acts	-5016
Pages	-5017
toUpperCase	-5018
curr	-5019
3()	-5020
SEVERE	-5021
▁getAll	-5022
impl	-5023
▁dim	-5024
OLE	-5025
▁Cl	-5026
▁remote	-5027
login	-5028
▁Ag	-5029
elper	-5030
▁Rule	-5031
Buf	-5032
mpt	-5033
CRE	-5034
enario	-5035
regorianCalendar	-5036
props	-5037
weight	-5038
Workflow	-5039
▁getContent	-5040
gistration	-5041
job	-5042
▁character	-5043
▁"[	-5044
foo	-5045
png	-5046
▁getRoot	-5047
access	-5048
▁encoding	-5049
ifest	-5050
▁println	-5051
▁Port	-5052
Generic	-5053
▁member	-5054
Received	-5055
CTED	-5056
Usage	-5057
Loaded	-5058
prepareStatement	-5059
member	-5060
minate	-5061
VG	-5062
▁getDescription	-5063
▁yet	-5064
▁WHERE	-5065
irtual	-5066
▁Matrix	-5067
TransactionSeq	-5068
Working	-5069
▁seq	-5070
Bad	-5071
Strings	-5072
▁Socket	-5073
language	-5074
▁symbol	-5075
▁Template	-5076
initialize	-5077
EditPart	-5078
▁BufferedImage	-5079
step	-5080
SSION	-5081
Stud	-5082
INTER	-5083
lator	-5084
Scanner	-5085
OD	-5086
▁web	-5087
▁gc	-5088
▁year	-5089
▁now	-5090
Audio	-5091
▁contact	-5092
AB	-5093
POSI	-5094
START	-5095
▁subject	-5096
Classifier	-5097
reet	-5098
▁jMenuItem	-5099
ded	-5100
▁cre	-5101
Roles	-5102
▁getChildren	-5103
rot	-5104
join	-5105
▁getW	-5106
ediator	-5107
Manage	-5108
Arguments	-5109
peat	-5110
Stamp	-5111
Occur	-5112
▁focus	-5113
EMPTY	-5114
FS	-5115
Btn	-5116
getView	-5117
▁getFirst	-5118
dSelection	-5119
Lang	-5120
▁0.0;	-5121
▁DateTime	-5122
▁Composite	-5123
PROP	-5124
alled	-5125
▁js	-5126
Supp	-5127
Sen	-5128
tip	-5129
Syntax	-5130
▁getSession	-5131
LS	-5132
Workspace	-5133
assertEquals	-5134
>=	-5135
Theme	-5136
Geometry	-5137
ummy	-5138
getV	-5139
▁invoke	-5140
extension	-5141
▁delegate	-5142
Diff	-5143
recei	-5144
(6	-5145
▁getJPanel	-5146
dest	-5147
COLUM	-5148
5.	-5149
DEX	-5150
acro	-5151
mbed	-5152
comment	-5153
▁descriptor	-5154
▁align	-5155
ET	-5156
coming	-5157
(2);	-5158
compare	-5159
▁added	-5160
Alpha	-5161
ores	-5162
]");	-5163
▁GridLayout	-5164
Statistics	-5165
riend	-5166
scroll	-5167
Colors	-5168
▁attach	-5169
iki	-5170
DBC	-5171
pend	-5172
MON	-5173
STAttribute	-5174
()];	-5175
(0).	-5176
Upload	-5177
▁Tag	-5178
udit	-5179
▁undo	-5180
▁Position	-5181
')	-5182
Radius	-5183
quested	-5184
▁getKey	-5185
imp	-5186
swer	-5187
Stat	-5188
▁shell	-5189
Origin	-5190
WIDTH	-5191
API	-5192
▁15	-5193
fields	-5194
▁board	-5195
Outline	-5196
▁").	-5197
getTitle	-5198
Worker	-5199
getSelectedIndex	-5200
04	-5201
imeType	-5202
▁":"	-5203
socket	-5204
My	-5205
Sensor	-5206
IST	-5207
Schedule	-5208
▁peer	-5209
▁exists	-5210
Jar	-5211
sic	-5212
stor	-5213
Es	-5214
lab	-5215
uron	-5216
Neighb	-5217
▁dao	-5218
oding	-5219
reference	-5220
▁insets	-5221
getLabel	-5222
▁getParameter	-5223
▁atom	-5224
▁pnl	-5225
(0));	-5226
▁jMenu	-5227
▁ext	-5228
ADD	-5229
Loop	-5230
▁Pro	-5231
essag	-5232
Raw	-5233
▁contents	-5234
getFeature	-5235
▁En	-5236
public	-5237
ins	-5238
Runnable	-5239
trum	-5240
▁getMin	-5241
▁"/"	-5242
▁angle	-5243
▁dig	-5244
▁1));	-5245
UPDATE	-5246
▁callback	-5247
du	-5248
▁Card	-5249
TS	-5250
loor	-5251
verity	-5252
▁invalidate	-5253
Ship	-5254
calc	-5255
14	-5256
OLEAN	-5257
clazz	-5258
Extended	-5259
▁commit	-5260
ROLL	-5261
jTextField	-5262
setViewport	-5263
32	-5264
da	-5265
Decor	-5266
InternalFrame	-5267
56	-5268
BUT	-5269
▁enc	-5270
▁configure	-5271
QName	-5272
limiter	-5273
MASK	-5274
Cycle	-5275
Deploy	-5276
▁Int	-5277
Cor	-5278
TEST	-5279
appendChild	-5280
DAY	-5281
BASE	-5282
manager	-5283
setParent	-5284
rement	-5285
Att	-5286
Lif	-5287
▁shape	-5288
celer	-5289
TON	-5290
},	-5291
Toggle	-5292
Buffered	-5293
getEnd	-5294
Quantity	-5295
transaction	-5296
MT	-5297
wd	-5298
IDs	-5299
preter	-5300
Indices	-5301
aving	-5302
isDifferent	-5303
FIELD	-5304
align	-5305
▁SwingUtilities	-5306
ServletResponse	-5307
cut	-5308
MOVE	-5309
▁mid	-5310
▁-1);	-5311
database	-5312
STATUS	-5313
onical	-5314
▁Schema	-5315
clusive	-5316
▁protocol	-5317
▁only	-5318
GroupName	-5319
▁adapterFactory	-5320
▁24	-5321
year	-5322
Machine	-5323
NotifyChanged	-5324
▁},	-5325
SPACE	-5326
▁")");	-5327
▁Address	-5328
Setup	-5329
ysical	-5330
▁mi	-5331
Later	-5332
▁Variable	-5333
ServiceException	-5334
DC	-5335
▁called	-5336
▁export	-5337
▁shutdown	-5338
Delta	-5339
Normal	-5340
velope	-5341
border	-5342
VERSION	-5343
▁setTitle	-5344
▁setId	-5345
writeObject	-5346
▁HTML	-5347
folder	-5348
Numeric	-5349
Threads	-5350
setViewportView	-5351
Fault	-5352
Equ	-5353
script	-5354
Conversion	-5355
▁scope	-5356
Observ	-5357
▁chart	-5358
getNotifier	-5359
cd	-5360
ORIZ	-5361
▁allow	-5362
Unsupported	-5363
▁Local	-5364
Clear	-5365
email	-5366
Certificate	-5367
Specification	-5368
]).	-5369
ryp	-5370
EVENT	-5371
▁Core	-5372
ENTI	-5373
▁JSeparator	-5374
Volume	-5375
Margin	-5376
agraph	-5377
▁receive	-5378
translate	-5379
redentials	-5380
arm	-5381
entif	-5382
CONNE	-5383
Creator	-5384
Zip	-5385
▁history	-5386
Codes	-5387
▁when	-5388
mployee	-5389
TreeModel	-5390
+1	-5391
▁box	-5392
mm	-5393
alle	-5394
leton	-5395
▁area	-5396
▁dimension	-5397
▁Match	-5398
dat	-5399
ls	-5400
========	-5401
("\\"	-5402
Processing	-5403
track	-5404
▁buff	-5405
▁translate	-5406
ProgressBar	-5407
▁pr	-5408
Phone	-5409
▁so	-5410
Texture	-5411
Comments	-5412
Original	-5413
ElementAt	-5414
TICAL	-5415
Sm	-5416
("",	-5417
▁cc	-5418
▁ts	-5419
▁repository	-5420
ferred	-5421
expression	-5422
▁Mock	-5423
Tables	-5424
▁getTarget	-5425
lassif	-5426
ires	-5427
redit	-5428
▁bind	-5429
▁Term	-5430
Archive	-5431
getJContentPane	-5432
▁plot	-5433
package	-5434
▁setData	-5435
getJPanel	-5436
dBorder	-5437
Rendering	-5438
▁but	-5439
fiers	-5440
▁limit	-5441
setCurrent	-5442
BorderFactory	-5443
ollow	-5444
sation	-5445
Defined	-5446
setId	-5447
▁closed	-5448
▁region	-5449
ientation	-5450
▁getNumberOf	-5451
▁popup	-5452
▁getInt	-5453
AV	-5454
ceed	-5455
oods	-5456
ND	-5457
▁profile	-5458
ament	-5459
getHost	-5460
Slot	-5461
▁Sim	-5462
going	-5463
▁diff	-5464
initial	-5465
▁indi	-5466
olation	-5467
▁driver	-5468
▁fetch	-5469
▁setH	-5470
prev	-5471
Typed	-5472
evaluate	-5473
▁cons	-5474
FilePath	-5475
▁Container	-5476
iven	-5477
encies	-5478
forName	-5479
gable	-5480
Resolution	-5481
()",	-5482
Ready	-5483
Adjust	-5484
background	-5485
Branch	-5486
los	-5487
▁cat	-5488
LY	-5489
tempt	-5490
▁Category	-5491
Bottom	-5492
tories	-5493
arsh	-5494
ocab	-5495
▁Main	-5496
▁join	-5497
▁Jsp	-5498
▁http	-5499
▁duration	-5500
pad	-5501
ENCE	-5502
agent	-5503
▁vertex	-5504
▁methodName	-5505
▁Res	-5506
Matcher	-5507
IndexOutOfBounds	-5508
UNK	-5509
Piece	-5510
▁free	-5511
50	-5512
Disposed	-5513
▁getY	-5514
Players	-5515
StateChanged	-5516
Scene	-5517
columns	-5518
Persistent	-5519
actionPerformed	-5520
Indicator	-5521
Effect	-5522
▁depth	-5523
getBounds	-5524
▁messages	-5525
ActionPerformed	-5526
▁Parser	-5527
Deg	-5528
ctx	-5529
eting	-5530
verter	-5531
Dto	-5532
CI	-5533
Clip	-5534
Permissions	-5535
Answer	-5536
EditInstance	-5537
SAX	-5538
▁answer	-5539
(0.	-5540
Light	-5541
▁used	-5542
▁DxlPackage	-5543
▁MAX	-5544
▁Instance	-5545
▁notifyChanged	-5546
▁Auth	-5547
▁custom	-5548
indent	-5549
errupt	-5550
▁delay	-5551
▁arguments	-5552
COUN	-5553
StringBuffer	-5554
Side	-5555
Publish	-5556
nd	-5557
▁Random	-5558
▁getStart	-5559
Observers	-5560
▁finish	-5561
sume	-5562
Sound	-5563
▁score	-5564
argument	-5565
▁getTime	-5566
vm	-5567
▁mask	-5568
Second	-5569
destroy	-5570
Completed	-5571
tid	-5572
isVisible	-5573
ipher	-5574
Receiver	-5575
▁cause	-5576
only	-5577
▁encode	-5578
▁binding	-5579
▁EntityManager	-5580
syn	-5581
Localized	-5582
controller	-5583
▁include	-5584
ogn	-5585
lision	-5586
rivile	-5587
Pick	-5588
tile	-5589
▁man	-5590
▁setT	-5591
TypeName	-5592
Src	-5593
Modification	-5594
TIT	-5595
cursor	-5596
Handlers	-5597
▁Source	-5598
01	-5599
BOOLEAN	-5600
yzer	-5601
FIG	-5602
real	-5603
Commands	-5604
▁getTable	-5605
found	-5606
Spinner	-5607
Nr	-5608
▁","	-5609
Coord	-5610
▁resources	-5611
livery	-5612
crete	-5613
▁lines	-5614
Hashtable	-5615
Highlight	-5616
cludes	-5617
▁exist	-5618
resources	-5619
JSON	-5620
asList	-5621
Cms	-5622
GROUP	-5623
getSelectedItem	-5624
tist	-5625
▁UML	-5626
Extra	-5627
Flavor	-5628
▁increment	-5629
gui	-5630
▁1.0	-5631
adow	-5632
▁"."	-5633
▁Record	-5634
ALI	-5635
Present	-5636
setModel	-5637
eclipse	-5638
ProcName	-5639
YPE	-5640
olders	-5641
Hibernate	-5642
gs	-5643
mask	-5644
Ratio	-5645
getColor	-5646
namespace	-5647
auto	-5648
▁Column	-5649
Cli	-5650
▁Cap	-5651
Cookie	-5652
▁Security	-5653
AI	-5654
DIS	-5655
▁1];	-5656
isIn	-5657
Released	-5658
dt	-5659
Stmt	-5660
▁Geo	-5661
Launch	-5662
columnIndex	-5663
Indent	-5664
ressed	-5665
RemoteException	-5666
Logging	-5667
▁dispatch	-5668
▁dump	-5669
PREFIX	-5670
▁decl	-5671
Pr	-5672
Gui	-5673
▁setSelection	-5674
ied	-5675
Primitive	-5676
mento	-5677
▁assign	-5678
Assignment	-5679
Dependency	-5680
▁sender	-5681
getPosition	-5682
EP	-5683
DED	-5684
currentThread	-5685
RED	-5686
▁Response	-5687
gt	-5688
acer	-5689
Const	-5690
▁lower	-5691
/*	-5692
getMin	-5693
product	-5694
16/	-5695
▁clip	-5696
schedule	-5697
Sibling	-5698
CB	-5699
account	-5700
casType	-5701
PRI	-5702
▁cached	-5703
stitution	-5704
getMethod	-5705
Authentication	-5706
▁dy	-5707
plan	-5708
Destination	-5709
propertyName	-5710
Should	-5711
Contain	-5712
connected	-5713
-8	-5714
icle	-5715
▁Multi	-5716
▁invalid	-5717
▁identifier	-5718
addAttribute	-5719
▁setType	-5720
▁getDocument	-5721
Nom	-5722
▁getContext	-5723
▁Bit	-5724
assed	-5725
ALSE	-5726
Qualified	-5727
ince	-5728
▁inst	-5729
center	-5730
Definitions	-5731
wt	-5732
Alive	-5733
▁isIn	-5734
▁provider	-5735
ayers	-5736
Username	-5737
▁JFileChooser	-5738
:"+	-5739
oreign	-5740
▁getNew	-5741
admin	-5742
atype	-5743
Formatted	-5744
▁StringWriter	-5745
=?	-5746
rect	-5747
▁force	-5748
+",	-5749
]))	-5750
fact	-5751
Filters	-5752
▁DA	-5753
ifiable	-5754
▁bottom	-5755
patible	-5756
env	-5757
▁gui	-5758
TITLE	-5759
Behavior	-5760
▁Html	-5761
Suite	-5762
ooter	-5763
▁note	-5764
_;	-5765
getOwner	-5766
▁Dec	-5767
pped	-5768
TypeRef	-5769
▁running	-5770
ae	-5771
Fill	-5772
getPage	-5773
(0)	-5774
Fact	-5775
pool	-5776
▁getRe	-5777
▁install	-5778
PAGE	-5779
shutdown	-5780
high	-5781
EntityManager	-5782
Watch	-5783
Patient	-5784
▁retrieve	-5785
▁getView	-5786
getService	-5787
ARY	-5788
vide	-5789
▁Call	-5790
▁rc	-5791
0");	-5792
Controls	-5793
PLA	-5794
orth	-5795
getNum	-5796
cons	-5797
▁hide	-5798
Gap	-5799
direction	-5800
PARATOR	-5801
▁relation	-5802
gif	-5803
sequence	-5804
viewer	-5805
JMenuBar	-5806
Env	-5807
▁gridData	-5808
bose	-5809
SECON	-5810
RGB	-5811
ajor	-5812
sembly	-5813
></	-5814
ORIZONT	-5815
▁getWidth	-5816
actions	-5817
ORIZONTAL	-5818
▁getProject	-5819
()!=	-5820
createStatement	-5821
▁done	-5822
Dispatcher	-5823
some	-5824
pair	-5825
peek	-5826
▁book	-5827
Runtime	-5828
distance	-5829
hip	-5830
DELETE	-5831
▁ActionEvent	-5832
createElement	-5833
settings	-5834
VIEW	-5835
Any	-5836
▁fl	-5837
proxy	-5838
▁getHeight	-5839
("-	-5840
Extr	-5841
▁sec	-5842
XPath	-5843
▁overlay	-5844
BACK	-5845
Rotation	-5846
Visibility	-5847
getAttributes	-5848
▁upper	-5849
▁JComponent	-5850
Organization	-5851
▁space	-5852
▁Plugin	-5853
▁reply	-5854
rb	-5855
ators	-5856
Closing	-5857
js	-5858
with	-5859
ading	-5860
Suffix	-5861
▁XY	-5862
Customer	-5863
ba	-5864
Feel	-5865
Disabled	-5866
dom	-5867
▁returnValue	-5868
sim	-5869
Wrap	-5870
COLUMN	-5871
QUEST	-5872
Recur	-5873
lines	-5874
CC	-5875
ador	-5876
▁components	-5877
counter	-5878
pear	-5879
home	-5880
▁rot	-5881
device	-5882
internal	-5883
BUTTON	-5884
Master	-5885
ffine	-5886
▁Edge	-5887
▁0){	-5888
tereo	-5889
bs	-5890
IND	-5891
▁pstmt	-5892
meta	-5893
ilation	-5894
agnostics	-5895
Tra	-5896
yper	-5897
▁Char	-5898
EAR	-5899
alar	-5900
acesContext	-5901
ales	-5902
locate	-5903
Pe	-5904
alias	-5905
▁returned	-5906
▁*=	-5907
▁FileWriter	-5908
=");	-5909
▁md	-5910
Prefs	-5911
aption	-5912
attach	-5913
collection	-5914
▁alias	-5915
▁Mem	-5916
▁pc	-5917
results	-5918
Warnings	-5919
ias	-5920
▁18	-5921
month	-5922
▁JTextArea	-5923
MF	-5924
UD	-5925
getA	-5926
ilar	-5927
outer	-5928
INVALID	-5929
▁matches	-5930
JComponent	-5931
Private	-5932
▁modified	-5933
WA	-5934
▁servlet	-5935
gments	-5936
uspend	-5937
usiness	-5938
▁dt	-5939
▁sv	-5940
Parts	-5941
STY	-5942
cending	-5943
▁lang	-5944
setForeground	-5945
Live	-5946
▁Generic	-5947
▁sync	-5948
HEAD	-5949
Polygon	-5950
Individual	-5951
SUB	-5952
▁ui	-5953
usic	-5954
eries	-5955
ContentType	-5956
ke	-5957
esh	-5958
escape	-5959
MAP	-5960
▁setV	-5961
bounds	-5962
▁origin	-5963
ScrollBar	-5964
getProperties	-5965
LED	-5966
VEL	-5967
Arrays	-5968
VICE	-5969
[1]);	-5970
original	-5971
2",	-5972
References	-5973
alt	-5974
help	-5975
Analysis	-5976
BamBL	-5977
Bind	-5978
COMM	-5979
General	-5980
URLException	-5981
ring	-5982
import	-5983
CellRenderer	-5984
▁any	-5985
aming	-5986
Spacing	-5987
▁setStatus	-5988
atom	-5989
decl	-5990
▁GL	-5991
+=	-5992
:\	-5993
TF	-5994
Final	-5995
ho	-5996
Cols	-5997
Star	-5998
oose	-5999
Times	-6000
getBoolean	-6001
▁getLog	-6002
▁getIndex	-6003
Increment	-6004
▁flags	-6005
▁metadata	-6006
ipo	-6007
Round	-6008
Throw	-6009
▁Meta	-6010
alance	-6011
yy	-6012
parser	-6013
▁bar	-6014
STYLE	-6015
Diagnostic	-6016
▁Per	-6017
allow	-6018
▁created	-6019
▁background	-6020
Switch	-6021
getDate	-6022
▁Mon	-6023
DU	-6024
(3,	-6025
GTH	-6026
FALSE	-6027
▁tokens	-6028
▁attrs	-6029
correct	-6030
▁ce	-6031
Entities	-6032
▁jRadioButton	-6033
Resolve	-6034
▁Stream	-6035
(10,	-6036
▁Function	-6037
OFF	-6038
Comb	-6039
SERT	-6040
▁admin	-6041
▁Channel	-6042
▁propertyChange	-6043
uch	-6044
AndFeel	-6045
▁getAction	-6046
▁Qu	-6047
▁Frame	-6048
▁saved	-6049
▁getLabel	-6050
invokeLater	-6051
ElementException	-6052
SheetPage	-6053
BorderLayout	-6054
notifyChanged	-6055
AXB	-6056
ulated	-6057
▁users	-6058
Da	-6059
ube	-6060
ircle	-6061
loader	-6062
Hit	-6063
Toolbar	-6064
ident	-6065
getNew	-6066
Snapshot	-6067
Jo	-6068
▁annotation	-6069
area	-6070
isDisposed	-6071
▁loader	-6072
activate	-6073
▁indexOf	-6074
sqrt	-6075
▁updateChildren	-6076
setSelectedIndex	-6077
uted	-6078
▁may	-6079
mbedded	-6080
▁extract	-6081
Own	-6082
HTTP	-6083
Sender	-6084
ventory	-6085
Keyword	-6086
rypt	-6087
BY	-6088
▁Syn	-6089
▁dx	-6090
echa	-6091
▁Messages	-6092
Days	-6093
Notes	-6094
ather	-6095
aining	-6096
▁JTable	-6097
▁isEmpty	-6098
Modifiers	-6099
▁constraints	-6100
Sk	-6101
ITEM	-6102
entries	-6103
Positions	-6104
▁supports	-6105
getPort	-6106
WORD	-6107
pass	-6108
itness	-6109
▁Check	-6110
▁enter	-6111
FE	-6112
ernel	-6113
▁userName	-6114
ses	-6115
Adaptor	-6116
aff	-6117
Serial	-6118
▁mail	-6119
▁activity	-6120
VERTICAL	-6121
istr	-6122
marsh	-6123
directory	-6124
getFeatureID	-6125
▁itr	-6126
▁3;	-6127
Album	-6128
HEIGHT	-6129
Seconds	-6130
trip	-6131
CONFIG	-6132
Frames	-6133
ah	-6134
▁Trace	-6135
setTime	-6136
▁adapter	-6137
Completion	-6138
ugh	-6139
▁The	-6140
2_	-6141
Geo	-6142
ues	-6143
LOCK	-6144
▁contain	-6145
SED	-6146
Example	-6147
▁populate	-6148
Img	-6149
▁dist	-6150
install	-6151
▁maximum	-6152
▁Annot	-6153
▁topic	-6154
Encoder	-6155
Loading	-6156
Annotations	-6157
Distribution	-6158
Two	-6159
▁restore	-6160
Digits	-6161
ecycle	-6162
▁Trans	-6163
izable	-6164
▁simple	-6165
▁addr	-6166
▁interface	-6167
▁bits	-6168
Preview	-6169
▁definition	-6170
ARD	-6171
Extent	-6172
Desktop	-6173
DESCRI	-6174
▁Render	-6175
unlock	-6176
▁chunk	-6177
endor	-6178
Accessor	-6179
▁getTotal	-6180
SelectionEvent	-6181
Rank	-6182
ligh	-6183
Grammar	-6184
orer	-6185
SPE	-6186
kdir	-6187
▁setIs	-6188
ANY	-6189
subject	-6190
Must	-6191
▁Option	-6192
strument	-6193
rapped	-6194
resent	-6195
jar	-6196
mapping	-6197
ollback	-6198
pi	-6199
▁drag	-6200
▁Op	-6201
fail	-6202
▁cluster	-6203
WindowEvent	-6204
Esc	-6205
▁Unit	-6206
BR	-6207
SM	-6208
eter	-6209
Scheme	-6210
vt	-6211
Fixed	-6212
Allow	-6213
Infos	-6214
Management	-6215
▁Job	-6216
Country	-6217
FILL	-6218
CHANGED	-6219
▁"\'");	-6220
identifier	-6221
inv	-6222
("\\\\	-6223
▁period	-6224
sv	-6225
Persistence	-6226
score	-6227
TagName	-6228
getCell	-6229
Artifact	-6230
23	-6231
+")	-6232
TOP	-6233
peak	-6234
zone	-6235
newValue	-6236
relation	-6237
▁Selection	-6238
▁{"	-6239
▁headers	-6240
INDEX	-6241
Termin	-6242
▁Order	-6243
cls	-6244
=\\""	-6245
▁Person	-6246
▁Location	-6247
▁0));	-6248
Restriction	-6249
▁loop	-6250
bc	-6251
UST	-6252
▁Open	-6253
Locked	-6254
numberOf	-6255
invalid	-6256
▁schedule	-6257
EL	-6258
cepts	-6259
▁matcher	-6260
▁bt	-6261
2");	-6262
SCROLL	-6263
alk	-6264
▁jj	-6265
that	-6266
changed	-6267
;}	-6268
▁New	-6269
rence	-6270
▁")";	-6271
NoSuch	-6272
Mappings	-6273
-1)	-6274
pow	-6275
▁NO	-6276
Vars	-6277
▁criteria	-6278
throw	-6279
▁getPage	-6280
second	-6281
ipeline	-6282
oos	-6283
▁getService	-6284
BEL	-6285
▁Complex	-6286
ects	-6287
jj	-6288
▁getJTextField	-6289
layer	-6290
bottom	-6291
▁about	-6292
DataSet	-6293
PrintWriter	-6294
Cod	-6295
▁fc	-6296
▁more	-6297
Fil	-6298
LAYER	-6299
▁prefs	-6300
ServletContext	-6301
ORE	-6302
Lists	-6303
Procedure	-6304
ERO	-6305
Words	-6306
Aggreg	-6307
vie	-6308
▁ge	-6309
TestCase	-6310
riterion	-6311
Ip	-6312
paque	-6313
▁Rel	-6314
▁palette	-6315
nextInt	-6316
Submit	-6317
cision	-6318
getClient	-6319
ween	-6320
▁KeyEvent	-6321
IGN	-6322
INSERT	-6323
▁cr	-6324
▁butt	-6325
▁specified	-6326
▁act	-6327
getW	-6328
▁Pdf	-6329
person	-6330
▁than	-6331
▁will	-6332
Band	-6333
FIER	-6334
nowled	-6335
Configur	-6336
▁tc	-6337
▁Icon	-6338
HORIZONTAL	-6339
WH	-6340
Article	-6341
Categories	-6342
Visual	-6343
roadcast	-6344
▁equal	-6345
▁KEY	-6346
Applet	-6347
region	-6348
ffineTransform	-6349
decode	-6350
Into	-6351
irth	-6352
▁red	-6353
(1));	-6354
compile	-6355
cket	-6356
()>	-6357
site	-6358
prise	-6359
▁drop	-6360
packet	-6361
▁feed	-6362
CONTENT	-6363
▁setEnabled	-6364
Aware	-6365
ookies	-6366
bits	-6367
Drawing	-6368
▁3)	-6369
Reser	-6370
▁blog	-6371
▁pane	-6372
▁fixture	-6373
aus	-6374
Dest	-6375
▁Not	-6376
NORTH	-6377
▁merge	-6378
(8	-6379
▁PRO	-6380
▁anal	-6381
▁stor	-6382
▁Create	-6383
▁gridLayout	-6384
Under	-6385
setInt	-6386
Multiple	-6387
13	-6388
SEPARATOR	-6389
40	-6390
▁permission	-6391
Coordinates	-6392
▁disconnect	-6393
lots	-6394
brary	-6395
zip	-6396
▁reload	-6397
Ctx	-6398
KeyListener	-6399
Cells	-6400
▁hand	-6401
▁bound	-6402
▁setSize	-6403
▁interval	-6404
setHorizontal	-6405
PH	-6406
Mid	-6407
Validate	-6408
▁actions	-6409
ism	-6410
peer	-6411
amb	-6412
MONTH	-6413
tegr	-6414
Exist	-6415
olved	-6416
resolve	-6417
tacts	-6418
thing	-6419
SelectionModel	-6420
▁Standard	-6421
DN	-6422
▁pixel	-6423
▁methods	-6424
RES	-6425
▁df	-6426
UTE	-6427
Logic	-6428
▁setA	-6429
ational	-6430
▁Reference	-6431
▁newInstance	-6432
dai	-6433
Hidden	-6434
▁net	-6435
********	-6436
Representation	-6437
STEM	-6438
simp	-6439
▁Tri	-6440
LENGTH	-6441
mantic	-6442
Metric	-6443
defined	-6444
setType	-6445
Numbers	-6446
▁1:	-6447
scope	-6448
objects	-6449
▁Dep	-6450
000);	-6451
COUNT	-6452
destination	-6453
▁Code	-6454
Native	-6455
▁alpha	-6456
history	-6457
▁Cursor	-6458
va	-6459
Assignable	-6460
INTE	-6461
Finish	-6462
success	-6463
dl	-6464
Negative	-6465
Platform	-6466
constraint	-6467
▁labelValue	-6468
▁classes	-6469
▁setString	-6470
Probability	-6471
interrupt	-6472
▁BoxLayout	-6473
OBJECT	-6474
▁decode	-6475
Em	-6476
pk	-6477
NEW	-6478
vector	-6479
▁thrown	-6480
Expanded	-6481
complete	-6482
TextPane	-6483
BigInteger	-6484
Den	-6485
less	-6486
▁observer	-6487
sdl	-6488
Direct	-6489
▁Stack	-6490
▁network	-6491
cel	-6492
Capability	-6493
Blank	-6494
▁scan	-6495
PR	-6496
Api	-6497
▁Block	-6498
dimension	-6499
limit	-6500
symbol	-6501
Terminal	-6502
getError	-6503
▁dom	-6504
Ord	-6505
shape	-6506
DIR	-6507
▁pause	-6508
security	-6509
▁low	-6510
ANG	-6511
note	-6512
▁its	-6513
Coords	-6514
Dot	-6515
▁ms	-6516
Dist	-6517
matrix	-6518
getShell	-6519
iom	-6520
expr	-6521
Runner	-6522
DOWN	-6523
LEVEL	-6524
)_	-6525
etween	-6526
before	-6527
vation	-6528
Printer	-6529
▁registry	-6530
Square	-6531
▁iv	-6532
▁getPath	-6533
amento	-6534
▁ClassNotFound	-6535
vertex	-6536
▁priority	-6537
▁attributeName	-6538
Atc	-6539
UUID	-6540
ingleton	-6541
▁columnName	-6542
monitor	-6543
▁minimum	-6544
getRowCount	-6545
Utility	-6546
orization	-6547
11.	-6548
global	-6549
RESOURCE	-6550
▁startTime	-6551
30	-6552
▁getTest	-6553
addCommand	-6554
▁textField	-6555
RDF	-6556
▁av	-6557
▁ie	-6558
6));	-6559
medi	-6560
progress	-6561
▁room	-6562
archive	-6563
CA	-6564
getIcon	-6565
▁Transform	-6566
-1;	-6567
romo	-6568
phone	-6569
Company	-6570
Extensions	-6571
OID	-6572
▁TYPE	-6573
AMETER	-6574
failed	-6575
updateDt	-6576
▁setLast	-6577
Frequency	-6578
▁adjust	-6579
▁TreePath	-6580
▁sf	-6581
▁Vertex	-6582
aste	-6583
plot	-6584
activeInd	-6585
ontology	-6586
ATED	-6587
▁Met	-6588
▁anim	-6589
▁getDisplay	-6590
DD	-6591
▁ct	-6592
▁place	-6593
uzzle	-6594
▁events	-6595
▁getLine	-6596
systemRef	-6597
▁jar	-6598
Commun	-6599
NUMBER	-6600
insertDt	-6601
insertUserRef	-6602
updateUserRef	-6603
ico	-6604
Stock	-6605
pearance	-6606
gc	-6607
vs	-6608
heel	-6609
▁vec	-6610
getNumberOf	-6611
▁fs	-6612
▁setParent	-6613
▁OM	-6614
▁Vis	-6615
<=	-6616
YES	-6617
▁depend	-6618
>)	-6619
ONG	-6620
getLog	-6621
riting	-6622
NOWN	-6623
assign	-6624
ehicle	-6625
▁composite	-6626
dle	-6627
▁Row	-6628
Where	-6629
▁world	-6630
StringUtils	-6631
uario	-6632
DOC	-6633
▁getDate	-6634
AXIS	-6635
adient	-6636
▁setState	-6637
5;	-6638
▁5,	-6639
(-1);	-6640
Views	-6641
Malformed	-6642
MPL	-6643
acy	-6644
▁Initi	-6645
▁forward	-6646
Hierarchy	-6647
clean	-6648
▁setRe	-6649
▁getList	-6650
▁media	-6651
timeout	-6652
FINE	-6653
PM	-6654
mid	-6655
Convert	-6656
Qualifier	-6657
▁you	-6658
Cause	-6659
▁groups	-6660
▁Insets	-6661
MethodName	-6662
▁formatter	-6663
_)	-6664
Perform	-6665
▁setImage	-6666
Functions	-6667
getSystem	-6668
reater	-6669
▁ByteBuffer	-6670
flags	-6671
itation	-6672
components	-6673
marks	-6674
contact	-6675
▁Internal	-6676
▁getLocal	-6677
lassification	-6678
▁getInput	-6679
increment	-6680
)",	-6681
DIT	-6682
cion	-6683
operation	-6684
cum	-6685
Terms	-6686
profile	-6687
▁Format	-6688
▁FlowLayout	-6689
▁es	-6690
▁ss	-6691
Direc	-6692
closed	-6693
writeInt	-6694
getNamespace	-6695
IDE	-6696
focus	-6697
Needed	-6698
OWL	-6699
fine	-6700
Foreground	-6701
oton	-6702
▁GUI	-6703
Graphic	-6704
ordinates	-6705
▁complete	-6706
white	-6707
▁setL	-6708
getInput	-6709
▁allowed	-6710
fieldName	-6711
repository	-6712
ddy	-6713
vals	-6714
▁oObj	-6715
▁cn	-6716
quis	-6717
▁VAL	-6718
Alert	-6719
▁Controller	-6720
setActionCommand	-6721
free	-6722
labor	-6723
Camera	-6724
02	-6725
("+	-6726
▁"}	-6727
compute	-6728
Participant	-6729
zoom	-6730
▁author	-6731
AsStream	-6732
IVE	-6733
▁getEnd	-6734
Managed	-6735
▁getStatus	-6736
uts	-6737
Pause	-6738
▁MouseEvent	-6739
Uni	-6740
non	-6741
;");	-6742
▁cor	-6743
POINT	-6744
engine	-6745
Material	-6746
Visu	-6747
]));	-6748
Pending	-6749
Iteration	-6750
Exceptions	-6751
Aspect	-6752
UNKNOWN	-6753
getAddress	-6754
City	-6755
▁dst	-6756
Whitespace	-6757
ListenerList	-6758
echn	-6759
ateway	-6760
▁Agent	-6761
▁UMLPackage	-6762
RC	-6763
ROW	-6764
Apply	-6765
isLog	-6766
PreferenceStore	-6767
Der	-6768
Cached	-6769
protocol	-6770
▁4;	-6771
▁AST	-6772
Existing	-6773
mkdir	-6774
Async	-6775
▁disable	-6776
lid	-6777
ros	-6778
ICON	-6779
LABEL	-6780
Vec	-6781
sun	-6782
SING	-6783
click	-6784
dig	-6785
export	-6786
SF	-6787
▁getRequest	-6788
▁EX	-6789
SOUTH	-6790
verify	-6791
▁sig	-6792
include	-6793
▁Repository	-6794
ura	-6795
Anim	-6796
Generate	-6797
Arc	-6798
LAG	-6799
fil	-6800
images	-6801
ARGUMENT	-6802
RU	-6803
Office	-6804
Moved	-6805
▁3,	-6806
Prev	-6807
wrap	-6808
ANCEL	-6809
▁tags	-6810
rollback	-6811
Experiment	-6812
WI	-6813
Related	-6814
▁Serializ	-6815
▁graphics	-6816
Sorted	-6817
▁setMessage	-6818
Inst	-6819
Pref	-6820
Sources	-6821
▁Messag	-6822
▁associ	-6823
▁players	-6824
mis	-6825
Veto	-6826
ados	-6827
merge	-6828
▁home	-6829
▁selector	-6830
rep	-6831
▁arr	-6832
Matches	-6833
▁sq	-6834
case	-6835
▁setE	-6836
FORMAT	-6837
ModelEvent	-6838
▁Structure	-6839
▁Script	-6840
Mis	-6841
▁Unknown	-6842
▁getCell	-6843
Digit	-6844
ables	-6845
eatures	-6846
character	-6847
()[	-6848
▁fin	-6849
▁best	-6850
▁Shape	-6851
atitude	-6852
▁radius	-6853
Optional	-6854
EventType	-6855
getFull	-6856
▁Widget	-6857
nowledge	-6858
getServer	-6859
▁pm	-6860
Compare	-6861
▁tick	-6862
expand	-6863
▁Short	-6864
▁typeName	-6865
addContent	-6866
getInputStream	-6867
▁security	-6868
setMnemonic	-6869
Ance	-6870
skip	-6871
▁WCM	-6872
depend	-6873
▁inner	-6874
84	-6875
Recipient	-6876
Oid	-6877
▁10,	-6878
▁COM	-6879
getRe	-6880
▁userId	-6881
fficient	-6882
getPoint	-6883
Projection	-6884
▁3);	-6885
ora	-6886
▁setInput	-6887
▁&=	-6888
▁1]	-6889
▁opt	-6890
covery	-6891
▁fireTable	-6892
)/	-6893
▁rank	-6894
▁Access	-6895
provider	-6896
▁deleted	-6897
TableName	-6898
▁Py	-6899
KY	-6900
Force	-6901
inters	-6902
remote	-6903
▁factor	-6904
getBundle	-6905
▁tableName	-6906
THOD	-6907
lied	-6908
▁resultSet	-6909
+1);	-6910
Clean	-6911
Overlay	-6912
▁trigger	-6913
getControl	-6914
Upd	-6915
▁menuItem	-6916
oss	-6917
beans	-6918
Resize	-6919
▁getLogger	-6920
parseDouble	-6921
messages	-6922
dc	-6923
BORDER	-6924
▁policy	-6925
▁Bad	-6926
anvas	-6927
encoding	-6928
Evaluator	-6929
GIN	-6930
Matching	-6931
Vi	-6932
▁200	-6933
MBean	-6934
ritten	-6935
▁chars	-6936
Navigation	-6937
SOR	-6938
istic	-6939
▁]	-6940
▁nb	-6941
▁CIM	-6942
black	-6943
Letter	-6944
pus	-6945
setStatus	-6946
]=	-6947
aries	-6948
▁publish	-6949
setS	-6950
Styles	-6951
celerator	-6952
MSException	-6953
CCESS	-6954
aring	-6955
▁transition	-6956
MODEL	-6957
JFrame	-6958
▁storage	-6959
PARAMETER	-6960
BOLD	-6961
umbn	-6962
metadata	-6963
RAY	-6964
YEAR	-6965
ansi	-6966
jdbc	-6967
arDown	-6968
▁chain	-6969
Picture	-6970
UserName	-6971
▁connected	-6972
tle	-6973
Wire	-6974
Estim	-6975
getMain	-6976
Face	-6977
▁"&	-6978
Than	-6979
▁existing	-6980
AssignableFrom	-6981
SwingConstants	-6982
▁Ref	-6983
icode	-6984
Street	-6985
cepted	-6986
▁JList	-6987
▁listenerList	-6988
rv	-6989
.0,	-6990
Bug	-6991
Tests	-6992
erator	-6993
pective	-6994
ONLY	-6995
horizontal	-6996
▁Operation	-6997
Checker	-6998
Producer	-6999
DataChanged	-7000
SB	-7001
adwords	-7002
getList	-7003
Photo	-7004
Actual	-7005
Design	-7006
▁addAll	-7007
▁differ	-7008
addChild	-7009
orph	-7010
usters	-7011
▁started	-7012
Registered	-7013
pg	-7014
xsd	-7015
ents	-7016
med	-7017
Operations	-7018
shell	-7019
amount	-7020
▁successful	-7021
▁13	-7022
getBean	-7023
Arr	-7024
Std	-7025
(3);	-7026
▁Module	-7027
▁warning	-7028
)((	-7029
itr	-7030
▁click	-7031
activity	-7032
▁overrid	-7033
Population	-7034
▁same	-7035
▁setX	-7036
serted	-7037
▁actor	-7038
MD	-7039
HKY	-7040
▁lbl	-7041
▁modify	-7042
MinimumSize	-7043
Pdf	-7044
▁impl	-7045
Family	-7046
Collision	-7047
▁getState	-7048
▁Instruction	-7049
+"\'	-7050
custom	-7051
▁Annotation	-7052
RS	-7053
▁Feature	-7054
▁getBase	-7055
▁getTitle	-7056
PrimaryKey	-7057
Sys	-7058
▁GP	-7059
ague	-7060
▁subscri	-7061
▁\');	-7062
▁StringUtils	-7063
ais	-7064
RECT	-7065
setData	-7066
▁assertSame	-7067
▁"\\	-7068
Steps	-7069
Interaction	-7070
▁Persistence	-7071
dp	-7072
GRE	-7073
sec	-7074
▁getLocation	-7075
dim	-7076
When	-7077
sync	-7078
Vertices	-7079
amingException	-7080
Are	-7081
prob	-7082
getBase	-7083
▁JFrame	-7084
▁setStart	-7085
hasMoreTokens	-7086
▁overlayImage	-7087
----------------	-7088
[4	-7089
Business	-7090
DBException	-7091
hide	-7092
Painter	-7093
duration	-7094
Bin	-7095
BAR	-7096
tice	-7097
lower	-7098
▁percent	-7099
▁setDate	-7100
DESCRIPTION	-7101
▁getServer	-7102
Visit	-7103
throws	-7104
OC	-7105
bundle	-7106
4;	-7107
")){	-7108
Respon	-7109
ToggleButton	-7110
etype	-7111
vention	-7112
▁setMin	-7113
Many	-7114
lecule	-7115
tributor	-7116
Semantic	-7117
getEditor	-7118
Gene	-7119
Seed	-7120
holder	-7121
unique	-7122
▁correct	-7123
MEN	-7124
▁0:	-7125
▁setLocation	-7126
SD	-7127
oices	-7128
Altern	-7129
lapsed	-7130
WL	-7131
Demo	-7132
getMap	-7133
▁rules	-7134
getResult	-7135
Activation	-7136
Additional	-7137
FR	-7138
▁jb	-7139
userName	-7140
▁"(	-7141
chart	-7142
thes	-7143
herit	-7144
itter	-7145
Station	-7146
LookAndFeel	-7147
ignore	-7148
000	-7149
Car	-7150
MPLE	-7151
▁pred	-7152
running	-7153
azy	-7154
▁getIcon	-7155
',	-7156
rpc	-7157
setFocus	-7158
orrelation	-7159
ASS	-7160
QUI	-7161
▁Ax	-7162
ridge	-7163
sException	-7164
APPL	-7165
bin	-7166
▁operator	-7167
yc	-7168
▁gu	-7169
Compiler	-7170
descriptor	-7171
author	-7172
ritable	-7173
rog	-7174
toByteArray	-7175
Dim	-7176
Glyph	-7177
Study	-7178
Rest	-7179
ocused	-7180
▁collect	-7181
setLayoutData	-7182
uff	-7183
ROLE	-7184
Scan	-7185
Mediator	-7186
isto	-7187
Cards	-7188
▁prod	-7189
▁team	-7190
Dynamic	-7191
▁getTxt	-7192
▁notifyListeners	-7193
\':	-7194
▁jCheckBox	-7195
▁ty	-7196
after	-7197
▁self	-7198
▁Types	-7199
▁oid	-7200
Merge	-7201
▁slot	-7202
POSITION	-7203
▁10;	-7204
depth	-7205
Rating	-7206
Disk	-7207
events	-7208
Subscription	-7209
car	-7210
irc	-7211
tinu	-7212
Hints	-7213
PLAIN	-7214
▁cols	-7215
Channels	-7216
Consumer	-7217
Offer	-7218
Motion	-7219
ffective	-7220
▁getForm	-7221
▁..	-7222
aging	-7223
▁rowIndex	-7224
FONT	-7225
Skill	-7226
aid	-7227
TERN	-7228
▁Role	-7229
readObject	-7230
saved	-7231
▁millis	-7232
▁cleanup	-7233
isAssignableFrom	-7234
▁Version	-7235
▁rb	-7236
loud	-7237
Serializable	-7238
Destroy	-7239
CharArray	-7240
ulo	-7241
▁CF	-7242
4);	-7243
ways	-7244
Blocks	-7245
consume	-7246
(5,	-7247
gap	-7248
()]);	-7249
Include	-7250
Solution	-7251
dot	-7252
SYSTEM	-7253
getCode	-7254
▁rt	-7255
views	-7256
patial	-7257
▁cd	-7258
▁pref	-7259
▁stats	-7260
getTree	-7261
ObjectName	-7262
Video	-7263
plorer	-7264
▁Timer	-7265
ryption	-7266
Velocity	-7267
Release	-7268
ialized	-7269
▁jComboBox	-7270
ooth	-7271
▁pair	-7272
▁relative	-7273
▁BufferedWriter	-7274
simple	-7275
aci	-7276
▁CON	-7277
▁For	-7278
Defaults	-7279
getFrame	-7280
uture	-7281
▁setContent	-7282
PropertyName	-7283
(12	-7284
Fetch	-7285
getCause	-7286
!",	-7287
WIN	-7288
▁isS	-7289
lue	-7290
lict	-7291
▁dat	-7292
timer	-7293
apes	-7294
▁xpath	-7295
Without	-7296
▁Product	-7297
▁Runtime	-7298
common	-7299
Quality	-7300
▁getColor	-7301
3)	-7302
na	-7303
▁"0	-7304
▁ci	-7305
▁sk	-7306
DY	-7307
▁speed	-7308
getActionCommand	-7309
REC	-7310
vere	-7311
TypeId	-7312
Generated	-7313
getOffset	-7314
▁setTarget	-7315
Now	-7316
WRI	-7317
ToFile	-7318
subscri	-7319
addMouseListener	-7320
INK	-7321
Power	-7322
Opaque	-7323
umbnail	-7324
▁resize	-7325
▁single	-7326
▁segment	-7327
▁addChild	-7328
Fin	-7329
odo	-7330
▁Packet	-7331
▁site	-7332
▁getFont	-7333
PU	-7334
▁NodeList	-7335
▁getActive	-7336
perform	-7337
Serializer	-7338
versal	-7339
dataset	-7340
amage	-7341
should	-7342
Playlist	-7343
▁setColor	-7344
LOAD	-7345
▁stat	-7346
delegate	-7347
eval	-7348
▁-1,	-7349
Inner	-7350
▁turn	-7351
▁wrapper	-7352
getCommand	-7353
ada	-7354
SERVICE	-7355
currency	-7356
Assertion	-7357
Cancelar	-7358
Contains	-7359
▁setShow	-7360
Stored	-7361
▁hasNext	-7362
FileFilter	-7363
[2];	-7364
▁proj	-7365
setContent	-7366
MUL	-7367
clusion	-7368
▁Platform	-7369
Legend	-7370
Models	-7371
support	-7372
▁serial	-7373
getHeader	-7374
▁und	-7375
CANCEL	-7376
Declared	-7377
Nick	-7378
▁Title	-7379
Assembly	-7380
ErrorReason	-7381
DEFIN	-7382
.\	-7383
50,	-7384
columnName	-7385
URN	-7386
▁AS	-7387
▁tp	-7388
clip	-7389
fixture	-7390
▁waitFor	-7391
Partition	-7392
cos	-7393
▁));	-7394
motion	-7395
utation	-7396
Conditions	-7397
ANT	-7398
▁Tab	-7399
inality	-7400
tivities	-7401
&&	-7402
CHEC	-7403
Hello	-7404
Starting	-7405
getStyle	-7406
speed	-7407
▁download	-7408
▁generator	-7409
▁AND	-7410
▁toggle	-7411
TRANS	-7412
▁Account	-7413
Resizable	-7414
tested	-7415
▁expect	-7416
▁Network	-7417
▁members	-7418
▁ae	-7419
GN	-7420
["	-7421
dian	-7422
TRACE	-7423
▁Settings	-7424
ickness	-7425
▁Range	-7426
Currency	-7427
▁Sm	-7428
apsed	-7429
▁Assertion	-7430
DisplayModel	-7431
▁plan	-7432
▁Protocol	-7433
Comparison	-7434
ClassNotFound	-7435
Modal	-7436
getPassword	-7437
rypted	-7438
DataObject	-7439
Unexpected	-7440
▁initialized	-7441
getResponse	-7442
nb	-7443
Req	-7444
▁resp	-7445
Sent	-7446
oker	-7447
Arrow	-7448
inger	-7449
avigator	-7450
▁timestamp	-7451
Interceptor	-7452
TargetException	-7453
ndi	-7454
[1].	-7455
▁chat	-7456
▁8)	-7457
Windows	-7458
▁Select	-7459
Delimiter	-7460
▁setActive	-7461
Song	-7462
ingBox	-7463
▁defined	-7464
Duplicate	-7465
jScrollPane	-7466
▁FileReader	-7467
bus	-7468
quali	-7469
▁getJScrollPane	-7470
80	-7471
Front	-7472
Aux	-7473
oded	-7474
▁>>>	-7475
▁core	-7476
▁trim	-7477
':	-7478
ergy	-7479
▁CML	-7480
▁quali	-7481
tensity	-7482
▁AT	-7483
▁tm	-7484
Remo	-7485
izes	-7486
Signal	-7487
▁Dialog	-7488
▁compile	-7489
Feedback	-7490
setLabel	-7491
BIT	-7492
Win	-7493
▁ids	-7494
canvas	-7495
getGraph	-7496
▁algorithm	-7497
Refs	-7498
▁getSelection	-7499
▁Ge	-7500
Goal	-7501
ZERO	-7502
Instanti	-7503
isActive	-7504
▁predicate	-7505
/"	-7506
Plus	-7507
plic	-7508
Special	-7509
1.0	-7510
Lost	-7511
Panels	-7512
ErrorHandler	-7513
JS	-7514
hy	-7515
MAR	-7516
reason	-7517
checked	-7518
servlet	-7519
tm	-7520
▁lst	-7521
ializer	-7522
Specific	-7523
▁variables	-7524
▁Dat	-7525
▁cost	-7526
COMMAND	-7527
classes	-7528
▁Layout	-7529
Based	-7530
orary	-7531
binding	-7532
▁cookie	-7533
ignature	-7534
romosome	-7535
▁getHeader	-7536
▁rv	-7537
done	-7538
▁Def	-7539
Divider	-7540
Exchange	-7541
▁Inv	-7542
HEADER	-7543
UserId	-7544
getClassLoader	-7545
▁Imp	-7546
getCap	-7547
▁newName	-7548
▁ele	-7549
uring	-7550
▁setting	-7551
▁activate	-7552
gu	-7553
oned	-7554
Shift	-7555
contents	-7556
▁TreeNode	-7557
tl	-7558
alise	-7559
equal	-7560
Simulation	-7561
sin	-7562
diff	-7563
▁Output	-7564
▁complet	-7565
HexString	-7566
statement	-7567
EST	-7568
apon	-7569
groups	-7570
Already	-7571
▁received	-7572
Sprite	-7573
setMax	-7574
▁inc	-7575
Quote	-7576
ones	-7577
driver	-7578
Conversation	-7579
▁JspException	-7580
za	-7581
tore	-7582
▁signature	-7583
▁unregister	-7584
Est	-7585
PARAM	-7586
▁filters	-7587
getConfig	-7588
▁ResourceBundle	-7589
ALLOW	-7590
Party	-7591
forward	-7592
▁sorted	-7593
cTracker	-7594
▁normalize	-7595
sIn	-7596
getLong	-7597
8.	-7598
CIM	-7599
▁setG	-7600
allback	-7601
▁caught	-7602
▁MO	-7603
▁native	-7604
▁GridBag	-7605
atar	-7606
Broker	-7607
▁testIs	-7608
▁operand	-7609
>",	-7610
lat	-7611
▁flow	-7612
▁Exp	-7613
Append	-7614
▁basic	-7615
Receive	-7616
configure	-7617
Age	-7618
▁2:	-7619
Skip	-7620
graphics	-7621
Classpath	-7622
Neuron	-7623
getNumber	-7624
WOR	-7625
_);	-7626
Ctrl	-7627
Identi	-7628
Scenario	-7629
annotation	-7630
Transformation	-7631
EndpointAddress	-7632
ONENT	-7633
Compound	-7634
▁setFile	-7635
▁testAdd	-7636
▁transfer	-7637
lapse	-7638
mediate	-7639
▁General	-7640
concat	-7641
Encoded	-7642
▁Toolkit	-7643
):	-7644
SCH	-7645
-1);	-7646
isLoggable	-7647
▁getBoolean	-7648
indi	-7649
Primary	-7650
setMessage	-7651
▁setSource	-7652
extract	-7653
Envelope	-7654
sPanel	-7655
setParameter	-7656
Indexed	-7657
iration	-7658
FileNotFound	-7659
▁EJB	-7660
▁which	-7661
▁Coordinate	-7662
ProgressMonitor	-7663
▁Root	-7664
Generation	-7665
fc	-7666
Prim	-7667
▁eval	-7668
istogram	-7669
▁getResult	-7670
upper	-7671
getURI	-7672
▁suffix	-7673
getOutputStream	-7674
getPreferredSize	-7675
EXIT	-7676
▁pad	-7677
services	-7678
calculate	-7679
▁converter	-7680
getReference	-7681
addTab	-7682
▁Editor	-7683
TD	-7684
need	-7685
▁ins	-7686
▁win	-7687
SERVER	-7688
▁getCh	-7689
▁Update	-7690
ChangedEvent	-7691
aretPosition	-7692
alf	-7693
stitute	-7694
Sig	-7695
▁),	-7696
("\'	-7697
FFER	-7698
ilarity	-7699
▁problem	-7700
▁dataSource	-7701
Registration	-7702
igo	-7703
Listen	-7704
▁states	-7705
getGroup	-7706
▁SO	-7707
▁tokenizer	-7708
ele	-7709
Audit	-7710
Ancestor	-7711
3(	-7712
,0,	-7713
▁jsx	-7714
uit	-7715
Beans	-7716
▁10);	-7717
▁Matcher	-7718
PasswordField	-7719
Browse	-7720
LP	-7721
3));	-7722
TipText	-7723
pts	-7724
adas	-7725
echo	-7726
▁());	-7727
▁could	-7728
Heading	-7729
▁unique	-7730
▁Ap	-7731
odin	-7732
▁question	-7733
getLocalized	-7734
▁Ev	-7735
isNaN	-7736
▁program	-7737
▁setBackground	-7738
ung	-7739
atory	-7740
errors	-7741
▁dirty	-7742
ModelListener	-7743
▁bin	-7744
required	-7745
▁Constant	-7746
▁pi	-7747
▁Edit	-7748
▁Common	-7749
setInput	-7750
Pk	-7751
▁jSplitPane	-7752
ITI	-7753
▁Reader	-7754
▁loaded	-7755
getJButton	-7756
▁Preferences	-7757
CloseOperation	-7758
ChangedListener	-7759
▁comparator	-7760
composite	-7761
setMaximum	-7762
SW	-7763
REE	-7764
omin	-7765
pane	-7766
urch	-7767
▁edges	-7768
Docs	-7769
LDER	-7770
▁}*/	-7771
▁primary	-7772
isConnected	-7773
▁validation	-7774
8);	-7775
▁chooser	-7776
PrintStream	-7777
entification	-7778
▁wrap	-7779
▁setChanged	-7780
Occ	-7781
▁FI	-7782
Course	-7783
severe	-7784
RefId	-7785
bn	-7786
Sel	-7787
asy	-7788
▁14	-7789
▁Mail	-7790
▁setModel	-7791
ElementName	-7792
Pin	-7793
")).	-7794
Sequ	-7795
asis	-7796
ived	-7797
Prote	-7798
▁setN	-7799
▁getRowCount	-7800
Hour	-7801
▁failure	-7802
Way	-7803
lover	-7804
Pixels	-7805
▁vo	-7806
anonical	-7807
MAN	-7808
Require	-7809
▁createE	-7810
Wrong	-7811
Recent	-7812
▁Symbol	-7813
▁setTime	-7814
:",	-7815
Low	-7816
udo	-7817
delta	-7818
▁zero	-7819
Push	-7820
aper	-7821
serve	-7822
▁tRes	-7823
▁launch	-7824
▁JSONObject	-7825
Ack	-7826
Blog	-7827
getTag	-7828
lies	-7829
Quick	-7830
▁shift	-7831
▁inters	-7832
▁handleException	-7833
Tabs	-7834
tags	-7835
merce	-7836
served	-7837
TitledBorder	-7838
0.0	-7839
Curve	-7840
orders	-7841
▁anchor	-7842
▁Validation	-7843
setDescription	-7844
losure	-7845
10,	-7846
("\\	-7847
etime	-7848
▁occur	-7849
EventHandler	-7850
▁mc	-7851
▁cnt	-7852
JPanel	-7853
Activated	-7854
▁instruction	-7855
Biz	-7856
[],	-7857
}",	-7858
▁getBtn	-7859
childrenFeatures	-7860
MID	-7861
▁dto	-7862
modifiable	-7863
("(	-7864
uby	-7865
▁IO	-7866
Hook	-7867
Asset	-7868
retty	-7869
Privile	-7870
REQUEST	-7871
▁Package	-7872
Criterion	-7873
▁parts	-7874
jContentPane	-7875
▁getProperties	-7876
ATEG	-7877
Levels	-7878
tlement	-7879
▁rotate	-7880
Shutdown	-7881
Put	-7882
AUTH	-7883
mous	-7884
▁Sql	-7885
▁portName	-7886
lt	-7887
▁SE	-7888
verti	-7889
▁neighb	-7890
▁overridden	-7891
Kb	-7892
Colour	-7893
▁Device	-7894
atasource	-7895
▁occ	-7896
▁rhs	-7897
Positive	-7898
FieldName	-7899
efficient	-7900
=1;	-7901
▁IM	-7902
Comm	-7903
Collector	-7904
▁getInstance	-7905
TC	-7906
ALE	-7907
▁er	-7908
span	-7909
▁fix	-7910
EditorPane	-7911
▁getCommand	-7912
▁(1	-7913
=\'"	-7914
topic	-7915
▁units	-7916
removeElement	-7917
▁into	-7918
▁Named	-7919
▁href	-7920
ermine	-7921
▁Names	-7922
▁working	-7923
▁\'"+	-7924
FACT	-7925
FLAG	-7926
▁Tuple	-7927
Requested	-7928
▁finished	-7929
▁processor	-7930
▁inputStream	-7931
22	-7932
ACTIVE	-7933
▁"]");	-7934
ROL	-7935
▁getOutput	-7936
ModelException	-7937
METHOD	-7938
Surface	-7939
Blocking	-7940
APPLICATION	-7941
UNIT	-7942
builder	-7943
0){	-7944
ATCH	-7945
PASS	-7946
oots	-7947
▁Ims	-7948
▁deploy	-7949
You	-7950
cho	-7951
Invoice	-7952
OPER	-7953
etic	-7954
ocabul	-7955
onymous	-7956
▁IResource	-7957
artment	-7958
1(),	-7959
where	-7960
▁Real	-7961
cluster	-7962
Txt	-7963
▁dot	-7964
Phrase	-7965
rength	-7966
▁integer	-7967
▁cancelButton	-7968
getApplication	-7969
rank	-7970
▁look	-7971
▁customer	-7972
▁validator	-7973
▁lex	-7974
fatal	-7975
Digest	-7976
Footer	-7977
▁ClassLoader	-7978
▁getID	-7979
removed	-7980
▁Header	-7981
ROOT	-7982
Tele	-7983
elet	-7984
▁Zip	-7985
Analyzer	-7986
▁setFont	-7987
Using	-7988
▁Mark	-7989
▁round	-7990
getEntity	-7991
ResponseType	-7992
Tipo	-7993
▁NOT	-7994
vanced	-7995
Plugins	-7996
▁separator	-7997
urer	-7998
acket	-7999
Unsigned	-8000
▁seconds	-8001
period	-8002
requestFocus	-8003
▁))	-8004
WINDO	-8005
Spectrum	-8006
Dimensions	-8007
addListener	-8008
apt	-8009
▁bg	-8010
idue	-8011
Ordered	-8012
▁Compar	-8013
Authentic	-8014
▁registered	-8015
▁sys	-8016
▁tax	-8017
Opened	-8018
Tester	-8019
lobals	-8020
getEvent	-8021
▁LE	-8022
setState	-8023
getElements	-8024
prec	-8025
teral	-8026
▁Wire	-8027
calendar	-8028
loaded	-8029
getSimple	-8030
[1],	-8031
▁den	-8032
SHORT	-8033
Neighbor	-8034
▁Factory	-8035
Paragraph	-8036
Interfaces	-8037
RY	-8038
EMA	-8039
Pie	-8040
▁doTest	-8041
getPlayer	-8042
cer	-8043
ampl	-8044
▁cells	-8045
▁setLabel	-8046
toCharArray	-8047
▁ba	-8048
rate	-8049
REMOVE	-8050
isClosed	-8051
px	-8052
Optim	-8053
▁CoreException	-8054
ager	-8055
▁Attributes	-8056
0(	-8057
oler	-8058
CHECK	-8059
respon	-8060
▁batch	-8061
ansient	-8062
bility	-8063
publish	-8064
5));	-8065
▁marker	-8066
Delivery	-8067
Relations	-8068
▁QName	-8069
Weights	-8070
▁FileNotFound	-8071
4()	-8072
▁4)	-8073
pixel	-8074
ERENCE	-8075
Outgoing	-8076
▁getError	-8077
()/	-8078
getPar	-8079
tenance	-8080
▁vertices	-8081
PropertyValue	-8082
QUAL	-8083
▁setLayout	-8084
blog	-8085
▁atts	-8086
Comparable	-8087
ObjectType	-8088
RUN	-8089
UML	-8090
▁dc	-8091
here	-8092
datab	-8093
▁commands	-8094
▁getGroup	-8095
rink	-8096
Insets	-8097
LOCATION	-8098
acle	-8099
▁Ret	-8100
▁ejb	-8101
Correct	-8102
▁	-8103
e	-8104
t	-8105
i	-8106
r	-8107
n	-8108
o	-8109
a	-8110
l	-8111
s	-8112
)	-8113
(	-8114
u	-8115
c	-8116
d	-8117
p	-8118
g	-8119
;	-8120
.	-8121
m	-8122
b	-8123
f	-8124
h	-8125
S	-8126
{	-8127
}	-8128
=	-8129
v	-8130
y	-8131
E	-8132
C	-8133
w	-8134
"	-8135
x	-8136
T	-8137
I	-8138
,	-8139
P	-8140
A	-8141
D	-8142
L	-8143
R	-8144
N	-8145
M	-8146
O	-8147
_	-8148
F	-8149
k	-8150
B	-8151
j	-8152
+	-8153
0	-8154
V	-8155
U	-8156
1	-8157
G	-8158
q	-8159
H	-8160
z	-8161
!	-8162
W	-8163
[	-8164
]	-8165
2	-8166
J	-8167
<	-8168
:	-8169
\	-8170
-	-8171
>	-8172
&	-8173
K	-8174
X	-8175
/	-8176
*	-8177
Y	-8178
|	-8179
Q	-8180
3	-8181
'	-8182
4	-8183
5	-8184
?	-8185
6	-8186
8	-8187
Z	-8188
