<unk>	0
<s>	0
</s>	0
▁t	-0
▁th	-1
▁the	-2
▁a	-3
in	-4
et	-5
er	-6
on	-7
is	-8
en	-9
es	-10
at	-11
▁c	-12
or	-13
▁s	-14
ed	-15
▁o	-16
▁f	-17
re	-18
al	-19
it	-20
▁p	-21
ion	-22
▁m	-23
ent	-24
ec	-25
ur	-26
▁in	-27
▁of	-28
▁b	-29
▁w	-30
▁n	-31
▁to	-32
an	-33
ro	-34
▁d	-35
le	-36
ing	-37
od	-38
▁an	-39
▁T	-40
ar	-41
as	-42
▁S	-43
▁is	-44
▁R	-45
urn	-46
▁for	-47
eturn	-48
ll	-49
if	-50
▁this	-51
ect	-52
eth	-53
▁v	-54
ut	-55
us	-56
▁Th	-57
ce	-58
▁e	-59
▁l	-60
ethod	-61
▁r	-62
el	-63
am	-64
ation	-65
▁re	-66
ets	-67
eturns	-68
▁C	-69
▁g	-70
ue	-71
ic	-72
▁method	-73
ct	-74
▁be	-75
tr	-76
om	-77
ot	-78
▁val	-79
ul	-80
ate	-81
ment	-82
iv	-83
▁and	-84
▁h	-85
▁I	-86
im	-87
ter	-88
▁Returns	-89
▁con	-90
▁pro	-91
▁This	-92
▁G	-93
▁A	-94
un	-95
per	-96
id	-97
ag	-98
ject	-99
ab	-100
▁us	-101
ess	-102
▁wh	-103
▁value	-104
ist	-105
▁it	-106
st	-107
bject	-108
ad	-109
▁if	-110
ch	-111
il	-112
▁st	-113
▁that	-114
▁on	-115
ith	-116
▁Sets	-117
all	-118
pt	-119
est	-120
ay	-121
em	-122
ame	-123
ig	-124
ex	-125
um	-126
ass	-127
oc	-128
▁with	-129
▁object	-130
pl	-131
dd	-132
▁fi	-133
pert	-134
▁or	-135
▁ch	-136
▁by	-137
ol	-138
rom	-139
iz	-140
▁cl	-141
ifi	-142
lement	-143
▁D	-144
▁sp	-145
▁from	-146
▁as	-147
▁not	-148
ink	-149
ef	-150
ver	-151
{@	-152
▁ex	-153
▁propert	-154
ri	-155
ew	-156
qu	-157
up	-158
▁(	-159
ap	-160
ow	-161
▁com	-162
ill	-163
▁{@	-164
▁giv	-165
link	-166
ult	-167
age	-168
▁P	-169
os	-170
▁property	-171
▁given	-172
ode	-173
▁spec	-174
▁all	-175
ial	-176
▁The	-177
ain	-178
ly	-179
▁at	-180
▁M	-181
▁set	-182
ers	-183
yp	-184
ified	-185
ates	-186
▁cont	-187
ated	-188
end	-189
able	-190
ib	-191
▁will	-192
ext	-193
and	-194
tring	-195
av	-196
▁tr	-197
▁list	-198
ac	-199
▁Set	-200
ction	-201
▁are	-202
▁par	-203
ype	-204
urr	-205
ang	-206
▁Gets	-207
▁Get	-208
▁specified	-209
▁class	-210
▁im	-211
▁call	-212
th	-213
urrent	-214
ance	-215
▁new	-216
for	-217
▁sh	-218
▁current	-219
ption	-220
ov	-221
▁res	-222
▁F	-223
▁dat	-224
pon	-225
▁E	-226
▁name	-227
▁U	-228
▁def	-229
▁inst	-230
ializ	-231
res	-232
se	-233
ke	-234
ase	-235
act	-236
ull	-237
▁add	-238
▁In	-239
()	-240
▁init	-241
▁If	-242
ener	-243
▁when	-244
ection	-245
ort	-246
our	-247
▁O	-248
▁has	-249
▁return	-250
ber	-251
▁su	-252
▁N	-253
▁returns	-254
▁co	-255
ity	-256
▁Cre	-257
ault	-258
fer	-259
▁used	-260
und	-261
▁Add	-262
cri	-263
trib	-264
tribut	-265
ord	-266
▁can	-267
og	-268
eck	-269
ack	-270
plement	-271
vent	-272
ition	-273
umber	-274
▁element	-275
put	-276
▁file	-277
ure	-278
ore	-279
form	-280
uld	-281
int	-282
eld	-283
▁get	-284
▁initializ	-285
art	-286
cess	-287
ign	-288
▁j	-289
▁L	-290
▁ro	-291
▁"	-292
ach	-293
▁type	-294
▁ind	-295
▁number	-296
ould	-297
ine	-298
ir	-299
▁default	-300
▁null	-301
escri	-302
ive	-303
▁implement	-304
ans	-305
▁string	-306
▁data	-307
▁instance	-308
▁al	-309
▁W	-310
▁Test	-311
▁.	-312
eter	-313
ies	-314
▁attribut	-315
▁int	-316
ust	-317
▁ar	-318
ich	-319
▁any	-320
ence	-321
▁B	-322
▁up	-323
cl	-324
▁col	-325
▁cre	-326
ser	-327
▁rep	-328
ace	-329
▁do	-330
ory	-331
ponent	-332
str	-333
▁which	-334
ime	-335
op	-336
▁Return	-337
▁initializes	-338
▁un	-339
ip	-340
▁ke	-341
ild	-342
ether	-343
▁dis	-344
ument	-345
▁true	-346
ind	-347
▁ap	-348
ont	-349
▁H	-350
▁Ch	-351
▁should	-352
▁user	-353
essage	-354
rit	-355
▁mod	-356
▁ser	-357
▁sel	-358
▁J	-359
▁y	-360
ress	-361
ire	-362
ource	-363
▁contain	-364
igh	-365
resent	-366
vi	-367
ant	-368
get	-369
ication	-370
▁key	-371
▁node	-372
▁se	-373
ave	-374
ead	-375
).	-376
▁we	-377
▁whether	-378
▁one	-379
▁text	-380
▁attribute	-381
oad	-382
▁inter	-383
▁field	-384
▁event	-385
ator	-386
▁implementation	-387
▁-	-388
▁en	-389
ected	-390
ail	-391
atch	-392
uct	-393
▁de	-394
▁ass	-395
▁chang	-396
▁'	-397
▁ent	-398
ok	-399
▁called	-400
▁pos	-401
read	-402
▁descri	-403
▁component	-404
ally	-405
ues	-406
▁param	-407
▁pl	-408
ide	-409
▁no	-410
out	-411
▁Creates	-412
ard	-413
▁only	-414
▁Adds	-415
▁state	-416
▁out	-417
▁po	-418
▁requ	-419
▁id	-420
▁#	-421
▁ac	-422
ath	-423
▁pre	-424
In	-425
▁message	-426
ove	-427
▁loc	-428
umn	-429
▁but	-430
▁its	-431
▁so	-432
▁Con	-433
port	-434
▁sub	-435
▁index	-436
▁represent	-437
ere	-438
▁Rem	-439
iew	-440
ub	-441
▁V	-442
ight	-443
▁over	-444
ces	-445
ther	-446
ary	-447
▁gener	-448
▁form	-449
▁rem	-450
eg	-451
ast	-452
▁values	-453
▁le	-454
}.	-455
▁Method	-456
▁test	-457
rap	-458
▁Check	-459
▁time	-460
ug	-461
▁1	-462
ize	-463
mand	-464
play	-465
ception	-466
ev	-467
▁been	-468
▁item	-469
der	-470
▁column	-471
▁use	-472
▁into	-473
▁char	-474
▁String	-475
ient	-476
ile	-477
▁fir	-478
oves	-479
fig	-480
▁trans	-481
ray	-482
ton	-483
unt	-484
andl	-485
▁have	-486
▁bo	-487
eed	-488
ous	-489
unction	-490
▁sc	-491
oci	-492
▁then	-493
ree	-494
▁per	-495
▁upd	-496
▁map	-497
ork	-498
▁conn	-499
▁start	-500
par	-501
St	-502
ens	-503
▁fil	-504
ax	-505
row	-506
▁first	-507
▁row	-508
▁rec	-509
▁act	-510
▁result	-511
▁does	-512
ream	-513
qual	-514
ata	-515
▁St	-516
abl	-517
▁check	-518
▁position	-519
▁pr	-520
▁ed	-521
ocument	-522
▁other	-523
▁Not	-524
her	-525
▁reg	-526
ple	-527
▁X	-528
ock	-529
ror	-530
▁associ	-531
ases	-532
ature	-533
▁oper	-534
▁using	-535
vice	-536
▁returned	-537
ud	-538
irect	-539
etri	-540
▁charact	-541
val	-542
▁Create	-543
Type	-544
▁view	-545
ting	-546
▁content	-547
ari	-548
▁ign	-549
struct	-550
List	-551
etriev	-552
ose	-553
▁function	-554
▁Call	-555
▁cor	-556
▁sy	-557
▁It	-558
▁appl	-559
ML	-560
▁sup	-561
▁case	-562
Ex	-563
ecut	-564
ou	-565
▁action	-566
ell	-567
formation	-568
▁pass	-569
▁bu	-570
▁model	-571
one	-572
▁must	-573
▁ad	-574
▁af	-575
▁table	-576
min	-577
▁display	-578
▁exist	-579
▁child	-580
▁exp	-581
▁Com	-582
▁request	-583
▁may	-584
pend	-585
sert	-586
▁parameter	-587
▁was	-588
raph	-589
orm	-590
roup	-591
own	-592
abase	-593
▁selected	-594
▁array	-595
▁log	-596
▁part	-597
Ch	-598
▁associated	-599
ister	-600
▁}	-601
▁point	-602
▁Pro	-603
ible	-604
▁fo	-605
anel	-606
▁Ex	-607
▁fl	-608
aw	-609
▁refer	-610
ava	-611
ptor	-612
ong	-613
ange	-614
▁adds	-615
ry	-616
▁end	-617
▁fe	-618
figur	-619
▁same	-620
▁read	-621
▁process	-622
arch	-623
anag	-624
▁defin	-625
▁there	-626
▁cases	-627
▁ab	-628
▁Removes	-629
▁qu	-630
set	-631
▁connection	-632
Com	-633
▁input	-634
▁size	-635
▁direct	-636
ector	-637
itor	-638
▁em	-639
▁stat	-640
▁after	-641
▁er	-642
ual	-643
▁database	-644
▁path	-645
elet	-646
▁valid	-647
ations	-648
eng	-649
▁coll	-650
▁need	-651
class	-652
▁ignore	-653
vid	-654
▁document	-655
way	-656
aus	-657
▁En	-658
ak	-659
ating	-660
ise	-661
ery	-662
ff	-663
ify	-664
▁you	-665
ome	-666
▁objects	-667
▁information	-668
abel	-669
▁generated	-670
▁Setter	-671
▁0	-672
▁Checks	-673
ific	-674
▁error	-675
▁equal	-676
fore	-677
▁feature	-678
ification	-679
▁nam	-680
ost	-681
rid	-682
▁handl	-683
▁vari	-684
▁stream	-685
▁line	-686
tern	-687
stem	-688
Pro	-689
▁rel	-690
ength	-691
▁button	-692
alse	-693
ep	-694
▁sets	-695
▁code	-696
▁server	-697
▁before	-698
pro	-699
gument	-700
▁thread	-701
▁order	-702
▁aut	-703
enu	-704
etw	-705
▁date	-706
▁fr	-707
▁descriptor	-708
▁x	-709
▁image	-710
ick	-711
▁next	-712
ix	-713
▁match	-714
▁inv	-715
com	-716
ount	-717
raw	-718
ask	-719
its	-720
aint	-721
anager	-722
ia	-723
▁Res	-724
ased	-725
ert	-726
pd	-727
Name	-728
ond	-729
code	-730
▁output	-731
▁last	-732
Cont	-733
▁Retriev	-734
▁configur	-735
▁Cl	-736
action	-737
▁created	-738
String	-739
▁load	-740
wo	-741
ffer	-742
ge	-743
▁writ	-744
so	-745
▁than	-746
ule	-747
are	-748
▁byt	-749
▁cach	-750
▁und	-751
▁back	-752
▁vis	-753
▁false	-754
indow	-755
ook	-756
▁elements	-757
▁UR	-758
▁rece	-759
roll	-760
ob	-761
ender	-762
▁context	-763
ied	-764
vert	-765
ession	-766
▁representation	-767
▁format	-768
ield	-769
▁Note	-770
▁execut	-771
▁each	-772
▁color	-773
▁command	-774
ative	-775
▁update	-776
face	-777
ression	-778
rol	-779
▁argument	-780
▁org	-781
▁page	-782
▁work	-783
▁exception	-784
tem	-785
▁Re	-786
imum	-787
▁parent	-788
▁listener	-789
odel	-790
▁throw	-791
▁2	-792
▁=	-793
▁ident	-794
▁source	-795
pty	-796
ayer	-797
▁character	-798
que	-799
▁wid	-800
▁comp	-801
▁create	-802
▁operation	-803
▁option	-804
Object	-805
▁label	-806
▁Aut	-807
▁construct	-808
▁bl	-809
▁change	-810
▁av	-811
clud	-812
fo	-813
vel	-814
▁max	-815
ren	-816
ages	-817
▁stor	-818
▁length	-819
ical	-820
▁provid	-821
▁run	-822
▁two	-823
wise	-824
▁For	-825
▁record	-826
ause	-827
▁collection	-828
ars	-829
ample	-830
▁register	-831
eader	-832
pond	-833
Cl	-834
▁,	-835
'.	-836
not	-837
▁currently	-838
▁Upd	-839
eful	-840
▁XML	-841
▁group	-842
ride	-843
ole	-844
ake	-845
▁allow	-846
▁listen	-847
▁properties	-848
Con	-849
▁Sh	-850
ning	-851
▁tag	-852
pen	-853
▁added	-854
▁application	-855
ecl	-856
ersion	-857
ID	-858
▁description	-859
00	-860
▁reference	-861
▁tree	-862
ifies	-863
ark	-864
eters	-865
▁Getter	-866
▁status	-867
▁Called	-868
▁support	-869
▁entry	-870
etermin	-871
▁ID	-872
cul	-873
▁resource	-874
▁local	-875
▁acc	-876
ired	-877
--	-878
ely	-879
cc	-880
bo	-881
▁sim	-882
▁useful	-883
Res	-884
▁z	-885
ordin	-886
▁empty	-887
▁contains	-888
enc	-889
odes	-890
▁Tests	-891
arget	-892
respond	-893
▁receiv	-894
▁indic	-895
Exception	-896
urs	-897
ping	-898
TE	-899
alcul	-900
▁k	-901
ready	-902
ialog	-903
En	-904
actory	-905
▁Init	-906
▁correspond	-907
▁setting	-908
ccess	-909
sp	-910
ily	-911
ances	-912
▁names	-913
▁filter	-914
cept	-915
ically	-916
▁already	-917
ml	-918
een	-919
ension	-920
▁based	-921
ponse	-922
ables	-923
Val	-924
▁client	-925
▁me	-926
ifier	-927
▁ag	-928
▁system	-929
▁Auto	-930
▁under	-931
herit	-932
▁dif	-933
llow	-934
▁within	-935
apter	-936
plet	-937
etween	-938
econd	-939
▁graph	-940
▁str	-941
ailable	-942
▁An	-943
▁window	-944
▁perform	-945
ane	-946
▁access	-947
ss	-948
▁Writ	-949
▁configuration	-950
▁being	-951
▁listeners	-952
Set	-953
▁location	-954
▁between	-955
▁buffer	-956
▁interface	-957
▁cop	-958
Id	-959
ugh	-960
cre	-961
classes	-962
sed	-963
▁Ap	-964
\'	-965
▁panel	-966
▁min	-967
▁Tr	-968
efault	-969
▁selection	-970
ility	-971
▁version	-972
▁where	-973
▁service	-974
▁defined	-975
ish	-976
ram	-977
▁session	-978
round	-979
Data	-980
▁methods	-981
▁more	-982
▁pack	-983
▁mem	-984
▁passed	-985
▁cell	-986
ite	-987
▁setter	-988
▁directory	-989
yle	-990
▁flag	-991
▁des	-992
▁available	-993
▁parameters	-994
oint	-995
▁off	-996
abled	-997
▁found	-998
▁differ	-999
▁includ	-1000
▁specific	-1001
pos	-1002
ven	-1003
other	-1004
▁coordin	-1005
▁control	-1006
▁sing	-1007
▁Remove	-1008
▁inherit	-1009
▁Wh	-1010
▁level	-1011
▁changed	-1012
▁intern	-1013
▁entity	-1014
vious	-1015
Event	-1016
▁some	-1017
▁variable	-1018
▁changes	-1019
ner	-1020
▁search	-1021
▁frame	-1022
▁here	-1023
▁Descri	-1024
ON	-1025
▁send	-1026
▁menu	-1027
▁files	-1028
▁adapter	-1029
▁Pr	-1030
eger	-1031
▁task	-1032
▁instances	-1033
▁query	-1034
▁mode	-1035
utton	-1036
▁expression	-1037
▁target	-1038
▁also	-1039
▁Im	-1040
▁Object	-1041
▁another	-1042
ustom	-1043
ics	-1044
▁&	-1045
▁URL	-1046
▁Dis	-1047
oked	-1048
ft	-1049
▁children	-1050
▁occ	-1051
▁eas	-1052
ouse	-1053
inal	-1054
IN	-1055
etermines	-1056
hing	-1057
▁dialog	-1058
▁remov	-1059
▁calls	-1060
▁previous	-1061
▁they	-1062
▁enc	-1063
▁iter	-1064
▁render	-1065
▁appro	-1066
▁bound	-1067
▁ext	-1068
▁catch	-1069
Field	-1070
▁i	-1071
▁Un	-1072
▁block	-1073
▁typ	-1074
▁single	-1075
ict	-1076
▁delet	-1077
▁he	-1078
▁Retrieves	-1079
▁long	-1080
▁events	-1081
▁bec	-1082
ever	-1083
▁'{@	-1084
sion	-1085
▁Initializ	-1086
▁project	-1087
▁draw	-1088
▁attributes	-1089
ped	-1090
back	-1091
▁registered	-1092
▁characters	-1093
load	-1094
▁}'.	-1095
ater	-1096
▁tim	-1097
▁cache	-1098
▁Se	-1099
quence	-1100
▁exists	-1101
Manager	-1102
ments	-1103
sible	-1104
▁repl	-1105
let	-1106
▁mult	-1107
▁corresponding	-1108
Item	-1109
▁Over	-1110
andle	-1111
▁header	-1112
▁calling	-1113
▁override	-1114
ular	-1115
olean	-1116
ST	-1117
▁Read	-1118
▁cle	-1119
Model	-1120
Text	-1121
QL	-1122
▁range	-1123
Listener	-1124
▁easily	-1125
▁base	-1126
▁show	-1127
Value	-1128
▁inheritance	-1129
▁root	-1130
mit	-1131
▁ref	-1132
▁want	-1133
▁copy	-1134
▁non	-1135
▁cons	-1136
▁anyway	-1137
Class	-1138
▁3	-1139
ubl	-1140
name	-1141
DO	-1142
▁otherwise	-1143
ences	-1144
▁their	-1145
▁clos	-1146
▁different	-1147
▁link	-1148
▁complet	-1149
old	-1150
▁address	-1151
▁vector	-1152
▁pers	-1153
▁remove	-1154
ER	-1155
imit	-1156
▁stored	-1157
▁maximum	-1158
▁such	-1159
▁Cont	-1160
itle	-1161
pri	-1162
Button	-1163
ither	-1164
plied	-1165
Ser	-1166
▁bot	-1167
▁port	-1168
▁provided	-1169
rect	-1170
▁hash	-1171
aces	-1172
ice	-1173
▁follow	-1174
akes	-1175
▁sch	-1176
▁Ind	-1177
leg	-1178
ear	-1179
▁just	-1180
ects	-1181
word	-1182
▁width	-1183
▁prog	-1184
▁edit	-1185
▁ter	-1186
▁ob	-1187
ayout	-1188
▁Do	-1189
To	-1190
ateg	-1191
▁top	-1192
perty	-1193
▁nodes	-1194
atri	-1195
▁tem	-1196
▁internal	-1197
▁nothing	-1198
try	-1199
pr	-1200
▁example	-1201
stant	-1202
▁constructor	-1203
con	-1204
uction	-1205
ann	-1206
atrix	-1207
ey	-1208
▁notification	-1209
▁Java	-1210
▁fields	-1211
▁java	-1212
▁appropri	-1213
▁insert	-1214
Panel	-1215
▁tok	-1216
ized	-1217
Command	-1218
▁dur	-1219
ways	-1220
)}	-1221
▁Description	-1222
ME	-1223
▁editor	-1224
),	-1225
▁them	-1226
Re	-1227
yn	-1228
▁List	-1229
Qu	-1230
▁Sub	-1231
▁count	-1232
▁At	-1233
io	-1234
▁Cle	-1235
▁open	-1236
▁your	-1237
▁Insert	-1238
▁about	-1239
ources	-1240
▁Val	-1241
til	-1242
ures	-1243
attern	-1244
▁right	-1245
▁containing	-1246
..	-1247
ecess	-1248
▁depend	-1249
▁required	-1250
red	-1251
▁handler	-1252
▁Updates	-1253
pace	-1254
mine	-1255
▁met	-1256
▁items	-1257
etermine	-1258
ger	-1259
▁byte	-1260
ply	-1261
very	-1262
lt	-1263
ually	-1264
▁det	-1265
uble	-1266
oll	-1267
essages	-1268
▁appropriate	-1269
AR	-1270
▁man	-1271
▁supplied	-1272
▁orig	-1273
▁transaction	-1274
older	-1275
cript	-1276
▁response	-1277
▁partic	-1278
▁sign	-1279
ero	-1280
▁:	-1281
ote	-1282
▁mark	-1283
ash	-1284
▁On	-1285
▁instead	-1286
▁down	-1287
▁fail	-1288
▁dec	-1289
ince	-1290
▁To	-1291
▁player	-1292
▁Print	-1293
▁second	-1294
▁contents	-1295
AL	-1296
▁Determines	-1297
▁without	-1298
Key	-1299
hav	-1300
▁Default	-1301
▁correct	-1302
▁mouse	-1303
rough	-1304
▁either	-1305
▁gets	-1306
omat	-1307
▁print	-1308
▁bytes	-1309
▁custom	-1310
annel	-1311
▁HT	-1312
▁activ	-1313
ines	-1314
▁Load	-1315
lying	-1316
ld	-1317
▁Per	-1318
▁Delet	-1319
▁Construct	-1320
▁stack	-1321
▁ow	-1322
ward	-1323
plic	-1324
▁style	-1325
);	-1326
ade	-1327
▁build	-1328
▁eff	-1329
▁prefer	-1330
▁Convert	-1331
Im	-1332
▁Gener	-1333
uild	-1334
▁retriev	-1335
▁underlying	-1336
tract	-1337
Map	-1338
▁store	-1339
Par	-1340
ience	-1341
▁que	-1342
At	-1343
▁container	-1344
▁displayed	-1345
plate	-1346
▁checks	-1347
▁Ser	-1348
▁removed	-1349
▁constr	-1350
▁necess	-1351
File	-1352
▁receiver	-1353
Node	-1354
bug	-1355
OR	-1356
ms	-1357
ording	-1358
▁mapping	-1359
▁active	-1360
havi	-1361
reen	-1362
▁Start	-1363
▁through	-1364
▁prod	-1365
▁Data	-1366
▁font	-1367
pec	-1368
▁look	-1369
ted	-1370
▁always	-1371
elper	-1372
umer	-1373
ries	-1374
▁Y	-1375
▁stop	-1376
()}	-1377
ced	-1378
▁am	-1379
ging	-1380
▁sequence	-1381
▁needed	-1382
▁because	-1383
den	-1384
▁[	-1385
▁main	-1386
quest	-1387
▁dr	-1388
▁components	-1389
▁matrix	-1390
Bo	-1391
Element	-1392
▁creates	-1393
ency	-1394
▁messages	-1395
Code	-1396
▁tool	-1397
▁tab	-1398
▁how	-1399
▁left	-1400
▁NO	-1401
resh	-1402
venience	-1403
▁token	-1404
▁syn	-1405
gt	-1406
▁overrid	-1407
ten	-1408
sing	-1409
▁pop	-1410
▁see	-1411
eclar	-1412
▁present	-1413
ean	-1414
Form	-1415
▁When	-1416
▁factory	-1417
▁title	-1418
▁unit	-1419
▁contained	-1420
Tr	-1421
line	-1422
▁ph	-1423
to	-1424
▁vert	-1425
▁Find	-1426
▁Retrieve	-1427
▁Log	-1428
▁/	-1429
▁according	-1430
▁full	-1431
▁types	-1432
▁Trans	-1433
▁norm	-1434
▁uses	-1435
▁SQL	-1436
LE	-1437
▁done	-1438
ternal	-1439
▁integer	-1440
▁automat	-1441
▁existing	-1442
Pane	-1443
▁sort	-1444
▁boolean	-1445
▁necessary	-1446
▁height	-1447
Info	-1448
ph	-1449
▁kn	-1450
roller	-1451
andard	-1452
▁Send	-1453
▁enabled	-1454
▁Used	-1455
fix	-1456
xis	-1457
State	-1458
▁statement	-1459
▁go	-1460
ike	-1461
▁definition	-1462
ipse	-1463
valu	-1464
▁find	-1465
▁calcul	-1466
▁invoked	-1467
olut	-1468
ground	-1469
▁sl	-1470
ve	-1471
apt	-1472
nection	-1473
▁area	-1474
ron	-1475
gin	-1476
▁pattern	-1477
▁We	-1478
▁publ	-1479
▁possible	-1480
air	-1481
▁queue	-1482
▁box	-1483
ale	-1484
".	-1485
▁compar	-1486
By	-1487
UI	-1488
side	-1489
▁screen	-1490
▁visible	-1491
▁struct	-1492
▁make	-1493
angu	-1494
ered	-1495
ait	-1496
ema	-1497
▁zero	-1498
dition	-1499
▁play	-1500
▁auth	-1501
▁super	-1502
▁Indic	-1503
▁actual	-1504
▁del	-1505
▁every	-1506
▁until	-1507
▁classes	-1508
icon	-1509
▁Rec	-1510
▁bean	-1511
().	-1512
▁results	-1513
ission	-1514
▁Pl	-1515
▁subclasses	-1516
TI	-1517
valid	-1518
Ar	-1519
RE	-1520
▁resources	-1521
▁sav	-1522
▁manager	-1523
ugin	-1524
Stream	-1525
)}.	-1526
af	-1527
▁wrap	-1528
▁convert	-1529
▁initial	-1530
ody	-1531
▁Writes	-1532
▁would	-1533
▁Al	-1534
ices	-1535
▁identifier	-1536
▁during	-1537
OM	-1538
▁both	-1539
▁write	-1540
ocation	-1541
▁Is	-1542
▁behavi	-1543
imary	-1544
ys	-1545
▁handle	-1546
ier	-1547
omain	-1548
▁1.	-1549
▁Reg	-1550
tity	-1551
point	-1552
ush	-1553
▁Update	-1554
▁report	-1555
▁dist	-1556
▁As	-1557
les	-1558
▁persist	-1559
▁prob	-1560
reg	-1561
▁space	-1562
efin	-1563
ape	-1564
andom	-1565
▁debug	-1566
▁tot	-1567
ities	-1568
▁fix	-1569
▁thrown	-1570
▁comm	-1571
▁assign	-1572
▁mon	-1573
Un	-1574
anguage	-1575
forms	-1576
----	-1577
ystem	-1578
▁channel	-1579
ixel	-1580
bers	-1581
riter	-1582
ocus	-1583
▁Execut	-1584
▁describ	-1585
Se	-1586
▁dest	-1587
fl	-1588
eclipse	-1589
ique	-1590
inter	-1591
▁Inv	-1592
tp	-1593
▁total	-1594
tribute	-1595
ursor	-1596
mb	-1597
▁encod	-1598
▁Par	-1599
▁game	-1600
▁iterator	-1601
tain	-1602
▁supported	-1603
▁rele	-1604
Time	-1605
View	-1606
Context	-1607
},	-1608
ization	-1609
tach	-1610
▁offset	-1611
▁->	-1612
▁icon	-1613
▁Use	-1614
▁)	-1615
file	-1616
▁TO	-1617
▁following	-1618
▁serv	-1619
▁since	-1620
elf	-1621
ressed	-1622
iple	-1623
▁URI	-1624
▁prot	-1625
▁Implement	-1626
NT	-1627
▁File	-1628
Ind	-1629
SS	-1630
▁high	-1631
▁success	-1632
▁click	-1633
▁coordinates	-1634
▁constant	-1635
mission	-1636
ules	-1637
ie	-1638
▁rule	-1639
Ed	-1640
▁sent	-1641
▁word	-1642
▁layout	-1643
▁Show	-1644
▁via	-1645
sw	-1646
▁constraint	-1647
▁condition	-1648
▁effect	-1649
ions	-1650
irection	-1651
▁Map	-1652
▁host	-1653
anged	-1654
ored	-1655
▁Append	-1656
struction	-1657
Table	-1658
▁Indicates	-1659
▁save	-1660
DE	-1661
rror	-1662
▁again	-1663
▁declar	-1664
▁Process	-1665
angle	-1666
▁info	-1667
rop	-1668
▁red	-1669
ination	-1670
▁background	-1671
▁Compar	-1672
▁pri	-1673
▁Calcul	-1674
▁automatically	-1675
writ	-1676
",	-1677
edi	-1678
▁pixel	-1679
▁Vis	-1680
▁primary	-1681
▁annot	-1682
▁pool	-1683
value	-1684
order	-1685
Col	-1686
andler	-1687
▁step	-1688
▁relative	-1689
▁Type	-1690
▁particular	-1691
inish	-1692
etch	-1693
▁Action	-1694
stract	-1695
▁All	-1696
etwork	-1697
tempt	-1698
▁rows	-1699
▁extension	-1700
▁separ	-1701
▁bel	-1702
▁named	-1703
▁getter	-1704
1.	-1705
▁Write	-1706
▁double	-1707
sh	-1708
▁coordinate	-1709
▁Class	-1710
▁cached	-1711
▁widget	-1712
▁amount	-1713
▁creating	-1714
▁way	-1715
sure	-1716
▁Form	-1717
▁processing	-1718
▁minimum	-1719
amp	-1720
oid	-1721
chron	-1722
▁related	-1723
TP	-1724
▁pur	-1725
ategory	-1726
▁columns	-1727
▁addition	-1728
▁el	-1729
▁points	-1730
▁settings	-1731
ope	-1732
▁modified	-1733
imension	-1734
▁original	-1735
lob	-1736
Query	-1737
▁De	-1738
▁represents	-1739
▁what	-1740
▁cert	-1741
▁move	-1742
▁close	-1743
▁directly	-1744
Add	-1745
▁Access	-1746
add	-1747
▁doesn	-1748
Ref	-1749
▁low	-1750
edit	-1751
gor	-1752
▁imm	-1753
▁By	-1754
ech	-1755
▁standard	-1756
▁package	-1757
▁Reads	-1758
▁Display	-1759
gorith	-1760
ames	-1761
▁Initializes	-1762
▁Creation	-1763
▁bar	-1764
Child	-1765
emf	-1766
▁means	-1767
utput	-1768
▁short	-1769
anges	-1770
Date	-1771
ival	-1772
▁cursor	-1773
▁Pre	-1774
ived	-1775
ancel	-1776
▁pol	-1777
▁User	-1778
ttp	-1779
command	-1780
▁representing	-1781
▁like	-1782
▁updates	-1783
AC	-1784
DB	-1785
▁prefix	-1786
▁normal	-1787
▁removes	-1788
itive	-1789
▁begin	-1790
▁edge	-1791
ires	-1792
▁unique	-1793
...	-1794
▁TODO	-1795
▁clear	-1796
▁Sel	-1797
▁device	-1798
▁starting	-1799
▁select	-1800
▁options	-1801
ings	-1802
ocket	-1803
unter	-1804
▁app	-1805
▁multiple	-1806
ended	-1807
mbol	-1808
▁equ	-1809
▁axis	-1810
Sc	-1811
▁focus	-1812
▁Ass	-1813
Path	-1814
ision	-1815
▁template	-1816
▁random	-1817
UR	-1818
rame	-1819
DA	-1820
▁accept	-1821
▁agent	-1822
ollection	-1823
▁viewer	-1824
▁program	-1825
▁Valid	-1826
▁determine	-1827
▁loaded	-1828
▁execution	-1829
▁Subclasses	-1830
▁Other	-1831
▁job	-1832
Change	-1833
▁running	-1834
Source	-1835
▁der	-1836
▁ur	-1837
▁detail	-1838
Menu	-1839
▁lock	-1840
▁Register	-1841
▁entries	-1842
pose	-1843
▁allowed	-1844
▁updated	-1845
null	-1846
ilter	-1847
Component	-1848
▁password	-1849
▁comment	-1850
▁itself	-1851
▁adapt	-1852
▁bit	-1853
▁tests	-1854
iver	-1855
▁comput	-1856
Index	-1857
▁rect	-1858
==	-1859
▁actions	-1860
▁post	-1861
vers	-1862
▁Ar	-1863
▁matches	-1864
ivid	-1865
▁Spec	-1866
pare	-1867
▁memory	-1868
ately	-1869
Of	-1870
▁day	-1871
ename	-1872
▁structure	-1873
Group	-1874
▁pair	-1875
▁assum	-1876
ache	-1877
▁fact	-1878
()}.	-1879
▁reset	-1880
▁language	-1881
▁{	-1882
▁own	-1883
▁See	-1884
▁Build	-1885
Th	-1886
▁module	-1887
▁throws	-1888
Action	-1889
ors	-1890
▁account	-1891
ores	-1892
▁made	-1893
▁instruction	-1894
ested	-1895
▁keys	-1896
ocol	-1897
lock	-1898
▁Does	-1899
▁plugin	-1900
▁allows	-1901
gorithm	-1902
osit	-1903
▁closed	-1904
ged	-1905
pens	-1906
Message	-1907
▁public	-1908
ulation	-1909
te	-1910
oat	-1911
arning	-1912
▁body	-1913
▁Ref	-1914
▁et	-1915
▁Handl	-1916
▁arguments	-1917
xy	-1918
SE	-1919
Param	-1920
▁variables	-1921
Sel	-1922
▁those	-1923
▁HTML	-1924
Factory	-1925
▁Sim	-1926
▁cannot	-1927
▁most	-1928
▁head	-1929
ank	-1930
Box	-1931
perties	-1932
▁bind	-1933
▁these	-1934
▁transl	-1935
eet	-1936
▁could	-1937
An	-1938
cle	-1939
▁Override	-1940
▁gu	-1941
▁place	-1942
lobal	-1943
iod	-1944
▁once	-1945
▁Compares	-1946
itch	-1947
ository	-1948
200	-1949
ene	-1950
plicit	-1951
ivate	-1952
Content	-1953
▁fill	-1954
Property	-1955
▁prior	-1956
Handler	-1957
▁domain	-1958
▁adapted	-1959
▁Initialize	-1960
Exp	-1961
Result	-1962
▁Converts	-1963
▁initialized	-1964
▁etc	-1965
▁evalu	-1966
▁card	-1967
▁performed	-1968
▁handles	-1969
▁Stop	-1970
▁member	-1971
spec	-1972
▁delete	-1973
lang	-1974
quent	-1975
▁cho	-1976
▁import	-1977
▁wait	-1978
▁Handles	-1979
imal	-1980
zed	-1981
Trans	-1982
▁folder	-1983
adata	-1984
▁transform	-1985
Bean	-1986
be	-1987
▁distance	-1988
aves	-1989
▁JS	-1990
ason	-1991
oses	-1992
vide	-1993
▁neg	-1994
▁4	-1995
date	-1996
▁behavior	-1997
▁Clears	-1998
▁old	-1999
▁yet	-2000
▁represented	-2001
▁Otherwise	-2002
ively	-2003
aced	-2004
▁Id	-2005
▁hold	-2006
▁attach	-2007
list	-2008
▁network	-2009
▁direction	-2010
▁sure	-2011
▁layer	-2012
▁Node	-2013
▁previously	-2014
▁UI	-2015
ivalent	-2016
ved	-2017
2.	-2018
▁simple	-2019
▁while	-2020
▁invalid	-2021
Sh	-2022
less	-2023
.,	-2024
▁Us	-2025
ao	-2026
rary	-2027
▁rest	-2028
uffer	-2029
▁design	-2030
▁finish	-2031
▁GUI	-2032
▁Run	-2033
▁cap	-2034
▁Element	-2035
▁executed	-2036
▁track	-2037
Row	-2038
▁initil	-2039
Not	-2040
▁append	-2041
▁namespace	-2042
▁incre	-2043
▁Draw	-2044
▁section	-2045
vir	-2046
gets	-2047
ibility	-2048
ives	-2049
iction	-2050
▁Fl	-2051
▁consid	-2052
▁turn	-2053
over	-2054
▁initilia	-2055
▁initiliazed	-2056
▁termin	-2057
▁optional	-2058
▁our	-2059
▁Loads	-2060
▁inside	-2061
oop	-2062
▁Only	-2063
▁grid	-2064
▁Text	-2065
▁equals	-2066
▁progress	-2067
gine	-2068
▁0.	-2069
▁config	-2070
▁written	-2071
▁K	-2072
PI	-2073
uc	-2074
tml	-2075
▁were	-2076
▁Result	-2077
▁matching	-2078
▁ignored	-2079
▁Property	-2080
▁received	-2081
▁remote	-2082
▁-1	-2083
▁Delete	-2084
▁dimension	-2085
▁Date	-2086
atus	-2087
oy	-2088
▁cent	-2089
▁10	-2090
▁saved	-2091
▁disc	-2092
Request	-2093
Children	-2094
▁parse	-2095
▁conver	-2096
TextField	-2097
▁Event	-2098
undle	-2099
▁deleg	-2100
Changed	-2101
▁operations	-2102
▁Comput	-2103
asic	-2104
alend	-2105
▁paint	-2106
▁Act	-2107
▁implemented	-2108
▁script	-2109
uts	-2110
Service	-2111
ecur	-2112
▁bounds	-2113
▁num	-2114
PE	-2115
view	-2116
pect	-2117
▁packet	-2118
▁equality	-2119
ql	-2120
box	-2121
▁Convenience	-2122
viron	-2123
gle	-2124
▁requested	-2125
▁sk	-2126
▁Sc	-2127
▁schema	-2128
mart	-2129
plication	-2130
▁lines	-2131
clus	-2132
ending	-2133
Rec	-2134
▁br	-2135
▁Name	-2136
▁algorithm	-2137
▁expected	-2138
▁don	-2139
▁Graph	-2140
▁u	-2141
ability	-2142
▁sw	-2143
Descri	-2144
Tree	-2145
teger	-2146
▁scroll	-2147
Pl	-2148
▁mov	-2149
▁adding	-2150
▁interval	-2151
▁execute	-2152
irt	-2153
▁symbol	-2154
▁parser	-2155
▁successf	-2156
AN	-2157
istr	-2158
ecurity	-2159
poses	-2160
De	-2161
uce	-2162
Per	-2163
▁resol	-2164
▁pred	-2165
▁pressed	-2166
▁longer	-2167
▁Document	-2168
▁shown	-2169
▁derived	-2170
oin	-2171
alendar	-2172
▁gre	-2173
▁instant	-2174
▁xml	-2175
elp	-2176
▁rout	-2177
illis	-2178
▁references	-2179
IC	-2180
▁Prints	-2181
▁Deletes	-2182
java	-2183
▁Resets	-2184
▁obtain	-2185
path	-2186
▁seg	-2187
ges	-2188
▁pe	-2189
Response	-2190
igger	-2191
▁proper	-2192
▁operator	-2193
▁abs	-2194
▁sends	-2195
Input	-2196
▁auto	-2197
▁Entity	-2198
vironment	-2199
▁attempt	-2200
▁Sends	-2201
▁validation	-2202
▁url	-2203
.)	-2204
▁real	-2205
▁Invoked	-2206
▁category	-2207
▁less	-2208
User	-2209
▁serializ	-2210
▁sum	-2211
[]	-2212
▁Cop	-2213
▁Component	-2214
olog	-2215
stance	-2216
▁times	-2217
0.	-2218
▁Message	-2219
▁rectangle	-2220
vas	-2221
▁include	-2222
▁product	-2223
▁needs	-2224
Format	-2225
▁destination	-2226
upport	-2227
▁ver	-2228
▁datas	-2229
▁provide	-2230
▁Changes	-2231
▁Ad	-2232
▁immedi	-2233
▁complete	-2234
iter	-2235
oke	-2236
▁conc	-2237
▁overridden	-2238
Ob	-2239
▁belong	-2240
▁starts	-2241
▁Ab	-2242
▁configured	-2243
▁web	-2244
▁Save	-2245
ET	-2246
▁external	-2247
icy	-2248
▁annotation	-2249
UL	-2250
▁net	-2251
peration	-2252
oom	-2253
ories	-2254
▁Overrid	-2255
istory	-2256
ING	-2257
▁might	-2258
▁Starts	-2259
AT	-2260
Unit	-2261
Size	-2262
▁encoding	-2263
hip	-2264
▁period	-2265
AX	-2266
ploy	-2267
uster	-2268
patch	-2269
Connection	-2270
▁buttons	-2271
Graph	-2272
▁Closes	-2273
▁Exp	-2274
inary	-2275
▁5	-2276
();	-2277
of	-2278
▁occur	-2279
▁socket	-2280
▁actually	-2281
▁Performs	-2282
▁controller	-2283
▁You	-2284
▁whose	-2285
ells	-2286
▁Ed	-2287
▁respon	-2288
bar	-2289
▁Search	-2290
▁equivalent	-2291
▁Notifies	-2292
oriz	-2293
▁Constructs	-2294
bed	-2295
▁Calculates	-2296
util	-2297
sequent	-2298
▁simply	-2299
▁som	-2300
▁negative	-2301
▁IN	-2302
▁Determine	-2303
▁aff	-2304
▁multi	-2305
▁additional	-2306
▁least	-2307
▁sched	-2308
▁forward	-2309
On	-2310
▁know	-2311
▁jButton	-2312
▁Open	-2313
ough	-2314
▁rad	-2315
▁Pars	-2316
bit	-2317
plies	-2318
▁users	-2319
▁deleted	-2320
▁--	-2321
esc	-2322
update	-2323
▁repository	-2324
thing	-2325
▁Ver	-2326
sures	-2327
▁HTTP	-2328
▁anim	-2329
model	-2330
▁side	-2331
▁Calls	-2332
efined	-2333
WT	-2334
aining	-2335
rows	-2336
▁Helper	-2337
▁Col	-2338
cent	-2339
▁Generates	-2340
▁NOT	-2341
▁against	-2342
▁..	-2343
ound	-2344
ern	-2345
▁Saves	-2346
work	-2347
▁sm	-2348
Dis	-2349
olute	-2350
▁generate	-2351
by	-2352
Error	-2353
▁toString	-2354
wh	-2355
▁op	-2356
▁DOM	-2357
▁authent	-2358
▁debugging	-2359
por	-2360
▁Ob	-2361
▁replace	-2362
▁reason	-2363
type	-2364
▁Change	-2365
client	-2366
▁locale	-2367
▁protocol	-2368
izard	-2369
▁never	-2370
▁qual	-2371
▁convenience	-2372
▁subs	-2373
▁limit	-2374
▁greater	-2375
▁cause	-2376
▁No	-2377
▁creation	-2378
▁millis	-2379
▁_	-2380
▁errors	-2381
oot	-2382
ocal	-2383
▁connected	-2384
▁scope	-2385
▁including	-2386
▁Can	-2387
ividual	-2388
▁occurr	-2389
▁describing	-2390
▁hap	-2391
ee	-2392
▁Make	-2393
RO	-2394
aster	-2395
▁known	-2396
▁started	-2397
ainer	-2398
▁Appends	-2399
ather	-2400
▁Parses	-2401
▁obser	-2402
plit	-2403
ture	-2404
smart	-2405
▁border	-2406
Or	-2407
▁ensure	-2408
iag	-2409
▁role	-2410
▁servlet	-2411
just	-2412
▁specify	-2413
▁activity	-2414
avig	-2415
▁well	-2416
▁global	-2417
▁Field	-2418
▁Repl	-2419
▁mean	-2420
-1	-2421
▁put	-2422
▁Input	-2423
▁retrieve	-2424
edia	-2425
▁Item	-2426
ume	-2427
sc	-2428
▁rules	-2429
▁series	-2430
Part	-2431
▁connections	-2432
▁ne	-2433
▁visit	-2434
wid	-2435
▁none	-2436
econds	-2437
▁indicating	-2438
data	-2439
▁metadata	-2440
xml	-2441
▁special	-2442
▁applied	-2443
▁certain	-2444
▁drag	-2445
▁Should	-2446
▁assigned	-2447
iles	-2448
do	-2449
create	-2450
▁occurs	-2451
▁many	-2452
cont	-2453
▁handling	-2454
IT	-2455
▁clone	-2456
For	-2457
▁la	-2458
IS	-2459
▁loop	-2460
ared	-2461
▁nested	-2462
▁provider	-2463
▁region	-2464
Pre	-2465
Entry	-2466
the	-2467
▁jav	-2468
down	-2469
wt	-2470
Image	-2471
table	-2472
▁compare	-2473
verse	-2474
01	-2475
Array	-2476
▁subclass	-2477
Inter	-2478
▁Mod	-2479
▁overload	-2480
▁tak	-2481
▁parsing	-2482
fir	-2483
ierarch	-2484
▁gr	-2485
orizont	-2486
▁shape	-2487
▁Inserts	-2488
▁align	-2489
▁Inter	-2490
▁Close	-2491
▁explicit	-2492
uch	-2493
ology	-2494
("	-2495
istry	-2496
▁scale	-2497
Number	-2498
▁passes	-2499
\\	-2500
▁Executes	-2501
▁vertex	-2502
light	-2503
▁try	-2504
▁now	-2505
▁lar	-2506
figuration	-2507
olution	-2508
▁View	-2509
▁still	-2510
▁initialize	-2511
eta	-2512
▁permission	-2513
▁records	-2514
▁Or	-2515
▁Finds	-2516
▁rot	-2517
Point	-2518
icate	-2519
ypes	-2520
▁strings	-2521
ites	-2522
▁immediately	-2523
TION	-2524
osition	-2525
atal	-2526
▁overwrit	-2527
iteral	-2528
board	-2529
▁determin	-2530
evel	-2531
▁Clear	-2532
▁Shows	-2533
▁invok	-2534
▁rendering	-2535
mitted	-2536
OC	-2537
ias	-2538
ptional	-2539
▁initialization	-2540
plex	-2541
▁popup	-2542
▁Tree	-2543
▁instanti	-2544
Attribute	-2545
etry	-2546
izes	-2547
rowser	-2548
▁drawing	-2549
Ad	-2550
ves	-2551
▁fixture	-2552
▁lower	-2553
▁manag	-2554
▁distribut	-2555
▁works	-2556
fter	-2557
▁callback	-2558
ully	-2559
--------	-2560
▁testing	-2561
oken	-2562
▁drop	-2563
▁pane	-2564
AP	-2565
aps	-2566
▁clip	-2567
▁comb	-2568
Count	-2569
Frame	-2570
▁transition	-2571
▁environment	-2572
▁note	-2573
▁term	-2574
▁There	-2575
▁filename	-2576
ceed	-2577
ru	-2578
▁warning	-2579
▁take	-2580
▁parsed	-2581
▁Vector	-2582
All	-2583
Em	-2584
log	-2585
▁Constructor	-2586
estamp	-2587
▁proxy	-2588
▁details	-2589
▁synchron	-2590
equal	-2591
▁indicates	-2592
Impl	-2593
▁returning	-2594
▁ge	-2595
▁timeout	-2596
▁preferred	-2597
▁clean	-2598
▁units	-2599
▁weight	-2600
swer	-2601
ynam	-2602
▁Value	-2603
▁float	-2604
go	-2605
▁origin	-2606
▁car	-2607
▁Image	-2608
▁disabled	-2609
▁compil	-2610
▁considered	-2611
erence	-2612
0,	-2613
EN	-2614
Rem	-2615
▁apply	-2616
▁pixels	-2617
▁NOTE	-2618
▁absolute	-2619
▁receive	-2620
ays	-2621
▁takes	-2622
▁segment	-2623
▁driver	-2624
Buffer	-2625
▁Assert	-2626
lease	-2627
▁depending	-2628
ison	-2629
▁refl	-2630
▁Output	-2631
flow	-2632
▁loading	-2633
untime	-2634
etr	-2635
etter	-2636
▁Reset	-2637
acing	-2638
▁login	-2639
▁relation	-2640
▁storage	-2641
reak	-2642
umeration	-2643
▁sem	-2644
▁cluster	-2645
imitive	-2646
▁entire	-2647
▁static	-2648
▁included	-2649
▁specifies	-2650
Pr	-2651
iness	-2652
gwt	-2653
▁Request	-2654
▁correctly	-2655
▁notified	-2656
SC	-2657
▁atom	-2658
Log	-2659
▁Format	-2660
Obj	-2661
▁exact	-2662
aving	-2663
▁notifications	-2664
▁Handle	-2665
▁subsequent	-2666
UT	-2667
ently	-2668
▁scal	-2669
▁\'	-2670
quot	-2671
▁Pop	-2672
▁exit	-2673
MENT	-2674
▁implements	-2675
▁specification	-2676
clusive	-2677
Resource	-2678
atabase	-2679
▁monitor	-2680
▁Q	-2681
▁Allow	-2682
▁Collection	-2683
▁meta	-2684
ibrary	-2685
▁Def	-2686
▁Connection	-2687
▁keep	-2688
▁whenever	-2689
ething	-2690
orizontal	-2691
▁System	-2692
ially	-2693
▁requests	-2694
rees	-2695
▁individual	-2696
▁(1	-2697
▁month	-2698
▁tri	-2699
Mod	-2700
▁appear	-2701
ples	-2702
▁threads	-2703
unk	-2704
▁DB	-2705
Test	-2706
▁State	-2707
▁proble	-2708
Document	-2709
▁trigger	-2710
tom	-2711
▁help	-2712
▁final	-2713
▁bundle	-2714
oveCommand	-2715
terator	-2716
utable	-2717
▁persistent	-2718
▁Dec	-2719
Editor	-2720
ED	-2721
▁even	-2722
specific	-2723
▁history	-2724
ump	-2725
▁Key	-2726
//	-2727
▁small	-2728
▁engine	-2729
▁beginning	-2730
Al	-2731
era	-2732
▁Look	-2733
▁Perform	-2734
eight	-2735
ik	-2736
Scroll	-2737
Ap	-2738
orld	-2739
▁Sch	-2740
▁priority	-2741
▁Ac	-2742
man	-2743
ycle	-2744
▁checked	-2745
▁finished	-2746
▁controls	-2747
▁sole	-2748
Entity	-2749
▁connect	-2750
▁bits	-2751
▁consist	-2752
ached	-2753
▁author	-2754
▁Service	-2755
▁6	-2756
riteria	-2757
DF	-2758
sel	-2759
▁Sw	-2760
MS	-2761
ross	-2762
ulate	-2763
▁Makes	-2764
▁recurs	-2765
▁counter	-2766
▁jPanel	-2767
time	-2768
auses	-2769
▁tags	-2770
Page	-2771
▁Table	-2772
▁est	-2773
Line	-2774
▁else	-2775
Status	-2776
ondition	-2777
achine	-2778
▁avoid	-2779
▁==	-2780
estion	-2781
▁positive	-2782
▁compos	-2783
TER	-2784
nect	-2785
3.	-2786
org	-2787
MP	-2788
mon	-2789
▁drawn	-2790
▁hierarch	-2791
▁dig	-2792
▁something	-2793
▁incom	-2794
▁determines	-2795
▁supports	-2796
▁email	-2797
▁Provid	-2798
map	-2799
unch	-2800
▁sample	-2801
ains	-2802
Bar	-2803
als	-2804
efinition	-2805
▁inserted	-2806
Filter	-2807
▁person	-2808
ides	-2809
ware	-2810
▁http	-2811
▁lat	-2812
▁seconds	-2813
eb	-2814
Server	-2815
udio	-2816
▁feed	-2817
ifiers	-2818
ness	-2819
rea	-2820
usiness	-2821
Process	-2822
xt	-2823
▁cancel	-2824
▁ResultSet	-2825
▁completed	-2826
▁makes	-2827
▁subject	-2828
ret	-2829
▁owner	-2830
default	-2831
▁numbers	-2832
▁meas	-2833
▁contact	-2834
mod	-2835
init	-2836
▁designated	-2837
ictionary	-2838
▁corresponds	-2839
▁renderer	-2840
▁Implements	-2841
▁After	-2842
▁OK	-2843
▁chart	-2844
▁switch	-2845
▁declaration	-2846
▁refresh	-2847
▁indicate	-2848
▁validate	-2849
▁pointer	-2850
▁API	-2851
ool	-2852
▁install	-2853
pth	-2854
▁Any	-2855
▁replaced	-2856
▁later	-2857
▁getting	-2858
tra	-2859
▁Generate	-2860
roy	-2861
▁Will	-2862
▁processed	-2863
Tag	-2864
▁upper	-2865
▁center	-2866
(),	-2867
▁timer	-2868
Act	-2869
Column	-2870
rem	-2871
▁...	-2872
▁mer	-2873
rel	-2874
▁tile	-2875
▁factor	-2876
▁binding	-2877
▁visitor	-2878
AS	-2879
▁Abstract	-2880
▁converted	-2881
▁constraints	-2882
▁iss	-2883
▁relations	-2884
ynchron	-2885
ude	-2886
ChangeEvent	-2887
▁tick	-2888
issing	-2889
istics	-2890
legal	-2891
ential	-2892
ulti	-2893
▁Parse	-2894
▁purposes	-2895
igure	-2896
▁fetch	-2897
▁art	-2898
▁common	-2899
▁extract	-2900
▁animation	-2901
this	-2902
tributes	-2903
▁isn	-2904
▁words	-2905
▁rendered	-2906
▁interpr	-2907
gif	-2908
istration	-2909
ember	-2910
enced	-2911
ality	-2912
▁marked	-2913
truct	-2914
icient	-2915
DBC	-2916
▁te	-2917
smartgwt	-2918
pload	-2919
AD	-2920
▁Each	-2921
▁wrapped	-2922
▁members	-2923
▁milliseconds	-2924
▁private	-2925
▁dataset	-2926
key	-2927
▁shut	-2928
▁Rel	-2929
ivity	-2930
tax	-2931
▁vertical	-2932
▁Displays	-2933
iec	-2934
ounter	-2935
▁Array	-2936
▁Content	-2937
▁sur	-2938
▁horizontal	-2939
ilt	-2940
uth	-2941
▁whole	-2942
▁Number	-2943
Method	-2944
nb	-2945
▁wizard	-2946
▁expand	-2947
pers	-2948
▁lists	-2949
Instance	-2950
▁sens	-2951
iven	-2952
▁How	-2953
ism	-2954
agment	-2955
▁Attribute	-2956
▁reading	-2957
▁modify	-2958
uplic	-2959
afe	-2960
▁join	-2961
Output	-2962
▁download	-2963
▁Hash	-2964
▁Pers	-2965
▁formatted	-2966
▁Draws	-2967
ByClass	-2968
▁tip	-2969
▁cells	-2970
▁tasks	-2971
nbsp	-2972
Color	-2973
Operation	-2974
ByClassCode	-2975
://	-2976
▁attached	-2977
▁Registers	-2978
▁responsible	-2979
kn	-2980
▁Builds	-2981
▁logging	-2982
▁duration	-2983
▁who	-2984
▁images	-2985
bot	-2986
▁Null	-2987
▁tempor	-2988
▁pres	-2989
▁tra	-2990
amera	-2991
▁purpose	-2992
▁diag	-2993
▁writer	-2994
▁Also	-2995
▁upon	-2996
▁checking	-2997
eme	-2998
ift	-2999
▁Param	-3000
▁commands	-3001
stit	-3002
emplate	-3003
▁invocation	-3004
▁modification	-3005
▁notify	-3006
▁preference	-3007
TA	-3008
▁alph	-3009
▁Incre	-3010
de	-3011
▁general	-3012
▁preferences	-3013
ND	-3014
▁policy	-3015
led	-3016
▁anal	-3017
▁retrieved	-3018
▁require	-3019
inc	-3020
▁simulation	-3021
Doc	-3022
Label	-3023
▁invoke	-3024
▁abstract	-3025
object	-3026
true	-3027
▁Whether	-3028
dis	-3029
▁Moves	-3030
▁comparison	-3031
))	-3032
▁jTextField	-3033
UE	-3034
▁profile	-3035
▁Mark	-3036
posed	-3037
▁free	-3038
▁browser	-3039
▁navig	-3040
Fl	-3041
col	-3042
▁Simple	-3043
▁Fill	-3044
▁taken	-3045
▁Execute	-3046
▁exceptions	-3047
▁Report	-3048
▁year	-3049
Notify	-3050
Spec	-3051
▁sn	-3052
eature	-3053
▁Stores	-3054
▁working	-3055
▁Resource	-3056
▁Stops	-3057
▁speed	-3058
SQL	-3059
verage	-3060
▁trace	-3061
▁hierarchy	-3062
Session	-3063
atform	-3064
▁export	-3065
/200	-3066
▁Error	-3067
Expression	-3068
vlet	-3069
▁contin	-3070
▁primitive	-3071
Search	-3072
ulated	-3073
▁angle	-3074
ilar	-3075
▁Work	-3076
▁Tells	-3077
▁Accessor	-3078
CE	-3079
▁labels	-3080
Check	-3081
Config	-3082
▁endpoint	-3083
ators	-3084
▁edges	-3085
▁transfer	-3086
▁fre	-3087
▁fixed	-3088
upported	-3089
▁signature	-3090
Record	-3091
field	-3092
icle	-3093
▁timestamp	-3094
▁2.	-3095
▁8	-3096
ScrollPane	-3097
Store	-3098
ometry	-3099
▁bottom	-3100
▁Current	-3101
mark	-3102
▁Integer	-3103
ler	-3104
▁//	-3105
ese	-3106
▁Qu	-3107
ower	-3108
▁visual	-3109
▁Computes	-3110
▁IS	-3111
▁Has	-3112
atalog	-3113
fire	-3114
▁uns	-3115
Statement	-3116
▁around	-3117
▁sending	-3118
equals	-3119
▁Query	-3120
▁Throws	-3121
▁plot	-3122
gener	-3123
▁clause	-3124
▁schedul	-3125
▁rate	-3126
Parameter	-3127
CT	-3128
▁opt	-3129
▁unless	-3130
▁security	-3131
rite	-3132
▁AST	-3133
▁percent	-3134
only	-3135
▁disk	-3136
▁Visits	-3137
Load	-3138
Reader	-3139
oice	-3140
▁fire	-3141
▁kind	-3142
▁lookup	-3143
itude	-3144
mary	-3145
▁Model	-3146
ariable	-3147
▁setup	-3148
▁belongs	-3149
▁canvas	-3150
▁hand	-3151
▁IP	-3152
▁JDBC	-3153
▁scan	-3154
▁incoming	-3155
▁reader	-3156
NO	-3157
▁dispatch	-3158
▁helper	-3159
optional	-3160
irtual	-3161
▁resulting	-3162
Reg	-3163
greg	-3164
idden	-3165
Layout	-3166
MenuItem	-3167
▁transformation	-3168
rupt	-3169
▁Function	-3170
▁leg	-3171
iment	-3172
Writer	-3173
▁identified	-3174
URL	-3175
Address	-3176
▁mapped	-3177
▁headers	-3178
▁Ensures	-3179
▁conversion	-3180
▁editing	-3181
▁dynam	-3182
1,	-3183
▁round	-3184
▁tog	-3185
▁successfully	-3186
pre	-3187
duct	-3188
izer	-3189
▁along	-3190
▁Obtain	-3191
▁Bo	-3192
wards	-3193
▁referenced	-3194
firm	-3195
▁Task	-3196
▁Time	-3197
▁provides	-3198
AO	-3199
▁caller	-3200
▁alloc	-3201
▁encoded	-3202
▁Thread	-3203
▁board	-3204
▁Refresh	-3205
▁Ensure	-3206
▁tables	-3207
sole	-3208
▁fully	-3209
▁managed	-3210
Controller	-3211
▁constants	-3212
Edit	-3213
TY	-3214
ian	-3215
▁my	-3216
Upd	-3217
▁depth	-3218
▁stores	-3219
▁properly	-3220
acity	-3221
▁Deleg	-3222
LA	-3223
Sub	-3224
anch	-3225
▁desc	-3226
umeric	-3227
▁score	-3228
▁Opens	-3229
From	-3230
irst	-3231
▁distribution	-3232
IP	-3233
OS	-3234
ramm	-3235
ra	-3236
▁arch	-3237
▁chain	-3238
▁prec	-3239
▁binary	-3240
▁entities	-3241
uff	-3242
text	-3243
ificate	-3244
Area	-3245
▁peer	-3246
▁mail	-3247
▁shared	-3248
▁indices	-3249
Option	-3250
▁native	-3251
▁framework	-3252
▁above	-3253
▁Record	-3254
ference	-3255
▁Window	-3256
ider	-3257
▁sorted	-3258
Cre	-3259
▁piec	-3260
ses	-3261
▁includes	-3262
▁Specifies	-3263
▁adv	-3264
Style	-3265
IF	-3266
▁determined	-3267
Selection	-3268
ula	-3269
▁authentication	-3270
▁End	-3271
▁iteration	-3272
▁break	-3273
▁graphics	-3274
▁book	-3275
widgets	-3276
NotifyChanged	-3277
▁release	-3278
yg	-3279
Control	-3280
Properties	-3281
ek	-3282
no	-3283
▁wrapper	-3284
▁ask	-3285
▁fit	-3286
eline	-3287
▁Select	-3288
IM	-3289
Client	-3290
▁Inst	-3291
▁library	-3292
▁assert	-3293
▁flow	-3294
pared	-3295
cedure	-3296
▁texture	-3297
▁onto	-3298
▁squ	-3299
Helper	-3300
ised	-3301
▁commit	-3302
▁handled	-3303
▁generator	-3304
Mode	-3305
Window	-3306
▁Render	-3307
Collection	-3308
▁deg	-3309
▁pages	-3310
▁rather	-3311
▁semant	-3312
▁Callback	-3313
LO	-3314
top	-3315
atures	-3316
▁regular	-3317
CH	-3318
used	-3319
▁composite	-3320
▁functions	-3321
▁Assign	-3322
▁groups	-3323
▁except	-3324
NS	-3325
▁Em	-3326
uple	-3327
▁basic	-3328
▁Given	-3329
▁fails	-3330
register	-3331
plain	-3332
▁Notify	-3333
▁cur	-3334
quired	-3335
▁Replaces	-3336
parator	-3337
▁opened	-3338
Descriptor	-3339
▁extend	-3340
ibern	-3341
▁concept	-3342
:2	-3343
▁able	-3344
▁states	-3345
formed	-3346
▁failure	-3347
▁Provides	-3348
my	-3349
ears	-3350
▁adjust	-3351
▁username	-3352
group	-3353
▁writes	-3354
▁desired	-3355
▁removing	-3356
▁compat	-3357
updateChildren	-3358
ibernate	-3359
▁Pass	-3360
▁zoom	-3361
▁association	-3362
sf	-3363
TO	-3364
▁Application	-3365
Wid	-3366
▁slot	-3367
▁writing	-3368
aints	-3369
arant	-3370
▁alignment	-3371
▁enumeration	-3372
As	-3373
space	-3374
▁sever	-3375
▁behaviour	-3376
▁ready	-3377
llegal	-3378
:5	-3379
eries	-3380
▁JSON	-3381
▁having	-3382
▁registry	-3383
▁functionality	-3384
▁media	-3385
▁Server	-3386
ygon	-3387
▁These	-3388
▁builder	-3389
▁increment	-3390
/2	-3391
ategy	-3392
uture	-3393
▁;	-3394
db	-3395
ulates	-3396
rc	-3397
▁loader	-3398
▁highlight	-3399
▁RE	-3400
Build	-3401
▁links	-3402
▁displays	-3403
Start	-3404
▁clicked	-3405
efore	-3406
▁Ut	-3407
▁skip	-3408
11	-3409
HT	-3410
ins	-3411
▁Enables	-3412
▁repe	-3413
▁enable	-3414
▁rotation	-3415
▁combo	-3416
▁raw	-3417
▁So	-3418
level	-3419
▁Sort	-3420
▁waiting	-3421
▁customer	-3422
▁inner	-3423
▁Index	-3424
▁Validates	-3425
oordin	-3426
▁respect	-3427
▁requires	-3428
▁built	-3429
▁Sp	-3430
Link	-3431
▁Calculate	-3432
▁?	-3433
▁JUnit	-3434
▁Compare	-3435
stitut	-3436
▁shall	-3437
▁EntityManager	-3438
▁Implementation	-3439
▁Accept	-3440
▁temporary	-3441
▁world	-3442
▁Illegal	-3443
▁calculated	-3444
▁particip	-3445
Sch	-3446
▁duplic	-3447
▁Setting	-3448
▁blocks	-3449
▁mech	-3450
▁Session	-3451
etail	-3452
▁suit	-3453
▁statements	-3454
▁split	-3455
▁logger	-3456
▁clients	-3457
▁Part	-3458
Reference	-3459
ym	-3460
▁chunk	-3461
▁superclass	-3462
▁Store	-3463
▁declared	-3464
▁outside	-3465
▁failed	-3466
Sp	-3467
off	-3468
amples	-3469
▁Example	-3470
exp	-3471
ished	-3472
VE	-3473
urther	-3474
▁Group	-3475
▁syntax	-3476
Description	-3477
▁Ident	-3478
▁persistence	-3479
▁machine	-3480
ialize	-3481
▁Copies	-3482
ense	-3483
▁Ext	-3484
▁Evalu	-3485
▁signal	-3486
▁9	-3487
tology	-3488
▁identity	-3489
▁extra	-3490
▁anything	-3491
▁complex	-3492
▁Overrides	-3493
▁DE	-3494
OL	-3495
Base	-3496
DL	-3497
use	-3498
oser	-3499
▁best	-3500
▁keyword	-3501
▁runtime	-3502
▁Internal	-3503
emb	-3504
▁Control	-3505
▁problem	-3506
▁internally	-3507
▁Extract	-3508
process	-3509
▁mappings	-3510
incip	-3511
▁Project	-3512
▁sound	-3513
net	-3514
write	-3515
▁Uses	-3516
="	-3517
▁room	-3518
posite	-3519
sql	-3520
▁phase	-3521
▁Allows	-3522
ighb	-3523
atient	-3524
▁robot	-3525
▁affect	-3526
Provid	-3527
gent	-3528
▁Move	-3529
▁performs	-3530
▁javax	-3531
▁delegate	-3532
tn	-3533
rypt	-3534
▁fired	-3535
▁plug	-3536
▁edited	-3537
")	-3538
▁logged	-3539
▁Utility	-3540
▁dictionary	-3541
▁tre	-3542
▁indent	-3543
▁logic	-3544
part	-3545
Script	-3546
▁copied	-3547
▁push	-3548
▁upload	-3549
▁guarant	-3550
tree	-3551
▁too	-3552
▁commun	-3553
▁admin	-3554
▁inters	-3555
▁hour	-3556
▁convent	-3557
▁camera	-3558
ably	-3559
▁explicitly	-3560
Do	-3561
▁Rep	-3562
▁closing	-3563
SL	-3564
Down	-3565
▁clon	-3566
▁relationship	-3567
rete	-3568
▁audio	-3569
▁views	-3570
▁Web	-3571
▁Loc	-3572
▁radi	-3573
acao	-3574
▁Initial	-3575
▁figure	-3576
Dec	-3577
trans	-3578
▁moved	-3579
creen	-3580
known	-3581
test	-3582
▁separator	-3583
omes	-3584
▁Fires	-3585
▁plan	-3586
▁documents	-3587
▁Go	-3588
▁selector	-3589
][	-3590
▁Color	-3591
▁maint	-3592
ured	-3593
12	-3594
sg	-3595
▁prop	-3596
▁Rece	-3597
▁delay	-3598
▁Selects	-3599
ackage	-3600
▁Filter	-3601
▁Auth	-3602
▁PM	-3603
▁bas	-3604
▁literal	-3605
RA	-3606
▁html	-3607
▁Since	-3608
▁calendar	-3609
:3	-3610
ui	-3611
▁ded	-3612
oding	-3613
implement	-3614
▁Copy	-3615
isible	-3616
▁visibility	-3617
sub	-3618
ural	-3619
faces	-3620
▁minut	-3621
IG	-3622
▁suff	-3623
▁exactly	-3624
▁Custom	-3625
ained	-3626
Ass	-3627
▁topic	-3628
▁mechan	-3629
istic	-3630
▁Client	-3631
periment	-3632
End	-3633
XML	-3634
eners	-3635
▁undo	-3636
index	-3637
aract	-3638
with	-3639
▁esc	-3640
▁lead	-3641
▁platform	-3642
▁sat	-3643
▁tokens	-3644
Provider	-3645
Tab	-3646
▁comments	-3647
ta	-3648
▁SWT	-3649
emon	-3650
▁overl	-3651
arily	-3652
▁Exception	-3653
erm	-3654
reshold	-3655
Container	-3656
▁Verifies	-3657
Task	-3658
▁fragment	-3659
▁cook	-3660
▁intended	-3661
▁alias	-3662
2,	-3663
lyph	-3664
uman	-3665
▁cast	-3666
▁SE	-3667
▁Multi	-3668
▁moves	-3669
Integer	-3670
aff	-3671
▁inf	-3672
BO	-3673
▁subscri	-3674
▁pay	-3675
▁However	-3676
▁happens	-3677
▁0,	-3678
ilities	-3679
Default	-3680
▁translation	-3681
▁200	-3682
Token	-3683
▁db	-3684
▁criteria	-3685
Rel	-3686
▁Applies	-3687
▁bounding	-3688
▁constructed	-3689
▁Command	-3690
▁meaning	-3691
:4	-3692
▁cir	-3693
Access	-3694
isf	-3695
Cell	-3696
new	-3697
Definition	-3698
▁qualified	-3699
▁statistics	-3700
▁flags	-3701
▁Describe	-3702
▁parts	-3703
▁future	-3704
itespace	-3705
▁Attempt	-3706
▁entered	-3707
mm	-3708
yles	-3709
▁roll	-3710
Render	-3711
▁implementations	-3712
▁phys	-3713
ario	-3714
▁shutdown	-3715
▁generation	-3716
▁care	-3717
▁lif	-3718
▁quot	-3719
Dialog	-3720
▁generic	-3721
▁successful	-3722
ded	-3723
▁services	-3724
▁encounter	-3725
0)	-3726
ogn	-3727
▁Fetch	-3728
Tool	-3729
▁fac	-3730
aking	-3731
remove	-3732
▁optim	-3733
TED	-3734
irectory	-3735
5.	-3736
az	-3737
chor	-3738
vant	-3739
▁closes	-3740
▁console	-3741
▁restr	-3742
▁dimensions	-3743
ants	-3744
▁vol	-3745
start	-3746
anc	-3747
tip	-3748
▁question	-3749
Out	-3750
which	-3751
▁Comp	-3752
▁prevent	-3753
▁define	-3754
▁Compute	-3755
▁usage	-3756
Transaction	-3757
▁Fore	-3758
utator	-3759
▁performance	-3760
▁arg	-3761
▁]	-3762
▁Link	-3763
uced	-3764
▁further	-3765
untry	-3766
▁force	-3767
▁rev	-3768
▁Rest	-3769
▁Bean	-3770
▁maps	-3771
Update	-3772
System	-3773
ueue	-3774
▁assumed	-3775
▁flush	-3776
▁altern	-3777
▁den	-3778
ynchronous	-3779
▁Uns	-3780
aj	-3781
▁processor	-3782
ty	-3783
▁below	-3784
▁defines	-3785
▁!	-3786
▁iff	-3787
▁good	-3788
▁interpret	-3789
linkplain	-3790
▁Processes	-3791
rag	-3792
roke	-3793
▁100	-3794
▁terms	-3795
▁exclud	-3796
Level	-3797
▁described	-3798
ref	-3799
Util	-3800
▁Post	-3801
;&	-3802
Grid	-3803
▁mid	-3804
▁very	-3805
▁piece	-3806
▁).	-3807
ormal	-3808
osen	-3809
▁batch	-3810
eloc	-3811
▁delimit	-3812
▁void	-3813
▁measure	-3814
Gener	-3815
▁Runs	-3816
▁suitable	-3817
▁arbit	-3818
position	-3819
encies	-3820
▁regard	-3821
PC	-3822
▁predicate	-3823
shot	-3824
▁recom	-3825
▁Factory	-3826
ideo	-3827
Constant	-3828
▁ordered	-3829
▁changing	-3830
▁embed	-3831
▁zone	-3832
▁activated	-3833
▁reached	-3834
▁usually	-3835
▁appended	-3836
▁classpath	-3837
▁That	-3838
print	-3839
▁Some	-3840
▁orient	-3841
vices	-3842
▁geometry	-3843
▁similar	-3844
Bound	-3845
▁prom	-3846
Cache	-3847
Order	-3848
▁normally	-3849
▁positions	-3850
Call	-3851
▁identical	-3852
▁typically	-3853
any	-3854
sib	-3855
ued	-3856
▁three	-3857
▁separated	-3858
▁Int	-3859
▁applic	-3860
▁really	-3861
▁Context	-3862
▁Http	-3863
Header	-3864
ps	-3865
▁Associ	-3866
▁leaf	-3867
▁neighb	-3868
▁showing	-3869
VAL	-3870
▁reads	-3871
▁Transl	-3872
egin	-3873
CL	-3874
▁Foreign	-3875
Ext	-3876
▁sheet	-3877
▁home	-3878
▁restore	-3879
quire	-3880
Thread	-3881
▁shows	-3882
▁destroy	-3883
rl	-3884
▁OR	-3885
user	-3886
ysis	-3887
▁startup	-3888
umb	-3889
▁enter	-3890
And	-3891
ats	-3892
ivers	-3893
▁Menu	-3894
book	-3895
▁construction	-3896
item	-3897
vation	-3898
ialized	-3899
rammar	-3900
Names	-3901
IE	-3902
▁hidden	-3903
active	-3904
quency	-3905
oto	-3906
▁converts	-3907
▁Option	-3908
▁capacity	-3909
▁documentation	-3910
atic	-3911
apshot	-3912
▁integ	-3913
▁certificate	-3914
▁programm	-3915
▁cred	-3916
▁immutable	-3917
10	-3918
▁foreg	-3919
▁Cancel	-3920
Location	-3921
▁alpha	-3922
case	-3923
▁scene	-3924
Builder	-3925
▁average	-3926
▁virtual	-3927
sd	-3928
Vector	-3929
incipal	-3930
▁applet	-3931
▁calculate	-3932
▁Drop	-3933
▁Database	-3934
▁>	-3935
▁Point	-3936
▁missing	-3937
▁procedure	-3938
Int	-3939
▁marker	-3940
Position	-3941
ful	-3942
oded	-3943
Combo	-3944
▁filters	-3945
▁released	-3946
▁Currently	-3947
Attributes	-3948
clos	-3949
ench	-3950
▁due	-3951
▁cost	-3952
enders	-3953
▁descriptors	-3954
▁doc	-3955
▁Axis	-3956
▁True	-3957
▁satisf	-3958
▁mask	-3959
elocity	-3960
urrency	-3961
▁followed	-3962
Configuration	-3963
▁Big	-3964
▁bro	-3965
elete	-3966
html	-3967
▁ret	-3968
eff	-3969
▁obtained	-3970
US	-3971
▁7	-3972
▁12	-3973
ises	-3974
▁chat	-3975
UN	-3976
Version	-3977
▁defaults	-3978
▁unch	-3979
▁resets	-3980
▁clears	-3981
▁InputStream	-3982
▁(2	-3983
Def	-3984
▁New	-3985
▁runs	-3986
rapper	-3987
umes	-3988
▁site	-3989
▁controll	-3990
unc	-3991
▁indicated	-3992
Bam	-3993
Max	-3994
method	-3995
▁Defines	-3996
▁ca	-3997
CP	-3998
',	-3999
▁Line	-4000
▁pick	-4001
▁pairs	-4002
▁newly	-4003
▁business	-4004
▁loads	-4005
▁placed	-4006
▁invokes	-4007
▁players	-4008
false	-4009
oe	-4010
▁remaining	-4011
▁foreground	-4012
▁Ret	-4013
Length	-4014
Port	-4015
▁human	-4016
▁toolbar	-4017
TR	-4018
change	-4019
▁displaying	-4020
▁SAX	-4021
▁Logs	-4022
▁assumes	-4023
▁gen	-4024
▁press	-4025
▁colors	-4026
▁Tag	-4027
▁prints	-4028
▁arrays	-4029
▁disable	-4030
▁becomes	-4031
cest	-4032
▁happen	-4033
sets	-4034
▁branch	-4035
▁Searches	-4036
Range	-4037
▁arbitrary	-4038
igned	-4039
▁pending	-4040
▁conditions	-4041
Work	-4042
AME	-4043
▁Source	-4044
▁deduce	-4045
▁ok	-4046
▁light	-4047
▁depends	-4048
▁IO	-4049
▁May	-4050
Types	-4051
▁applicable	-4052
see	-4053
▁jScrollPane	-4054
DAO	-4055
▁relevant	-4056
irty	-4057
olve	-4058
▁inherited	-4059
ips	-4060
Auth	-4061
▁ontology	-4062
ado	-4063
Block	-4064
aused	-4065
▁whitespace	-4066
UID	-4067
Valid	-4068
apache	-4069
LL	-4070
ARN	-4071
cut	-4072
▁dynamic	-4073
▁operand	-4074
▁computed	-4075
alls	-4076
argin	-4077
▁passing	-4078
alk	-4079
▁Graphics	-4080
▁mechanism	-4081
▁Must	-4082
▁deep	-4083
HO	-4084
▁diagram	-4085
ric	-4086
getChildren	-4087
▁bug	-4088
▁give	-4089
▁answer	-4090
▁difference	-4091
▁recursively	-4092
▁Verify	-4093
▁numeric	-4094
▁portion	-4095
tocol	-4096
aten	-4097
GE	-4098
ux	-4099
-0	-4100
Sequence	-4101
▁indicator	-4102
▁activation	-4103
▁deal	-4104
▁large	-4105
istence	-4106
▁causes	-4107
▁identify	-4108
Loader	-4109
▁Main	-4110
Target	-4111
:0	-4112
▁overrides	-4113
▁txt	-4114
New	-4115
▁choice	-4116
cs	-4117
▁Properties	-4118
▁alter	-4119
▁polygon	-4120
▁Iterator	-4121
otype	-4122
anced	-4123
aracter	-4124
▁clock	-4125
df	-4126
sibly	-4127
Project	-4128
acket	-4129
ktop	-4130
FA	-4131
cast	-4132
▁DOC	-4133
oring	-4134
▁expl	-4135
▁Fills	-4136
▁linked	-4137
MO	-4138
▁separate	-4139
▁suc	-4140
▁Calling	-4141
▁16	-4142
▁Local	-4143
pendent	-4144
ling	-4145
Argument	-4146
aterial	-4147
▁indexed	-4148
▁stopped	-4149
▁styles	-4150
▁probability	-4151
AddCommand	-4152
Case	-4153
Parser	-4154
▁had	-4155
▁ancest	-4156
based	-4157
▁logical	-4158
ones	-4159
▁pip	-4160
▁vertices	-4161
createCommand	-4162
▁week	-4163
▁Transaction	-4164
RemoveCommand	-4165
:1	-4166
▁holds	-4167
▁hashCode	-4168
olver	-4169
ULL	-4170
▁threshold	-4171
arsh	-4172
▁decor	-4173
▁Answer	-4174
▁updating	-4175
ourse	-4176
▁ends	-4177
server	-4178
▁Code	-4179
▁routine	-4180
/0	-4181
1)	-4182
▁corner	-4183
Separator	-4184
from	-4185
event	-4186
ointer	-4187
element	-4188
▁Config	-4189
▁strategy	-4190
CS	-4191
▁front	-4192
▁paths	-4193
▁SO	-4194
▁held	-4195
▁filled	-4196
▁formula	-4197
ATE	-4198
▁square	-4199
▁shad	-4200
Mapping	-4201
▁Player	-4202
▁extended	-4203
MoveCommand	-4204
Template	-4205
▁discard	-4206
▁summary	-4207
eo	-4208
▁1.0	-4209
inding	-4210
▁navigation	-4211
▁aggreg	-4212
▁Page	-4213
arb	-4214
▁handlers	-4215
comp	-4216
▁accessor	-4217
▁percentage	-4218
▁Block	-4219
Min	-4220
▁catalog	-4221
▁orientation	-4222
source	-4223
▁thus	-4224
Iterator	-4225
ContentPane	-4226
▁Turn	-4227
ccount	-4228
▁chosen	-4229
▁interfaces	-4230
▁directories	-4231
▁everything	-4232
Back	-4233
orter	-4234
▁printed	-4235
ategories	-4236
▁Put	-4237
pring	-4238
▁delegates	-4239
▁completion	-4240
▁expressions	-4241
▁Enable	-4242
abilities	-4243
▁several	-4244
▁applies	-4245
▁overwritten	-4246
▁Ph	-4247
Icon	-4248
open	-4249
▁become	-4250
▁checkbox	-4251
▁Then	-4252
Meta	-4253
▁hit	-4254
▁HSQL	-4255
▁Sign	-4256
▁anchor	-4257
▁executing	-4258
Rep	-4259
▁Order	-4260
card	-4261
▁Edit	-4262
Listeners	-4263
▁editable	-4264
▁occurrence	-4265
going	-4266
▁calculation	-4267
head	-4268
like	-4269
▁Gives	-4270
ons	-4271
▁blank	-4272
▁spaces	-4273
▁experiment	-4274
▁encountered	-4275
CON	-4276
▁1,	-4277
connect	-4278
▁ones	-4279
▁Double	-4280
▁launch	-4281
ync	-4282
Values	-4283
▁organ	-4284
generated	-4285
▁Two	-4286
▁deploy	-4287
▁unknown	-4288
conn	-4289
▁comma	-4290
▁reply	-4291
TF	-4292
▁Unsupported	-4293
gress	-4294
4.	-4295
▁Enc	-4296
▁Boolean	-4297
▁Mutator	-4298
Ident	-4299
specified	-4300
▁accepted	-4301
▁transport	-4302
▁team	-4303
▁inc	-4304
ette	-4305
▁Defaults	-4306
Be	-4307
LY	-4308
erved	-4309
imate	-4310
▁Specify	-4311
▁expanded	-4312
▁Configuration	-4313
▁WARN	-4314
plete	-4315
▁listening	-4316
TD	-4317
▁Des	-4318
ograph	-4319
▁verify	-4320
▁ensures	-4321
▁invoking	-4322
▁ra	-4323
▁various	-4324
▁MID	-4325
▁substitut	-4326
▁classifier	-4327
▁annotations	-4328
▁att	-4329
▁embedded	-4330
Off	-4331
7.	-4332
▁Be	-4333
▁snapshot	-4334
▁MI	-4335
reach	-4336
▁building	-4337
agraph	-4338
▁resolution	-4339
▁Base	-4340
▁letter	-4341
▁rank	-4342
Ab	-4343
SP	-4344
Rad	-4345
====	-4346
▁wants	-4347
ComboBox	-4348
nable	-4349
▁First	-4350
Display	-4351
▁suffix	-4352
▁degrees	-4353
▁generates	-4354
:(	-4355
");	-4356
▁ut	-4357
▁glyph	-4358
▁archive	-4359
▁located	-4360
web	-4361
▁Dest	-4362
▁days	-4363
▁quant	-4364
▁sql	-4365
▁near	-4366
VER	-4367
▁ant	-4368
▁safe	-4369
▁resolved	-4370
▁Parameter	-4371
VM	-4372
ista	-4373
▁cross	-4374
▁definitions	-4375
Pass	-4376
here	-4377
▁core	-4378
tle	-4379
▁deliv	-4380
▁sorting	-4381
GB	-4382
Detail	-4383
▁together	-4384
▁Game	-4385
Sim	-4386
▁evaluation	-4387
▁compareTo	-4388
▁Basic	-4389
▁recomm	-4390
otal	-4391
UMENT	-4392
length	-4393
▁allocated	-4394
gn	-4395
iev	-4396
▁physical	-4397
oordinate	-4398
▁serialization	-4399
size	-4400
▁btn	-4401
▁HSQLDB	-4402
▁Str	-4403
▁queries	-4404
ogle	-4405
olicy	-4406
▁implementing	-4407
Get	-4408
DI	-4409
Loc	-4410
▁won	-4411
ymbol	-4412
▁cleared	-4413
md	-4414
▁hex	-4415
▁jar	-4416
▁compute	-4417
FC	-4418
parent	-4419
▁Frame	-4420
▁Label	-4421
condition	-4422
▁tooltip	-4423
tructure	-4424
ialization	-4425
most	-4426
▁repaint	-4427
▁interrupt	-4428
etric	-4429
swing	-4430
▁hard	-4431
isation	-4432
▁executes	-4433
▁occurred	-4434
alle	-4435
Pers	-4436
With	-4437
▁dot	-4438
place	-4439
acro	-4440
uring	-4441
▁fires	-4442
▁Spring	-4443
▁matched	-4444
▁\	-4445
BLE	-4446
▁steps	-4447
▁applications	-4448
▁grammar	-4449
Constants	-4450
ined	-4451
▁ordering	-4452
▁Puts	-4453
▁video	-4454
▁fold	-4455
▁Tries	-4456
▁saves	-4457
▁scheme	-4458
ayers	-4459
▁Path	-4460
▁jContentPane	-4461
amed	-4462
apsed	-4463
adding	-4464
etadata	-4465
▁permissions	-4466
▁sit	-4467
▁recogn	-4468
▁contract	-4469
▁cookie	-4470
▁Rect	-4471
▁sensor	-4472
gest	-4473
ublic	-4474
▁Co	-4475
▁going	-4476
▁route	-4477
▁making	-4478
▁completely	-4479
----------------	-4480
objects	-4481
perator	-4482
modified	-4483
otion	-4484
istent	-4485
arn	-4486
ood	-4487
▁things	-4488
▁Address	-4489
▁frequency	-4490
▁asynchronous	-4491
EX	-4492
▁succeed	-4493
▁disables	-4494
▁hashtable	-4495
UP	-4496
▁Fire	-4497
▁clicks	-4498
▁Replace	-4499
agement	-4500
▁submitted	-4501
ajor	-4502
▁colour	-4503
2)	-4504
▁doing	-4505
▁better	-4506
▁frames	-4507
▁Red	-4508
▁follows	-4509
▁dependent	-4510
▁serialized	-4511
Mon	-4512
▁features	-4513
▁ME	-4514
▁CSS	-4515
▁reload	-4516
▁textual	-4517
base	-4518
▁mag	-4519
▁cycle	-4520
▁Dat	-4521
▁Asserts	-4522
▁Statement	-4523
▁PO	-4524
▁diff	-4525
icture	-4526
▁issue	-4527
▁unchanged	-4528
ifact	-4529
▁Apply	-4530
▁Column	-4531
IX	-4532
eel	-4533
▁mut	-4534
▁higher	-4535
▁Expression	-4536
▁".	-4537
Width	-4538
build	-4539
▁interest	-4540
axis	-4541
arbage	-4542
Next	-4543
ulator	-4544
▁power	-4545
▁confirm	-4546
leton	-4547
uation	-4548
compare	-4549
core	-4550
▁Visual	-4551
▁moving	-4552
▁Container	-4553
())	-4554
rec	-4555
▁Bl	-4556
ring	-4557
▁volume	-4558
▁Sched	-4559
▁enough	-4560
▁Push	-4561
▁reported	-4562
▁far	-4563
aries	-4564
▁selects	-4565
atio	-4566
▁Count	-4567
▁curve	-4568
▁perman	-4569
▁slider	-4570
▁readable	-4571
▁hook	-4572
sl	-4573
acion	-4574
overy	-4575
▁Invok	-4576
▁choose	-4577
▁participant	-4578
Tim	-4579
▁Just	-4580
▁Once	-4581
▁descend	-4582
▁obj	-4583
▁propag	-4584
▁devel	-4585
notation	-4586
▁produce	-4587
▁reflect	-4588
properties	-4589
voe	-4590
▁Grid	-4591
▁keyboard	-4592
vista	-4593
▁enclos	-4594
▁surface	-4595
▁undefined	-4596
▁dependency	-4597
▁band	-4598
▁arr	-4599
▁Swing	-4600
outreach	-4601
vistaoutreach	-4602
aits	-4603
▁outline	-4604
check	-4605
boolean	-4606
▁ending	-4607
▁OS	-4608
iate	-4609
▁Feature	-4610
Su	-4611
16	-4612
▁refers	-4613
▁registers	-4614
FF	-4615
GL	-4616
oss	-4617
bound	-4618
bench	-4619
▁compared	-4620
emory	-4621
▁much	-4622
ULT	-4623
▁looks	-4624
uml	-4625
▁CR	-4626
▁\\	-4627
uces	-4628
▁hint	-4629
▁redirect	-4630
Servlet	-4631
▁retrieves	-4632
▁span	-4633
▁streams	-4634
▁Obtains	-4635
ycl	-4636
ma	-4637
oder	-4638
▁Same	-4639
▁says	-4640
▁tries	-4641
▁preced	-4642
▁Objects	-4643
▁packets	-4644
▁reimplement	-4645
▁pot	-4646
▁Long	-4647
▁recon	-4648
▁flo	-4649
▁Accepts	-4650
Items	-4651
▁Coll	-4652
▁resolve	-4653
▁jSeparator	-4654
VALUE	-4655
▁stud	-4656
▁decimal	-4657
▁Validate	-4658
riend	-4659
onical	-4660
▁shell	-4661
▁Schema	-4662
▁comparator	-4663
esh	-4664
▁WS	-4665
▁saving	-4666
rum	-4667
▁Information	-4668
▁Standard	-4669
vt	-4670
izing	-4671
▁widgets	-4672
▁probably	-4673
▁Transform	-4674
PRO	-4675
Viewer	-4676
▁duplicate	-4677
Interface	-4678
▁instantiated	-4679
URI	-4680
alette	-4681
▁stops	-4682
▁though	-4683
▁capt	-4684
;/	-4685
▁Configur	-4686
▁velocity	-4687
▁Shift	-4688
▁garbage	-4689
▁convention	-4690
▁recent	-4691
▁consider	-4692
▁synchronized	-4693
▁revision	-4694
▁analysis	-4695
▁workflow	-4696
▁Flush	-4697
▁establ	-4698
eh	-4699
tes	-4700
▁11	-4701
ensity	-4702
pc	-4703
▁price	-4704
▁identifiers	-4705
Root	-4706
TYPE	-4707
▁wish	-4708
▁sender	-4709
▁notifies	-4710
▁ear	-4711
▁Font	-4712
▁semantics	-4713
-2	-4714
▁asc	-4715
ational	-4716
▁(0	-4717
▁Try	-4718
▁installed	-4719
▁translated	-4720
▁dependencies	-4721
▁Cell	-4722
▁Always	-4723
▁worker	-4724
▁pain	-4725
▁dirty	-4726
version	-4727
UM	-4728
Rule	-4729
▁fin	-4730
▁Sk	-4731
▁lex	-4732
▁sprite	-4733
▁WARNING	-4734
pol	-4735
tings	-4736
▁models	-4737
▁TH	-4738
▁Tim	-4739
Pool	-4740
▁gives	-4741
▁deletes	-4742
ral	-4743
etic	-4744
▁Ter	-4745
▁DOCUMENT	-4746
ents	-4747
onym	-4748
▁smaller	-4749
▁converter	-4750
▁localized	-4751
actor	-4752
▁white	-4753
CO	-4754
Create	-4755
column	-4756
strument	-4757
▁minutes	-4758
▁inclusive	-4759
▁inform	-4760
▁important	-4761
apes	-4762
orrect	-4763
Function	-4764
PS	-4765
bum	-4766
ament	-4767
Selected	-4768
Run	-4769
day	-4770
uid	-4771
▁bus	-4772
Queue	-4773
▁latest	-4774
▁Overridden	-4775
▁Typ	-4776
▁sec	-4777
bre	-4778
gr	-4779
▁attempts	-4780
▁Notification	-4781
▁fore	-4782
▁radius	-4783
▁therefore	-4784
IO	-4785
▁tax	-4786
▁Throw	-4787
▁margin	-4788
▁playing	-4789
▁3.	-4790
Renderer	-4791
▁ord	-4792
stream	-4793
▁Cache	-4794
▁radio	-4795
▁country	-4796
▁however	-4797
component	-4798
▁plus	-4799
Cho	-4800
▁credential	-4801
▁poll	-4802
▁patient	-4803
▁Calendar	-4804
▁Row	-4805
▁highest	-4806
▁compilation	-4807
▁interaction	-4808
Pointer	-4809
InputStream	-4810
avor	-4811
rase	-4812
▁Port	-4813
▁deser	-4814
▁communication	-4815
▁laz	-4816
Parameters	-4817
number	-4818
ration	-4819
inherit	-4820
▁inverse	-4821
jb	-4822
▁validator	-4823
▁Scroll	-4824
ensitive	-4825
▁dir	-4826
ledge	-4827
▁Button	-4828
▁Release	-4829
▁Location	-4830
Permission	-4831
▁overriden	-4832
▁manip	-4833
▁replacement	-4834
▁evaluate	-4835
▁Refreshes	-4836
right	-4837
▁Paints	-4838
registration	-4839
vis	-4840
▁IllegalArgument	-4841
po	-4842
▁lowest	-4843
▁calculates	-4844
▁prepared	-4845
Can	-4846
▁recip	-4847
Performed	-4848
aN	-4849
▁One	-4850
].	-4851
▁uri	-4852
CheckBox	-4853
▁ids	-4854
asing	-4855
ceptor	-4856
atype	-4857
▁Switch	-4858
▁edu	-4859
▁continue	-4860
Dir	-4861
Char	-4862
olec	-4863
thers	-4864
▁cards	-4865
▁Min	-4866
▁Mouse	-4867
Extension	-4868
▁JavaScript	-4869
icated	-4870
aged	-4871
Match	-4872
eas	-4873
▁stroke	-4874
TH	-4875
Comp	-4876
▁prompt	-4877
Str	-4878
scri	-4879
▁refs	-4880
SI	-4881
Title	-4882
delete	-4883
▁Attempts	-4884
▁guaranteed	-4885
▁accordingly	-4886
▁blog	-4887
▁Variable	-4888
▁receiving	-4889
DT	-4890
▁nor	-4891
▁Iter	-4892
▁Please	-4893
▁Invokes	-4894
▁schedule	-4895
▁protected	-4896
▁population	-4897
MI	-4898
paces	-4899
▁course	-4900
yz	-4901
▁appears	-4902
▁looking	-4903
▁assignment	-4904
▁Unit	-4905
▁digits	-4906
▁did	-4907
venient	-4908
▁indexes	-4909
▁Attach	-4910
▁windows	-4911
64	-4912
api	-4913
ble	-4914
▁Det	-4915
ancell	-4916
▁modifier	-4917
▁processes	-4918
▁sequ	-4919
Options	-4920
echn	-4921
▁tuple	-4922
▁updater	-4923
MA	-4924
iss	-4925
Objects	-4926
▁presentation	-4927
opy	-4928
▁Mer	-4929
▁Takes	-4930
▁recommended	-4931
oment	-4932
▁watch	-4933
▁larger	-4934
▁accessed	-4935
Num	-4936
▁Conn	-4937
uration	-4938
▁restrict	-4939
▁solution	-4940
▁Operation	-4941
▁jMenuItem	-4942
Up	-4943
▁ISO	-4944
▁reach	-4945
▁playlist	-4946
Ph	-4947
▁caret	-4948
▁Extracts	-4949
▁Job	-4950
▁master	-4951
▁categories	-4952
leep	-4953
▁Tog	-4954
▁remain	-4955
▁wr	-4956
uous	-4957
▁filtered	-4958
▁OutputStream	-4959
uspend	-4960
▁across	-4961
oper	-4962
▁Style	-4963
current	-4964
▁workspace	-4965
/2001	-4966
▁inde	-4967
amily	-4968
iation	-4969
Gen	-4970
ales	-4971
▁conf	-4972
adcast	-4973
ecause	-4974
JB	-4975
ident	-4976
▁encaps	-4977
▁reverse	-4978
eclaration	-4979
ChangeListener	-4980
▁15	-4981
ention	-4982
Local	-4983
commit	-4984
▁Import	-4985
▁PDF	-4986
▁Entry	-4987
XX	-4988
MetaData	-4989
icode	-4990
▁compatible	-4991
▁instructions	-4992
▁DO	-4993
▁precision	-4994
oth	-4995
▁Visit	-4996
Enabled	-4997
mp	-4998
na	-4999
▁serial	-5000
▁possibly	-5001
▁dem	-5002
Current	-5003
▁foreign	-5004
▁combination	-5005
Dat	-5006
Enc	-5007
▁ON	-5008
Read	-5009
▁Max	-5010
width	-5011
▁linear	-5012
▁terminal	-5013
▁overwrite	-5014
ES	-5015
HA	-5016
Is	-5017
page	-5018
▁decre	-5019
▁printing	-5020
▁connector	-5021
▁paragraph	-5022
▁Tool	-5023
▁compiler	-5024
▁hy	-5025
▁Tab	-5026
▁men	-5027
Height	-5028
▁Layout	-5029
riterion	-5030
▁Visitor	-5031
▁buffered	-5032
▁structures	-5033
acy	-5034
▁lost	-5035
▁Buffer	-5036
string	-5037
▁Setup	-5038
▁codes	-5039
▁macro	-5040
dle	-5041
▁hal	-5042
plates	-5043
▁Rectangle	-5044
celer	-5045
▁self	-5046
Bounds	-5047
Url	-5048
▁Here	-5049
Module	-5050
▁MS	-5051
qvt	-5052
▁locations	-5053
Us	-5054
efficient	-5055
▁q	-5056
olves	-5057
Decimal	-5058
CR	-5059
Hash	-5060
Channel	-5061
▁'.	-5062
▁stand	-5063
▁ax	-5064
▁comes	-5065
▁expect	-5066
▁Invalid	-5067
iom	-5068
gles	-5069
ocab	-5070
▁implicit	-5071
inheritDoc	-5072
▁terminate	-5073
verter	-5074
▁tw	-5075
▁tell	-5076
▁Locale	-5077
▁roles	-5078
straint	-5079
CA	-5080
▁tabs	-5081
▁Person	-5082
▁SV	-5083
char	-5084
▁others	-5085
▁Renders	-5086
▁extensions	-5087
arm	-5088
Space	-5089
▁logs	-5090
▁trail	-5091
▁concrete	-5092
▁formatting	-5093
embly	-5094
▁From	-5095
▁heap	-5096
▁editors	-5097
▁occured	-5098
▁scaling	-5099
▁performing	-5100
▁Dialog	-5101
▁concaten	-5102
▁submit	-5103
▁backing	-5104
Card	-5105
ingu	-5106
▁Bind	-5107
▁compares	-5108
▁singleton	-5109
Vis	-5110
inner	-5111
▁finds	-5112
▁thumb	-5113
▁scheduled	-5114
da	-5115
PER	-5116
▁Su	-5117
▁sources	-5118
▁utility	-5119
andid	-5120
▁major	-5121
host	-5122
Feature	-5123
▁moment	-5124
ird	-5125
aunch	-5126
▁past	-5127
▁plane	-5128
Variable	-5129
lex	-5130
mits	-5131
roid	-5132
▁mat	-5133
▁quick	-5134
▁Template	-5135
pares	-5136
▁foot	-5137
▁Reference	-5138
▁collected	-5139
▁actor	-5140
▁Target	-5141
UST	-5142
▁copies	-5143
NAME	-5144
ployee	-5145
▁cleanup	-5146
▁spect	-5147
▁lik	-5148
▁alert	-5149
▁subset	-5150
toString	-5151
gers	-5152
ertex	-5153
state	-5154
▁Role	-5155
▁replacing	-5156
:00	-5157
ving	-5158
FAULT	-5159
▁Agent	-5160
ascript	-5161
▁intersection	-5162
▁More	-5163
▁material	-5164
▁Delegates	-5165
max	-5166
▁Del	-5167
▁Tell	-5168
service	-5169
▁Remote	-5170
▁Level	-5171
▁marks	-5172
▁travers	-5173
▁outgoing	-5174
iates	-5175
If	-5176
ifest	-5177
▁Dump	-5178
▁Strings	-5179
Radio	-5180
olved	-5181
▁observer	-5182
Domain	-5183
Adapter	-5184
▁efficient	-5185
zz	-5186
▁tar	-5187
Proxy	-5188
Events	-5189
▁Useful	-5190
Pri	-5191
▁JVM	-5192
Pattern	-5193
app	-5194
info	-5195
▁accepts	-5196
▁boundary	-5197
▁validity	-5198
▁normalized	-5199
▁SOAP	-5200
▁infin	-5201
▁exceed	-5202
Password	-5203
▁wire	-5204
▁ArrayList	-5205
▁My	-5206
ters	-5207
▁phone	-5208
▁Activity	-5209
▁problems	-5210
▁canonical	-5211
▁triggered	-5212
▁VM	-5213
▁accur	-5214
Init	-5215
▁What	-5216
▁padding	-5217
resentation	-5218
19	-5219
▁19	-5220
▁Mon	-5221
▁Match	-5222
▁implies	-5223
▁treated	-5224
▁({@	-5225
▁sync	-5226
▁Clean	-5227
▁ratio	-5228
▁leading	-5229
▁Evaluates	-5230
▁Looks	-5231
Only	-5232
▁modules	-5233
▁overriding	-5234
iol	-5235
▁Token	-5236
▁Delegate	-5237
Role	-5238
▁Man	-5239
includ	-5240
▁consum	-5241
▁And	-5242
▁levels	-5243
▁registration	-5244
▁hide	-5245
Chooser	-5246
arshall	-5247
Database	-5248
▁removal	-5249
The	-5250
▁JDO	-5251
▁produced	-5252
Over	-5253
swers	-5254
Settings	-5255
bl	-5256
▁his	-5257
▁cover	-5258
▁vectors	-5259
ONE	-5260
▁IR	-5261
▁trim	-5262
▁builds	-5263
▁wether	-5264
20	-5265
▁div	-5266
empty	-5267
etime	-5268
Condition	-5269
▁AS	-5270
▁Cons	-5271
No	-5272
SER	-5273
▁AC	-5274
▁AM	-5275
uto	-5276
format	-5277
though	-5278
▁DA	-5279
▁NULL	-5280
▁detected	-5281
▁partition	-5282
Man	-5283
Font	-5284
gram	-5285
▁scen	-5286
▁20	-5287
▁Equ	-5288
▁goal	-5289
▁goes	-5290
▁notes	-5291
▁Position	-5292
▁versions	-5293
II	-5294
Rect	-5295
icip	-5296
left	-5297
▁regardless	-5298
Inv	-5299
MAX	-5300
adoc	-5301
▁RFC	-5302
▁seed	-5303
▁ship	-5304
DS	-5305
▁Wid	-5306
atever	-5307
▁Status	-5308
sch	-5309
count	-5310
▁clipboard	-5311
▁holding	-5312
▁specifying	-5313
55	-5314
come	-5315
▁JSP	-5316
click	-5317
Engine	-5318
Execut	-5319
Note	-5320
next	-5321
Click	-5322
ecode	-5323
▁Names	-5324
▁controlled	-5325
ority	-5326
▁Panel	-5327
Wrapper	-5328
Product	-5329
▁restart	-5330
▁Configures	-5331
...)	-5332
graph	-5333
▁divid	-5334
▁desktop	-5335
Look	-5336
inst	-5337
node	-5338
▁Byte	-5339
▁XPath	-5340
▁parses	-5341
▁training	-5342
▁transactions	-5343
activ	-5344
Matrix	-5345
▁delta	-5346
Op	-5347
TERN	-5348
Folder	-5349
▁layers	-5350
▁IDs	-5351
river	-5352
▁dispose	-5353
▁searches	-5354
▁permanently	-5355
ks	-5356
Nodes	-5357
▁Marks	-5358
imation	-5359
▁Handler	-5360
aset	-5361
▁Plugin	-5362
long	-5363
▁replaces	-5364
Del	-5365
store	-5366
▁Paint	-5367
▁locked	-5368
▁generating	-5369
Report	-5370
▁opening	-5371
▁Gr	-5372
▁ST	-5373
that	-5374
screen	-5375
istance	-5376
▁tested	-5377
tribution	-5378
15	-5379
PAR	-5380
▁PC	-5381
Custom	-5382
▁bond	-5383
entity	-5384
ferences	-5385
▁Instead	-5386
IL	-5387
▁partial	-5388
▁Security	-5389
OutputStream	-5390
dbc	-5391
▁palette	-5392
▁abort	-5393
▁accessible	-5394
tm	-5395
pass	-5396
▁Generic	-5397
▁addresses	-5398
▁evaluated	-5399
jav	-5400
ital	-5401
entially	-5402
Processor	-5403
▁attachment	-5404
▁Need	-5405
▁viewport	-5406
▁Warning	-5407
plier	-5408
Schema	-5409
▁legal	-5410
▁Listener	-5411
awn	-5412
HTML	-5413
▁Plot	-5414
DD	-5415
▁CS	-5416
Sheet	-5417
})	-5418
▁gap	-5419
Application	-5420
Open	-5421
▁Thus	-5422
▁Version	-5423
▁enables	-5424
▁extends	-5425
▁bindings	-5426
▁Normal	-5427
Elements	-5428
▁ancestor	-5429
▁subtract	-5430
▁reflected	-5431
DATA	-5432
aped	-5433
▁merge	-5434
▁Define	-5435
ox	-5436
▁stuff	-5437
▁metric	-5438
▁JD	-5439
▁cut	-5440
▁unaff	-5441
▁filtering	-5442
▁projection	-5443
▁DC	-5444
▁newline	-5445
▁fraction	-5446
▁Interface	-5447
▁workbench	-5448
▁=>	-5449
▁cod	-5450
▁places	-5451
▁repeated	-5452
atory	-5453
Results	-5454
▁Editor	-5455
awt	-5456
seud	-5457
aging	-5458
▁tiles	-5459
▁operating	-5460
etty	-5461
▁formatter	-5462
▁Unregister	-5463
▁sib	-5464
0]	-5465
▁Prod	-5466
▁patterns	-5467
▁describes	-5468
▁exclusive	-5469
▁compatibility	-5470
first	-5471
▁unaffected	-5472
▁leave	-5473
▁Product	-5474
▁Receive	-5475
▁Servlet	-5476
ATION	-5477
▁skill	-5478
▁Automat	-5479
50	-5480
OF	-5481
eft	-5482
ucer	-5483
▁away	-5484
▁Formats	-5485
)'	-5486
forge	-5487
▁jobs	-5488
▁feedback	-5489
asc	-5490
ecycle	-5491
▁denot	-5492
▁cancell	-5493
▁picture	-5494
▁Controller	-5495
▁Bit	-5496
▁gui	-5497
Fields	-5498
▁theme	-5499
▁instantiate	-5500
aved	-5501
▁painted	-5502
▁warnings	-5503
▁Selection	-5504
eer	-5505
▁arc	-5506
▁Recurs	-5507
▁indentation	-5508
doc	-5509
ummy	-5510
▁wrong	-5511
Cancel	-5512
quires	-5513
▁resize	-5514
▁subtree	-5515
▁movement	-5516
OP	-5517
ooth	-5518
▁DAO	-5519
▁vice	-5520
▁Export	-5521
▁HashMap	-5522
▁searching	-5523
style	-5524
▁consistent	-5525
Term	-5526
begin	-5527
▁Reports	-5528
Player	-5529
▁Admin	-5530
Transform	-5531
▁artifact	-5532
EC	-5533
ck	-5534
eto	-5535
tag	-5536
loader	-5537
▁storing	-5538
▁constructors	-5539
Last	-5540
medi	-5541
▁samples	-5542
▁channels	-5543
▁Pos	-5544
▁MIME	-5545
▁four	-5546
olecule	-5547
▁Adjust	-5548
▁Shifts	-5549
▁manually	-5550
paredStatement	-5551
▁zip	-5552
▁whatever	-5553
heet	-5554
▁listed	-5555
▁generally	-5556
ixed	-5557
▁CIM	-5558
▁Step	-5559
▁feel	-5560
▁payload	-5561
▁Required	-5562
▁graphical	-5563
arg	-5564
mer	-5565
▁signed	-5566
▁receives	-5567
▁delimiter	-5568
3,	-5569
MT	-5570
ampl	-5571
defined	-5572
▁effects	-5573
▁DTD	-5574
▁let	-5575
▁parents	-5576
This	-5577
usic	-5578
▁strict	-5579
Information	-5580
!!	-5581
FO	-5582
uzz	-5583
ogram	-5584
▁prof	-5585
Parent	-5586
▁suite	-5587
▁populate	-5588
▁automatic	-5589
▁With	-5590
▁counts	-5591
▁devices	-5592
▁comparing	-5593
▁RGB	-5594
▁ren	-5595
▁buff	-5596
ummary	-5597
▁resid	-5598
relative	-5599
ca	-5600
hib	-5601
▁src	-5602
flict	-5603
▁enum	-5604
iggers	-5605
▁redraw	-5606
Category	-5607
▁SQLException	-5608
fill	-5609
TextArea	-5610
gy	-5611
son	-5612
FOR	-5613
▁beans	-5614
▁hours	-5615
▁appearance	-5616
Lock	-5617
imin	-5618
▁Rule	-5619
▁expired	-5620
▁signific	-5621
Track	-5622
▁cloning	-5623
▁spacing	-5624
▁IOException	-5625
param	-5626
▁legend	-5627
Stack	-5628
anaged	-5629
▁currency	-5630
TS	-5631
uf	-5632
ords	-5633
▁Clones	-5634
▁backed	-5635
▁taking	-5636
▁acceler	-5637
-8	-5638
BU	-5639
First	-5640
▁preview	-5641
RadioButton	-5642
rod	-5643
rowse	-5644
TERNAL	-5645
▁caused	-5646
▁distingu	-5647
xl	-5648
ester	-5649
▁plugins	-5650
▁DataSource	-5651
▁Missing	-5652
▁DropDown	-5653
▁CG	-5654
▁TR	-5655
▁Sorts	-5656
ventory	-5657
▁Termin	-5658
▁hashcode	-5659
▁Serialize	-5660
sim	-5661
").	-5662
Cap	-5663
Desc	-5664
▁plain	-5665
ryption	-5666
▁sessions	-5667
▁throwing	-5668
▁song	-5669
▁Modify	-5670
▁middle	-5671
Calendar	-5672
▁stage	-5673
▁rectang	-5674
▁album	-5675
▁datast	-5676
▁Assigns	-5677
AM	-5678
▁SSL	-5679
enter	-5680
▁sense	-5681
▁ascending	-5682
FI	-5683
prec	-5684
▁grad	-5685
Directory	-5686
▁configure	-5687
ocl	-5688
▁El	-5689
▁Out	-5690
Double	-5691
PR	-5692
▁sug	-5693
▁idle	-5694
execut	-5695
▁opens	-5696
▁Manager	-5697
##	-5698
▁big	-5699
▁closest	-5700
▁formats	-5701
▁servers	-5702
▁alternative	-5703
▁occup	-5704
▁reports	-5705
▁GL	-5706
Byte	-5707
LECT	-5708
▁fall	-5709
▁Dispatch	-5710
▁segments	-5711
▁recursive	-5712
▁AND	-5713
▁ins	-5714
Canvas	-5715
Device	-5716
Visible	-5717
▁dropped	-5718
BL	-5719
Contact	-5720
->	-5721
inct	-5722
▁draws	-5723
PointerException	-5724
80	-5725
ingle	-5726
ializes	-5727
▁inject	-5728
▁collision	-5729
sourceforge	-5730
▁Documentation	-5731
▁dead	-5732
▁stats	-5733
onymous	-5734
byte	-5735
▁Anal	-5736
▁puts	-5737
▁interpreted	-5738
apse	-5739
▁Rot	-5740
▁spl	-5741
▁Assertion	-5742
▁msg	-5743
▁Disposes	-5744
▁var	-5745
Holder	-5746
▁publish	-5747
▁fast	-5748
▁seen	-5749
▁assume	-5750
▁Contact	-5751
▁allowing	-5752
local	-5753
▁pushed	-5754
▁computes	-5755
▁Empty	-5756
▁arrow	-5757
▁modifications	-5758
▁CON	-5759
Agent	-5760
▁MBean	-5761
Section	-5762
▁buffers	-5763
▁semantic	-5764
▁spe	-5765
rypted	-5766
▁tells	-5767
▁typed	-5768
▁respond	-5769
▁Top	-5770
itation	-5771
▁scalar	-5772
▁recorded	-5773
30	-5774
▁Icon	-5775
ifiable	-5776
▁ranges	-5777
▁Instant	-5778
▁nearest	-5779
▁Instance	-5780
▁sequences	-5781
▁("	-5782
▁Off	-5783
▁cal	-5784
▁Maps	-5785
▁Rele	-5786
Active	-5787
amento	-5788
▁Shape	-5789
jo	-5790
SCII	-5791
uler	-5792
▁MUST	-5793
Simple	-5794
▁Because	-5795
▁visited	-5796
Sort	-5797
▁Float	-5798
▁MIDlet	-5799
▁shadow	-5800
▁Condition	-5801
▁Hashtable	-5802
▁Ag	-5803
▁saf	-5804
▁city	-5805
▁verb	-5806
pective	-5807
▁credentials	-5808
6.	-5809
med	-5810
▁quantity	-5811
but	-5812
Mark	-5813
ernel	-5814
▁Mult	-5815
▁live	-5816
ehicle	-5817
▁bad	-5818
spect	-5819
ormally	-5820
▁candid	-5821
▁substring	-5822
41	-5823
aid	-5824
▁modal	-5825
▁simpl	-5826
▁Stream	-5827
▁inserts	-5828
▁prepare	-5829
ands	-5830
▁Meta	-5831
▁Undo	-5832
▁expir	-5833
DataSource	-5834
▁SS	-5835
aper	-5836
allel	-5837
▁charset	-5838
▁affected	-5839
more	-5840
▁Ther	-5841
▁Wait	-5842
▁Login	-5843
▁kept	-5844
▁coefficient	-5845
Day	-5846
▁mass	-5847
▁cloned	-5848
▁presence	-5849
Declaration	-5850
▁terminated	-5851
MM	-5852
▁il	-5853
non	-5854
grid	-5855
▁Gen	-5856
ution	-5857
▁Category	-5858
▁applying	-5859
▁validated	-5860
▁32	-5861
▁cart	-5862
▁Launch	-5863
▁attack	-5864
▁reasons	-5865
▁Typically	-5866
9.	-5867
udit	-5868
▁Atom	-5869
▁gene	-5870
viation	-5871
▁weights	-5872
▁Edge	-5873
Details	-5874
▁belonging	-5875
▁observers	-5876
▁reject	-5877
selected	-5878
▁discarded	-5879
▁ContentModel	-5880
▁subscription	-5881
▁CF	-5882
▁EJB	-5883
▁thing	-5884
▁friend	-5885
Pop	-5886
/2002	-5887
lines	-5888
▁Back	-5889
sibility	-5890
▁constructs	-5891
▁hist	-5892
▁minor	-5893
▁share	-5894
Account	-5895
▁Author	-5896
ww	-5897
▁UN	-5898
DATE	-5899
ught	-5900
egment	-5901
▁retrieving	-5902
▁independent	-5903
icro	-5904
Offset	-5905
Specific	-5906
▁locator	-5907
▁recipient	-5908
Fr	-5909
txt	-5910
▁-1.	-5911
iated	-5912
▁Invoke	-5913
▁scaled	-5914
▁blocking	-5915
▁got	-5916
▁Private	-5917
▁themsel	-5918
▁Syn	-5919
▁medi	-5920
▁Script	-5921
▁Enumeration	-5922
Sl	-5923
Ast	-5924
▁Down	-5925
Select	-5926
▁shift	-5927
▁Depend	-5928
▁Complex	-5929
▁sil	-5930
▁often	-5931
▁backup	-5932
▁likely	-5933
▁caching	-5934
▁neighbor	-5935
▁interested	-5936
▁organization	-5937
ube	-5938
▁Op	-5939
▁ev	-5940
Prod	-5941
▁Don	-5942
▁Hook	-5943
compareTo	-5944
▁Parameters	-5945
▁themselves	-5946
▁adj	-5947
▁Automatically	-5948
ah	-5949
▁Ast	-5950
Plugin	-5951
▁dates	-5952
▁Fetches	-5953
▁Prepare	-5954
▁Sequence	-5955
▁interpreter	-5956
cel	-5957
iki	-5958
▁!=	-5959
hash	-5960
▁compound	-5961
persistence	-5962
XXX	-5963
void	-5964
▁Conc	-5965
▁kill	-5966
▁Title	-5967
▁fault	-5968
Registry	-5969
▁indirect	-5970
iff	-5971
save	-5972
sheet	-5973
Socket	-5974
double	-5975
▁INTERNAL	-5976
▁deletion	-5977
▁instrument	-5978
www	-5979
▁1)	-5980
▁soft	-5981
▁trying	-5982
▁Hibernate	-5983
App	-5984
Book	-5985
orth	-5986
▁nick	-5987
▁subt	-5988
▁Short	-5989
▁sizes	-5990
▁Le	-5991
▁unset	-5992
▁Global	-5993
Interval	-5994
readable	-5995
▁Assumes	-5996
FT	-5997
/01	-5998
▁viol	-5999
Activity	-6000
ACAO	-6001
frame	-6002
▁leaves	-6003
▁chooser	-6004
▁scanner	-6005
▁resolver	-6006
Print	-6007
Member	-6008
▁JTable	-6009
traction	-6010
▁Response	-6011
▁Play	-6012
▁chars	-6013
Fail	-6014
block	-6015
irror	-6016
romos	-6017
Selector	-6018
▁advanced	-6019
bean	-6020
nail	-6021
Bundle	-6022
▁Indicate	-6023
▁"/	-6024
press	-6025
▁They	-6026
Widget	-6027
▁agents	-6028
▁approx	-6029
eep	-6030
▁ide	-6031
Mouse	-6032
▁techn	-6033
▁disposed	-6034
▁ActionListener	-6035
3)	-6036
FS	-6037
MIN	-6038
▁AWT	-6039
▁Der	-6040
mount	-6041
▁brok	-6042
▁begins	-6043
▁quotes	-6044
32	-6045
8.	-6046
▁GET	-6047
▁photo	-6048
▁rowset	-6049
Basic	-6050
▁Comment	-6051
▁scheduler	-6052
)},	-6053
▁OB	-6054
▁beh	-6055
▁black	-6056
▁played	-6057
expression	-6058
▁traversal	-6059
▁programming	-6060
ln	-6061
▁URLs	-6062
Package	-6063
▁escape	-6064
▁imported	-6065
▁searched	-6066
LS	-6067
run	-6068
▁guard	-6069
Profile	-6070
▁Values	-6071
relation	-6072
▁Translates	-6073
PA	-6074
Java	-6075
▁Char	-6076
▁face	-6077
▁accum	-6078
▁reserved	-6079
call	-6080
ferred	-6081
▁Socket	-6082
▁extent	-6083
▁recently	-6084
Ac	-6085
inder	-6086
▁Real	-6087
num	-6088
mail	-6089
rd	-6090
Top	-6091
▁SVG	-6092
▁Package	-6093
▁Releases	-6094
▁bookmark	-6095
ots	-6096
Step	-6097
close	-6098
Policy	-6099
Prefix	-6100
▁movie	-6101
MX	-6102
▁gl	-6103
Long	-6104
osed	-6105
▁RDF	-6106
▁sleep	-6107
▁params	-6108
▁enclosing	-6109
▁extracted	-6110
Co	-6111
we	-6112
▁EX	-6113
Edge	-6114
▁nat	-6115
config	-6116
▁acquire	-6117
Generator	-6118
WL	-6119
▁quality	-6120
▁discover	-6121
▁Therefore	-6122
2001	-6123
▁hyper	-6124
▁article	-6125
▁defining	-6126
▁Increments	-6127
Gr	-6128
▁Shut	-6129
ewhere	-6130
▁Connect	-6131
▁variant	-6132
oo	-6133
menu	-6134
Utils	-6135
clude	-6136
▁Decre	-6137
▁informations	-6138
bedPane	-6139
▁satisfy	-6140
▁shortcut	-6141
▁namespaces	-6142
StateException	-6143
bes	-6144
can	-6145
olid	-6146
▁Est	-6147
▁circle	-6148
▁Pattern	-6149
▁overlap	-6150
aming	-6151
▁skipped	-6152
▁templates	-6153
▁significant	-6154
Body	-6155
▁-->	-6156
▁interpol	-6157
▁declarations	-6158
bc	-6159
▁Info	-6160
▁decide	-6161
dom	-6162
▁mime	-6163
▁caches	-6164
acle	-6165
rain	-6166
▁Ant	-6167
Admin	-6168
error	-6169
▁Pol	-6170
imits	-6171
▁wild	-6172
▁Configure	-6173
icast	-6174
▁alphab	-6175
▁systems	-6176
ationship	-6177
▁keywords	-6178
▁ie	-6179
MENTO	-6180
earch	-6181
▁translate	-6182
▁capabilities	-6183
▁Ge	-6184
2000	-6185
▁UTF	-6186
▁earl	-6187
▁packages	-6188
▁datastore	-6189
Qual	-6190
▁bid	-6191
▁panels	-6192
▁Runtime	-6193
ibr	-6194
http	-6195
▁neur	-6196
select	-6197
unct	-6198
Equal	-6199
seudo	-6200
▁rating	-6201
▁graphic	-6202
▁conventions	-6203
zero	-6204
▁mess	-6205
▁stub	-6206
▁owned	-6207
▁Active	-6208
▁suspend	-6209
▁exchange	-6210
foo	-6211
uit	-6212
oney	-6213
▁Activ	-6214
▁Language	-6215
IST	-6216
ORT	-6217
Null	-6218
▁gate	-6219
system	-6220
▁Module	-6221
▁inline	-6222
▁principal	-6223
DU	-6224
▁Xml	-6225
▁Root	-6226
Identifier	-6227
▁BigDecimal	-6228
▁collections	-6229
Art	-6230
ROR	-6231
iqu	-6232
▁craw	-6233
▁advance	-6234
▁targets	-6235
FIN	-6236
onal	-6237
▁But	-6238
amodel	-6239
▁exits	-6240
▁Increment	-6241
▁modifiers	-6242
ists	-6243
osing	-6244
▁Informs	-6245
▁remains	-6246
SD	-6247
zone	-6248
rient	-6249
▁footer	-6250
▁compiled	-6251
14	-6252
OK	-6253
iform	-6254
▁Join	-6255
▁soon	-6256
▁Clone	-6257
▁offer	-6258
▁strip	-6259
▁datasource	-6260
▁identifies	-6261
nd	-6262
▁da	-6263
cons	-6264
▁among	-6265
▁turned	-6266
andatory	-6267
▁remember	-6268
force	-6269
entication	-6270
▁compression	-6271
▁30	-6272
▁ER	-6273
▁symbols	-6274
▁supposed	-6275
▁Initialise	-6276
CommandParameter	-6277
▁CP	-6278
▁es	-6279
ados	-6280
orph	-6281
▁insertion	-6282
▁associations	-6283
ims	-6284
iving	-6285
▁patch	-6286
▁Lookup	-6287
▁Random	-6288
coordinate	-6289
▁Equivalent	-6290
1]	-6291
rok	-6292
ABLE	-6293
auth	-6294
reet	-6295
▁JMS	-6296
aring	-6297
iagram	-6298
versation	-6299
has	-6300
▁AR	-6301
ends	-6302
▁aux	-6303
▁minim	-6304
▁placeh	-6305
▁Evaluate	-6306
Conn	-6307
names	-6308
▁walk	-6309
embers	-6310
▁numer	-6311
▁online	-6312
▁Relation	-6313
GA	-6314
dat	-6315
real	-6316
▁Network	-6317
▁Prepares	-6318
▁datatype	-6319
▁delivery	-6320
▁reflection	-6321
EY	-6322
where	-6323
nost	-6324
▁ball	-6325
▁half	-6326
abling	-6327
▁Symbol	-6328
DateTime	-6329
▁folders	-6330
XT	-6331
oved	-6332
▁Layer	-6333
property	-6334
▁Windows	-6335
unit	-6336
▁minute	-6337
▁elapsed	-6338
▁painting	-6339
▁smallest	-6340
▁broadcast	-6341
000	-6342
URE	-6343
▁nom	-6344
imated	-6345
▁Equal	-6346
▁jMenu	-6347
▁outer	-6348
▁Sample	-6349
▁Transforms	-6350
Mail	-6351
▁appends	-6352
▁station	-6353
▁recording	-6354
▁converting	-6355
▁committed	-6356
▁iterations	-6357
ony	-6358
Show	-6359
▁repeat	-6360
▁Normally	-6361
▁hibernate	-6362
▁filesystem	-6363
▁transformed	-6364
fs	-6365
Save	-6366
▁OID	-6367
Right	-6368
▁flat	-6369
▁icons	-6370
▁iterate	-6371
▁Renderer	-6372
▁formally	-6373
Des	-6374
avel	-6375
orer	-6376
icates	-6377
points	-6378
▁overall	-6379
▁consists	-6380
▁scenario	-6381
▁spectrum	-6382
▁production	-6383
▁std	-6384
▁family	-6385
▁Business	-6386
▁unsigned	-6387
nemon	-6388
▁aspect	-6389
▁selections	-6390
▁synchronization	-6391
▁Geo	-6392
endor	-6393
range	-6394
tries	-6395
▁ever	-6396
▁Canvas	-6397
▁Matrix	-6398
▁aggregate	-6399
▁assertion	-6400
▁Associates	-6401
ares	-6402
▁MSS	-6403
Literal	-6404
▁phrase	-6405
▁activities	-6406
▁0.0	-6407
orage	-6408
▁review	-6409
Progress	-6410
▁sentence	-6411
▁Attributes	-6412
▁established	-6413
▁holder	-6414
▁conflict	-6415
▁playback	-6416
▁initially	-6417
Email	-6418
▁Modifies	-6419
▁destroyed	-6420
▁necessarily	-6421
AI	-6422
▁Lock	-6423
icator	-6424
▁enumer	-6425
▁Section	-6426
▁dragged	-6427
▁overlay	-6428
clusion	-6429
▁Confirm	-6430
▁ability	-6431
▁secondary	-6432
▁dynamically	-6433
PL	-6434
javax	-6435
▁Media	-6436
DEFAULT	-6437
▁Reload	-6438
▁clipping	-6439
ContentModel	-6440
ts	-6441
▁1-	-6442
Host	-6443
▁pen	-6444
▁args	-6445
▁Track	-6446
▁increase	-6447
▁Accessible	-6448
ici	-6449
▁cr	-6450
Cast	-6451
Sign	-6452
alone	-6453
ariant	-6454
▁raised	-6455
▁floating	-6456
▁Db	-6457
▁bal	-6458
▁dom	-6459
using	-6460
▁forms	-6461
egative	-6462
▁merged	-6463
▁Channel	-6464
▁projects	-6465
▁positioned	-6466
ignment	-6467
▁caption	-6468
▁Throwable	-6469
▁transient	-6470
DER	-6471
▁digit	-6472
========	-6473
▁detailed	-6474
▁Convenient	-6475
EntityManager	-6476
del	-6477
Params	-6478
Binding	-6479
Resolver	-6480
▁bin	-6481
▁encode	-6482
▁releases	-6483
COM	-6484
gan	-6485
▁scop	-6486
▁Resolve	-6487
▁lifecycle	-6488
1][	-6489
▁Turns	-6490
▁trunc	-6491
▁collect	-6492
▁escaped	-6493
▁StringBuffer	-6494
▁appropriately	-6495
DP	-6496
ITY	-6497
▁SW	-6498
▁Sl	-6499
easure	-6500
velope	-6501
▁adjusted	-6502
▁Definition	-6503
▁javascript	-6504
xx	-6505
)==	-6506
Job	-6507
such	-6508
▁unregister	-6509
▁Folder	-6510
Protocol	-6511
▁Refer	-6512
▁pipeline	-6513
▁rollback	-6514
eat	-6515
▁ip	-6516
abor	-6517
▁few	-6518
▁har	-6519
ipher	-6520
values	-6521
▁meant	-6522
▁effective	-6523
JO	-6524
▁atoms	-6525
▁Destroy	-6526
including	-6527
▁Requests	-6528
Wh	-6529
su	-6530
ior	-6531
Draw	-6532
▁deprec	-6533
▁backward	-6534
Kb	-6535
ERE	-6536
▁UP	-6537
▁tit	-6538
▁digest	-6539
▁deleting	-6540
▁cancelled	-6541
18	-6542
▁ring	-6543
▁waits	-6544
▁Character	-6545
▁criterion	-6546
▁incorrect	-6547
▁transitions	-6548
▁dam	-6549
▁tun	-6550
anned	-6551
omial	-6552
▁disconn	-6553
▁heading	-6554
▁checksum	-6555
▁notation	-6556
▁Namespace	-6557
▁management	-6558
DAP	-6559
Expr	-6560
▁dump	-6561
Choice	-6562
▁supply	-6563
ternally	-6564
Composite	-6565
▁classloader	-6566
amb	-6567
}).	-6568
▁CH	-6569
aque	-6570
allow	-6571
aptor	-6572
fully	-6573
itter	-6574
▁Flag	-6575
▁ended	-6576
▁distinct	-6577
co	-6578
▁ms	-6579
imes	-6580
Layer	-6581
▁FIX	-6582
Beans	-6583
▁Rout	-6584
▁priv	-6585
▁menus	-6586
▁detect	-6587
▁printer	-6588
IR	-6589
ico	-6590
▁XSL	-6591
▁Both	-6592
access	-6593
▁datab	-6594
▁trailing	-6595
▁classname	-6596
TIC	-6597
echo	-6598
rics	-6599
▁Iss	-6600
versa	-6601
▁surround	-6602
mt	-6603
ena	-6604
▁MO	-6605
impl	-6606
isher	-6607
▁High	-6608
▁locally	-6609
▁Overwrite	-6610
▁inventory	-6611
▁distributed	-6612
image	-6613
ulary	-6614
▁largest	-6615
▁Transfer	-6616
▁gradient	-6617
▁encapsulated	-6618
bb	-6619
▁desel	-6620
▁knows	-6621
▁optionally	-6622
Cons	-6623
Post	-6624
▁Jav	-6625
serting	-6626
▁molecule	-6627
▁particle	-6628
ddy	-6629
▁minimal	-6630
▁delivered	-6631
▁Tile	-6632
▁come	-6633
▁grow	-6634
▁locks	-6635
▁viewing	-6636
Ag	-6637
▁temp	-6638
▁resized	-6639
▁Composite	-6640
▁Populates	-6641
▁prototype	-6642
roys	-6643
▁Art	-6644
separ	-6645
▁Pops	-6646
ensive	-6647
▁inputs	-6648
▁manner	-6649
▁Account	-6650
▁Operator	-6651
▁accessing	-6652
▁shapes	-6653
▁interceptor	-6654
▁restriction	-6655
cket	-6656
Float	-6657
parse	-6658
▁maintained	-6659
Rece	-6660
erve	-6661
▁adjac	-6662
▁Header	-6663
▁Controls	-6664
▁manifest	-6665
▁Increases	-6666
▁connecting	-6667
Fac	-6668
[],	-6669
▁len	-6670
ffect	-6671
▁Help	-6672
insert	-6673
▁Place	-6674
▁probe	-6675
▁slice	-6676
▁Causes	-6677
itional	-6678
▁nature	-6679
▁measured	-6680
PO	-6681
ansion	-6682
▁tracking	-6683
lem	-6684
▁SM	-6685
▁say	-6686
▁Reader	-6687
▁manage	-6688
▁invisible	-6689
cp	-6690
pli	-6691
Reason	-6692
Boolean	-6693
▁Adding	-6694
ListGrid	-6695
▁scrolling	-6696
▁FOR	-6697
atial	-6698
▁prox	-6699
izable	-6700
▁touch	-6701
persist	-6702
Converter	-6703
▁Extension	-6704
▁age	-6705
▁air	-6706
▁Using	-6707
▁tools	-6708
▁SELECT	-6709
Relation	-6710
sequence	-6711
ocabulary	-6712
CD	-6713
last	-6714
array	-6715
cal	-6716
▁CA	-6717
Files	-6718
▁fetched	-6719
TableModel	-6720
yy	-6721
▁MM	-6722
quis	-6723
▁ejb	-6724
▁degree	-6725
▁Buffered	-6726
▁thumbnail	-6727
▁compressed	-6728
▁deployment	-6729
▁authenticated	-6730
alh	-6731
0000	-6732
▁ach	-6733
▁Inits	-6734
message	-6735
▁resume	-6736
▁Concept	-6737
▁Provide	-6738
▁populated	-6739
Empty	-6740
▁quote	-6741
▁Cancels	-6742
Monitor	-6743
▁assuming	-6744
▁originally	-6745
▁Fin	-6746
ittle	-6747
▁magn	-6748
nemonic	-6749
6)	-6750
▁Fig	-6751
▁Unicode	-6752
▁hostname	-6753
__	-6754
▁BY	-6755
▁MD	-6756
Inst	-6757
ours	-6758
Shape	-6759
▁prim	-6760
Period	-6761
ilename	-6762
▁toggle	-6763
▁PlotChangeEvent	-6764
Use	-6765
▁turns	-6766
IGHT	-6767
child	-6768
▁avail	-6769
▁Finish	-6770
AV	-6771
body	-6772
ming	-6773
▁JDK	-6774
clear	-6775
Lookup	-6776
▁asked	-6777
ne	-6778
▁Html	-6779
▁OpenGL	-6780
▁Public	-6781
▁fitness	-6782
▁assembly	-6783
▁wrapping	-6784
▁collector	-6785
▁qualifier	-6786
▁unspecified	-6787
ii	-6788
safe	-6789
▁Non	-6790
descri	-6791
▁basis	-6792
▁twice	-6793
▁Wrapper	-6794
▁anonymous	-6795
25	-6796
Te	-6797
pus	-6798
ynamic	-6799
Support	-6800
▁Receives	-6801
▁Restores	-6802
▁Subtract	-6803
▁excluded	-6804
▁alternate	-6805
▁reporting	-6806
gl	-6807
INE	-6808
ION	-6809
Pos	-6810
ute	-6811
ieve	-6812
ourn	-6813
▁Cleans	-6814
▁Encodes	-6815
▁leaving	-6816
▁executable	-6817
▁measurement	-6818
beginTransaction	-6819
anner	-6820
input	-6821
▁fatal	-6822
▁pause	-6823
romosome	-6824
▁sibling	-6825
▁textfield	-6826
▁BO	-6827
show	-6828
▁alt	-6829
▁exam	-6830
▁Widget	-6831
;=	-6832
rep	-6833
Coll	-6834
▁Are	-6835
ously	-6836
▁hits	-6837
▁subd	-6838
Screen	-6839
▁encryption	-6840
BE	-6841
za	-6842
byu	-6843
413.	-6844
▁mob	-6845
Login	-6846
Total	-6847
▁Card	-6848
▁Bound	-6849
▁reuse	-6850
▁MET	-6851
▁tail	-6852
▁green	-6853
▁schem	-6854
▁stamp	-6855
Graphics	-6856
Structure	-6857
▁triggers	-6858
▁BigInteger	-6859
▁Identifier	-6860
ACK	-6861
▁LE	-6862
▁Te	-6863
▁WSDL	-6864
▁bars	-6865
▁mock	-6866
▁trust	-6867
▁wraps	-6868
Summary	-6869
content	-6870
▁Records	-6871
Repository	-6872
▁automaton	-6873
▁persisted	-6874
oud	-6875
▁BE	-6876
▁Math	-6877
▁Term	-6878
▁isol	-6879
icense	-6880
parser	-6881
▁limits	-6882
▁highlighted	-6883
abs	-6884
▁Adv	-6885
▁Cap	-6886
▁Book	-6887
▁Drag	-6888
▁cycl	-6889
RowSet	-6890
▁selecting	-6891
▁predefined	-6892
AGE	-6893
▁RO	-6894
▁pathname	-6895
▁uploaded	-6896
▁monitoring	-6897
WN	-6898
Tip	-6899
▁GC	-6900
▁eg	-6901
serv	-6902
▁ALL	-6903
▁bank	-6904
▁Timer	-6905
inality	-6906
▁Pushes	-6907
▁aligned	-6908
▁employee	-6909
▁ignoring	-6910
QU	-6911
▁2,	-6912
▁ONLY	-6913
imited	-6914
▁unsaved	-6915
▁LO	-6916
obox	-6917
▁mesh	-6918
▁impro	-6919
▁minus	-6920
▁published	-6921
▁dispatcher	-6922
ithm	-6923
▁ASCII	-6924
▁mandatory	-6925
▁substitution	-6926
MF	-6927
tf	-6928
NDI	-6929
ners	-6930
▁UID	-6931
▁fills	-6932
actions	-6933
▁firing	-6934
▁affects	-6935
▁Translate	-6936
▁confirmation	-6937
bind	-6938
▁DET	-6939
▁USE	-6940
Price	-6941
▁LDAP	-6942
▁yield	-6943
gorithms	-6944
▁creator	-6945
Character	-6946
context	-6947
▁payment	-6948
▁pointed	-6949
▁uniform	-6950
▁wildcard	-6951
▁operators	-6952
▁deprecated	-6953
▁Recursively	-6954
TL	-6955
ECT	-6956
REF	-6957
stop	-6958
▁UML	-6959
Person	-6960
Comment	-6961
▁tracker	-6962
99	-6963
▁Br	-6964
▁Tb	-6965
TIVE	-6966
step	-6967
▁PRO	-6968
▁conj	-6969
▁perm	-6970
▁util	-6971
mediate	-6972
▁Simply	-6973
ALL	-6974
find	-6975
encing	-6976
▁Every	-6977
▁Queue	-6978
▁markup	-6979
separated	-6980
▁scrollbar	-6981
MODE	-6982
▁expects	-6983
▁Constant	-6984
▁alphabet	-6985
▁inactive	-6986
▁maintain	-6987
▁updateRow	-6988
sn	-6989
▁4.	-6990
Split	-6991
etype	-6992
▁Core	-6993
▁Roll	-6994
button	-6995
▁triple	-6996
▁Outputs	-6997
▁mutable	-6998
▁consumer	-6999
gen	-7000
iler	-7001
▁App	-7002
filter	-7003
▁ports	-7004
▁react	-7005
▁kernel	-7006
DG	-7007
▁25	-7008
ited	-7009
know	-7010
iring	-7011
▁crit	-7012
▁life	-7013
▁finally	-7014
▁finding	-7015
TabbedPane	-7016
▁optimization	-7017
70	-7018
Age	-7019
eek	-7020
ids	-7021
▁peak	-7022
▁shallow	-7023
▁contribut	-7024
▁developer	-7025
▁immediate	-7026
▁jCheckBox	-7027
Notification	-7028
Dem	-7029
▁Publ	-7030
▁hasn	-7031
▁xpath	-7032
▁Virtual	-7033
▁forwarded	-7034
40	-7035
PM	-7036
pag	-7037
▁pan	-7038
▁faster	-7039
▁paused	-7040
Abstract	-7041
Formatter	-7042
▁combined	-7043
▁mot	-7044
Focus	-7045
▁UUID	-7046
▁wall	-7047
▁Force	-7048
getName	-7049
▁Runnable	-7050
▁triangle	-7051
▁administr	-7052
4,	-7053
▁IM	-7054
isys	-7055
Bytes	-7056
query	-7057
▁POST	-7058
▁Child	-7059
▁Mapping	-7060
▁candidate	-7061
▁seq	-7062
▁THIS	-7063
▁altered	-7064
▁vehicle	-7065
▁verifies	-7066
erc	-7067
Move	-7068
ucene	-7069
▁pipe	-7070
loaded	-7071
▁hover	-7072
▁blocked	-7073
▁Synchron	-7074
▁restored	-7075
Av	-7076
],	-7077
ster	-7078
▁Wrap	-7079
▁third	-7080
println	-7081
ulating	-7082
▁longitude	-7083
ulo	-7084
▁CC	-7085
▁Up	-7086
▁pin	-7087
parency	-7088
▁matcher	-7089
▁accesses	-7090
Seq	-7091
()},	-7092
Flag	-7093
▁Bundle	-7094
▁reduce	-7095
▁metrics	-7096
▁activate	-7097
▁coverage	-7098
▁Repository	-7099
▁rectangular	-7100
▁flip	-7101
common	-7102
YPE	-7103
Handle	-7104
ocations	-7105
▁compile	-7106
▁infinite	-7107
▁sections	-7108
▁determining	-7109
ople	-7110
after	-7111
iling	-7112
atively	-7113
▁Dispose	-7114
Principal	-7115
▁baseline	-7116
▁iterates	-7117
▁descending	-7118
▁stylesheet	-7119
uet	-7120
▁tx	-7121
▁Size	-7122
weight	-7123
▁Debug	-7124
▁spring	-7125
Ter	-7126
▁Fr	-7127
LETE	-7128
Pair	-7129
ador	-7130
▁JNDI	-7131
Remove	-7132
▁carri	-7133
▁fresh	-7134
▁Flushes	-7135
▁distinguish	-7136
▁JAR	-7137
ensor	-7138
▁lazy	-7139
google	-7140
▁MSSBam	-7141
▁Toggles	-7142
▁copying	-7143
▁runnable	-7144
▁acceptable	-7145
▁identification	-7146
olic	-7147
▁ens	-7148
Popup	-7149
▁quad	-7150
enames	-7151
▁Resolves	-7152
▁integers	-7153
▁WH	-7154
Drag	-7155
▁Doc	-7156
▁Free	-7157
▁hardware	-7158
▁prefixed	-7159
▁die	-7160
Chart	-7161
▁Ends	-7162
▁seem	-7163
▁think	-7164
▁Engine	-7165
ographic	-7166
▁contexts	-7167
▁parallel	-7168
▁perspective	-7169
jar	-7170
ayes	-7171
▁bey	-7172
▁sun	-7173
▁decoded	-7174
▁Populate	-7175
OUT	-7176
Cred	-7177
Home	-7178
fers	-7179
idad	-7180
▁union	-7181
▁beyond	-7182
▁radians	-7183
▁Connects	-7184
▁Disables	-7185
▁guarantee	-7186
NG	-7187
▁2.0	-7188
▁slow	-7189
uetooth	-7190
▁natural	-7191
▁Download	-7192
▁Identifies	-7193
▁standalone	-7194
▁requirements	-7195
▁authorization	-7196
he	-7197
());	-7198
rink	-7199
▁circ	-7200
▁alive	-7201
▁queued	-7202
▁Installs	-7203
▁knowledge	-7204
):	-7205
▁nl	-7206
Copy	-7207
ouch	-7208
yzer	-7209
▁Actor	-7210
▁Struts	-7211
▁termination	-7212
ai	-7213
Left	-7214
stand	-7215
Points	-7216
▁areas	-7217
▁boxes	-7218
▁sampl	-7219
qualified	-7220
▁Requires	-7221
▁acquired	-7222
▁insertRow	-7223
▁conditional	-7224
HE	-7225
xs	-7226
▁dt	-7227
▁IMP	-7228
▁Host	-7229
▁retr	-7230
schema	-7231
▁Domain	-7232
▁ancestors	-7233
▁modifying	-7234
▁precedence	-7235
Internal	-7236
▁Managed	-7237
▁maximal	-7238
▁latitude	-7239
▁pointing	-7240
ertificate	-7241
▁conversation	-7242
:"	-7243
▁General	-7244
▁opposite	-7245
▁disconnect	-7246
Red	-7247
ili	-7248
aven	-7249
▁infl	-7250
Border	-7251
nl	-7252
▁SC	-7253
inger	-7254
ining	-7255
▁Case	-7256
▁Enter	-7257
▁Hides	-7258
▁charge	-7259
▁packed	-7260
▁sensitive	-7261
yth	-7262
▁CV	-7263
▁Its	-7264
label	-7265
▁blue	-7266
ackets	-7267
▁Google	-7268
▁Parser	-7269
Optional	-7270
▁closure	-7271
▁inserting	-7272
▁providing	-7273
ivot	-7274
types	-7275
▁decom	-7276
▁modes	-7277
▁Device	-7278
▁little	-7279
▁dragging	-7280
▁exported	-7281
▁indexing	-7282
▁responses	-7283
▁millisecond	-7284
Gu	-7285
▁boot	-7286
▁wheel	-7287
▁Before	-7288
▁sector	-7289
▁illegal	-7290
dimension	-7291
Bit	-7292
Sec	-7293
▁Tri	-7294
Month	-7295
▁severity	-7296
▁retrieval	-7297
Flow	-7298
pable	-7299
trace	-7300
havior	-7301
▁Alert	-7302
▁enters	-7303
▁lazily	-7304
Background	-7305
▁discovery	-7306
▁downloaded	-7307
▁computation	-7308
mi	-7309
ety	-7310
mode	-7311
▁Exit	-7312
▁redo	-7313
▁Navig	-7314
▁asset	-7315
▁listing	-7316
▁potential	-7317
▁expiration	-7318
)"	-7319
Var	-7320
dir	-7321
▁Area	-7322
▁focused	-7323
▁neither	-7324
▁shouldn	-7325
22	-7326
area	-7327
▁deriv	-7328
▁hosts	-7329
▁bucket	-7330
▁mirror	-7331
▁naming	-7332
▁existence	-7333
xsd	-7334
(...)	-7335
atern	-7336
bjects	-7337
▁FIXME	-7338
Constraint	-7339
▁encrypted	-7340
▁JComponent	-7341
Main	-7342
emant	-7343
title	-7344
eclare	-7345
▁Shuts	-7346
▁keeps	-7347
▁Logger	-7348
▁pretty	-7349
▁increases	-7350
initialized	-7351
▁Validation	-7352
▁interrupted	-7353
▁jRadioButton	-7354
uck	-7355
▁Acc	-7356
▁Body	-7357
▁axes	-7358
▁Proxy	-7359
▁Counts	-7360
▁asynchronously	-7361
34	-7362
Db	-7363
▁fxl	-7364
energy	-7365
▁grant	-7366
▁music	-7367
▁Vertex	-7368
▁Restore	-7369
▁estimate	-7370
▁concurrent	-7371
ns	-7372
ipp	-7373
▁Nodes	-7374
▁dummy	-7375
▁Wizard	-7376
▁observ	-7377
draw	-7378
result	-7379
▁Audio	-7380
▁Usually	-7381
▁clearing	-7382
▁occurrences	-7383
▁precondition	-7384
▁Ign	-7385
Finish	-7386
atable	-7387
▁Special	-7388
EO	-7389
acc	-7390
Dest	-7391
esis	-7392
▁pull	-7393
fields	-7394
height	-7395
▁Right	-7396
▁atomic	-7397
▁partner	-7398
▁regions	-7399
▁student	-7400
ClassName	-7401
▁Metadata	-7402
▁postback	-7403
▁Subsequent	-7404
RI	-7405
dec	-7406
▁di	-7407
▁fig	-7408
Attach	-7409
▁quest	-7410
▁slash	-7411
▁Forces	-7412
▁explan	-7413
CastException	-7414
END	-7415
ada	-7416
color	-7417
▁Tuple	-7418
▁years	-7419
Non	-7420
One	-7421
▁NaN	-7422
▁Retr	-7423
▁Elements	-7424
SF	-7425
aker	-7426
▁sink	-7427
Patient	-7428
▁chance	-7429
▁Customer	-7430
▁evaluates	-7431
▁AL	-7432
Stat	-7433
ibel	-7434
▁math	-7435
gregate	-7436
▁Writer	-7437
▁recognized	-7438
▁effectively	-7439
Da	-7440
▁0)	-7441
Drop	-7442
panel	-7443
▁idea	-7444
nostic	-7445
▁issues	-7446
▁answers	-7447
▁clicking	-7448
▁silently	-7449
▁Permission	-7450
▁configurations	-7451
DOS	-7452
▁COM	-7453
▁facet	-7454
ulative	-7455
▁mapper	-7456
Annotation	-7457
ART	-7458
▁00	-7459
▁Word	-7460
▁easy	-7461
search	-7462
project	-7463
▁tabbed	-7464
▁markers	-7465
att	-7466
url	-7467
▁",	-7468
▁OWL	-7469
ializer	-7470
▁insets	-7471
▁anymore	-7472
▁ignores	-7473
▁intervals	-7474
▁invocations	-7475
My	-7476
Limit	-7477
aches	-7478
match	-7479
▁gray	-7480
▁describe	-7481
▁succeeds	-7482
▁customize	-7483
31	-7484
PEG	-7485
▁jump	-7486
▁stock	-7487
▁neuron	-7488
▁earlier	-7489
ResultSet	-7490
▁exponent	-7491
initialize	-7492
▁delegated	-7493
▁expressed	-7494
▁placeholder	-7495
ACE	-7496
Rate	-7497
agram	-7498
eness	-7499
isions	-7500
▁exclude	-7501
▁randomly	-7502
▁validates	-7503
4)	-7504
Found	-7505
▁star	-7506
Weight	-7507
▁trees	-7508
▁depart	-7509
▁Similar	-7510
▁accuracy	-7511
▁Fail	-7512
▁Most	-7513
▁Passes	-7514
▁unn	-7515
ookie	-7516
status	-7517
▁voice	-7518
▁giving	-7519
▁safely	-7520
▁unused	-7521
atically	-7522
▁Respond	-7523
▁Argument	-7524
▁Shutdown	-7525
▁learning	-7526
▁publication	-7527
gs	-7528
LOB	-7529
irth	-7530
tool	-7531
Driver	-7532
▁Waits	-7533
▁fonts	-7534
▁Member	-7535
CG	-7536
pe	-7537
Atom	-7538
wner	-7539
Close	-7540
▁echo	-7541
▁land	-7542
▁specifications	-7543
(1	-7544
lets	-7545
orna	-7546
▁energy	-7547
▁traver	-7548
▁Accesses	-7549
▁histogram	-7550
ras	-7551
OutOf	-7552
ipment	-7553
▁spell	-7554
Criteria	-7555
▁limited	-7556
▁jComboBox	-7557
▁descendants	-7558
Msg	-7559
now	-7560
Delete	-7561
Return	-7562
Symbol	-7563
anging	-7564
▁decode	-7565
hashCode	-7566
▁deviation	-7567
ees	-7568
ios	-7569
uer	-7570
▁URIs	-7571
▁meet	-7572
▁reused	-7573
▁backwards	-7574
TM	-7575
Xml	-7576
oes	-7577
▁buddy	-7578
execute	-7579
▁daemon	-7580
▁spread	-7581
▁widths	-7582
▁respective	-7583
▁transparent	-7584
Web	-7585
Stop	-7586
root	-7587
▁bag	-7588
▁stra	-7589
Packet	-7590
▁DETAL	-7591
Tracker	-7592
▁integr	-7593
aternion	-7594
▁outputs	-7595
▁}.	-7596
queue	-7597
▁Take	-7598
Locale	-7599
▁Stack	-7600
HAMENTO	-7601
▁Binary	-7602
▁Forward	-7603
▁predict	-7604
▁centered	-7605
▁potentially	-7606
▁DETALHAMENTO	-7607
YS	-7608
cat	-7609
Plan	-7610
post	-7611
ausing	-7612
▁bitmap	-7613
Metadata	-7614
▁capture	-7615
▁company	-7616
▁portlet	-7617
▁Criteria	-7618
▁Initialises	-7619
iding	-7620
▁Cast	-7621
▁Prot	-7622
render	-7623
History	-7624
ickness	-7625
▁graphs	-7626
pointment	-7627
▁allocate	-7628
▁allocation	-7629
▁instantiation	-7630
har	-7631
▁17	-7632
Oper	-7633
ecore	-7634
▁gain	-7635
▁uniqu	-7636
ARCH	-7637
▁Cms	-7638
▁aware	-7639
▁synth	-7640
▁Cursor	-7641
Complete	-7642
▁routing	-7643
ARY	-7644
Rows	-7645
ading	-7646
elibel	-7647
isting	-7648
▁forces	-7649
smartqvt	-7650
▁produces	-7651
▁establish	-7652
▁Annotation	-7653
▁containment	-7654
zip	-7655
▁oct	-7656
ridge	-7657
ecture	-7658
▁owning	-7659
▁univers	-7660
▁mnemonic	-7661
▁throwable	-7662
-)	-7663
irc	-7664
copy	-7665
Reply	-7666
icket	-7667
▁owns	-7668
▁Begin	-7669
▁QName	-7670
section	-7671
▁JPanel	-7672
anguages	-7673
▁Profile	-7674
▁Directory	-7675
▁algorithms	-7676
▁membership	-7677
▁observation	-7678
▁classification	-7679
inv	-7680
mid	-7681
▁AT	-7682
▁css	-7683
thread	-7684
▁ticket	-7685
▁scripts	-7686
▁signals	-7687
▁combobox	-7688
▁recalcul	-7689
▁printable	-7690
07	-7691
AG	-7692
▁Pay	-7693
▁Pri	-7694
▁Loop	-7695
▁Altern	-7696
contains	-7697
▁cookies	-7698
▁straight	-7699
me	-7700
igo	-7701
Head	-7702
unity	-7703
▁JDOM	-7704
▁aren	-7705
▁sugg	-7706
orders	-7707
ynomial	-7708
▁orders	-7709
▁presses	-7710
▁prefixes	-7711
▁detection	-7712
met	-7713
msf	-7714
▁US	-7715
▁GPS	-7716
Failed	-7717
▁imports	-7718
▁rounded	-7719
::	-7720
hand	-7721
▁attr	-7722
control	-7723
request	-7724
without	-7725
Messages	-7726
perature	-7727
▁javadoc	-7728
▁prepend	-7729
▁proceed	-7730
▁renders	-7731
▁adjacent	-7732
CC	-7733
erg	-7734
▁>=	-7735
fort	-7736
▁hot	-7737
iases	-7738
▁lies	-7739
▁Inform	-7740
Components	-7741
oordinates	-7742
▁Persistence	-7743
▁correlation	-7744
NE	-7745
SO	-7746
()'	-7747
AST	-7748
▁why	-7749
▁Else	-7750
▁Dataset	-7751
▁density	-7752
self	-7753
▁Sprite	-7754
Callback	-7755
▁Catalog	-7756
▁getValue	-7757
err	-7758
Multi	-7759
ombre	-7760
prise	-7761
▁Comb	-7762
▁deck	-7763
▁ping	-7764
▁spot	-7765
ashion	-7766
▁Range	-7767
▁stdout	-7768
Duration	-7769
dao	-7770
uns	-7771
▁1:	-7772
SERT	-7773
▁Net	-7774
▁ell	-7775
▁oid	-7776
phone	-7777
▁dock	-7778
▁ster	-7779
▁rename	-7780
getValue	-7781
Auto	-7782
cache	-7783
idence	-7784
▁Issue	-7785
▁heart	-7786
▁study	-7787
structs	-7788
▁rotate	-7789
▁databases	-7790
▁Components	-7791
▁duplicates	-7792
▁submission	-7793
▁descriptions	-7794
7)	-7795
▁ACL	-7796
▁Cor	-7797
▁TCP	-7798
ucing	-7799
▁symm	-7800
Editing	-7801
Distance	-7802
ervation	-7803
▁Support	-7804
▁covered	-7805
▁clusters	-7806
▁strictly	-7807
Dictionary	-7808
connection	-7809
OB	-7810
UC	-7811
ze	-7812
▁prov	-7813
Amount	-7814
▁quoted	-7815
▁splash	-7816
available	-7817
▁testcase	-7818
▁indirectly	-7819
El	-7820
LAY	-7821
▁pad	-7822
icker	-7823
Encoding	-7824
▁differs	-7825
▁fashion	-7826
▁Actually	-7827
▁External	-7828
DC	-7829
ica	-7830
VENT	-7831
▁(0,	-7832
▁FWT	-7833
▁Pdf	-7834
▁ticks	-7835
▁Primary	-7836
▁Trigger	-7837
attribute	-7838
▁decision	-7839
▁Comparable	-7840
▁vocabulary	-7841
CUR	-7842
Deleg	-7843
return	-7844
▁Chart	-7845
▁products	-7846
▁JSONObject	-7847
▁transparency	-7848
5)	-7849
isk	-7850
vol	-7851
ablish	-7852
etimes	-7853
▁seper	-7854
disable	-7855
▁Actions	-7856
▁Literal	-7857
Connector	-7858
▁Progress	-7859
▁bytecode	-7860
▁modifies	-7861
▁expensive	-7862
▁nodeToken	-7863
▁HttpServlet	-7864
SA	-7865
▁ED	-7866
hood	-7867
ising	-7868
▁busy	-7869
▁motion	-7870
▁Clients	-7871
apon	-7872
Short	-7873
▁plat	-7874
Associ	-7875
▁paper	-7876
▁Common	-7877
▁consumed	-7878
▁entering	-7879
▁responsibility	-7880
TC	-7881
▁CM	-7882
onom	-7883
antity	-7884
▁slots	-7885
▁enclosed	-7886
▁involved	-7887
▁containers	-7888
\',	-7889
▁Tem	-7890
eless	-7891
haves	-7892
▁Cent	-7893
▁TYPE	-7894
Factor	-7895
▁Total	-7896
▁manual	-7897
▁Subject	-7898
▁deactiv	-7899
▁mission	-7900
▁requirement	-7901
▁IDL	-7902
output	-7903
Subject	-7904
▁secure	-7905
extension	-7906
▁estimated	-7907
▁identifying	-7908
▁deserialization	-7909
PK	-7910
)))	-7911
KEY	-7912
STR	-7913
uples	-7914
Vertex	-7915
domain	-7916
▁introd	-7917
Direction	-7918
▁Multiple	-7919
▁Describes	-7920
▁callbacks	-7921
▁neighbors	-7922
▁capability	-7923
▁visualization	-7924
AB	-7925
mo	-7926
▁dash	-7927
▁getS	-7928
▁quit	-7929
▁strong	-7930
Modified	-7931
ployment	-7932
▁residue	-7933
▁informed	-7934
CESS	-7935
cular	-7936
▁Pred	-7937
▁Contin	-7938
DataType	-7939
▁although	-7940
▁simulator	-7941
▁Unregisters	-7942
BUG	-7943
TIME	-7944
Paint	-7945
▁Popup	-7946
▁Split	-7947
▁hides	-7948
umulative	-7949
▁delimited	-7950
▁statistic	-7951
ampa	-7952
noun	-7953
ptim	-7954
wrap	-7955
▁cmd	-7956
▁Flow	-7957
Strategy	-7958
▁hyperlink	-7959
▁Disconnect	-7960
▁indication	-7961
▁consistency	-7962
jp	-7963
▁IB	-7964
▁cp	-7965
▁mis	-7966
ieved	-7967
▁swap	-7968
plicity	-7969
▁Policy	-7970
▁listens	-7971
components	-7972
13	-7973
EM	-7974
cr	-7975
sv	-7976
sdl	-7977
▁"-	-7978
eder	-7979
ello	-7980
vest	-7981
▁Aff	-7982
▁Pur	-7983
▁Sup	-7984
Score	-7985
tests	-7986
▁geom	-7987
NSString	-7988
inations	-7989
DOM	-7990
▁ui	-7991
▁Seq	-7992
ufact	-7993
▁Next	-7994
▁CDATA	-7995
▁Toggle	-7996
▁vendor	-7997
▁Retorna	-7998
Qualifier	-7999
▁examples	-8000
OutOfBounds	-8001
▁individuals	-8002
AND	-8003
QUI	-8004
▁imp	-8005
▁Mail	-8006
Memory	-8007
▁months	-8008
bobjects	-8009
▁capable	-8010
▁rounding	-8011
▁manipulate	-8012
▁2)	-8013
Game	-8014
math	-8015
olders	-8016
Counter	-8017
▁broken	-8018
▁pieces	-8019
▁sequent	-8020
▁Destroys	-8021
▁situation	-8022
Relationship	-8023
WS	-8024
INT	-8025
LASS	-8026
words	-8027
▁Last	-8028
▁Oper	-8029
▁Figure	-8030
▁elimin	-8031
▁Monitor	-8032
reference	-8033
▁keystore	-8034
IENT	-8035
site	-8036
▁emit	-8037
▁Click	-8038
display	-8039
ecessary	-8040
function	-8041
Tem	-8042
▁AP	-8043
acts	-8044
▁treat	-8045
▁Extended	-8046
▁Iterates	-8047
Preferences	-8048
▁intersects	-8049
EventListener	-8050
▁highlighting	-8051
HOD	-8052
eval	-8053
▁CSV	-8054
▁xsd	-8055
ournal	-8056
▁Users	-8057
▁guess	-8058
▁exiting	-8059
▁collapsed	-8060
▁expansion	-8061
▁increasing	-8062
▁disconnected	-8063
cho	-8064
▁(8	-8065
echa	-8066
oles	-8067
xsbc	-8068
▁EOF	-8069
ipart	-8070
▁dial	-8071
▁frag	-8072
▁recover	-8073
▁Protocol	-8074
▁marshall	-8075
▁attempting	-8076
▁ClassLoader	-8077
▁restrictions	-8078
ATH	-8079
xmsf	-8080
▁FTP	-8081
After	-8082
reset	-8083
Mapper	-8084
▁please	-8085
Language	-8086
TreeNode	-8087
▁verbose	-8088
▁Expected	-8089
▁setValue	-8090
SET	-8091
▁Hide	-8092
Logger	-8093
▁Blocks	-8094
▁adaptor	-8095
▁overflow	-8096
Environment	-8097
ANG	-8098
src	-8099
▁CL	-8100
▁[]	-8101
▁Box	-8102
Trace	-8103
▁	-8104
e	-8105
t	-8106
i	-8107
s	-8108
a	-8109
o	-8110
n	-8111
r	-8112
h	-8113
l	-8114
d	-8115
c	-8116
u	-8117
f	-8118
m	-8119
p	-8120
.	-8121
g	-8122
b	-8123
y	-8124
v	-8125
w	-8126
S	-8127
T	-8128
R	-8129
k	-8130
C	-8131
x	-8132
,	-8133
I	-8134
A	-8135
D	-8136
j	-8137
G	-8138
P	-8139
(	-8140
)	-8141
M	-8142
E	-8143
O	-8144
L	-8145
-	-8146
'	-8147
N	-8148
z	-8149
F	-8150
q	-8151
{	-8152
}	-8153
U	-8154
B	-8155
@	-8156
"	-8157
:	-8158
1	-8159
0	-8160
H	-8161
W	-8162
V	-8163
_	-8164
2	-8165
#	-8166
;	-8167
/	-8168
J	-8169
X	-8170
=	-8171
3	-8172
Q	-8173
&	-8174
K	-8175
4	-8176
Y	-8177
5	-8178
\	-8179
[	-8180
]	-8181
6	-8182
?	-8183
8	-8184
9	-8185
7	-8186
>	-8187
!	-8188
