<unk>	0
<s>	0
</s>	0
\n	0
\t	0
e	-1.53199
.	-3.19726
(	-3.50337
▁	-3.52949
,	-4.01622
)	-4.05167
}	-4.12247
▁{	-4.17182
▁=	-4.24802
);	-4.40308
▁(	-4.50851
r	-4.57725
s	-4.58673
_	-4.61637
;	-4.79906
if	-4.98365
return	-5.12579
get	-5.23543
▁new	-5.30803
▁null	-5.36088
<	-5.36133
();	-5.40277
String	-5.50734
>	-5.55719
//	-5.57635
d	-5.61587
▁public	-5.63131
("	-5.64018
▁"	-5.67606
▁+	-5.71926
()	-5.74644
Exception	-5.82181
▁==	-5.90892
\	-6.02896
▁String	-6.08857
▁the	-6.1299
().	-6.15277
i	-6.1671
final	-6.1727
int	-6.18256
:	-6.2088
())	-6.20999
Type	-6.21962
▁!=	-6.25023
▁void	-6.25571
u	-6.26223
set	-6.2766
Name	-6.31469
m	-6.36752
▁to	-6.39683
());	-6.39747
▁}	-6.39811
(),	-6.39954
{	-6.42279
",	-6.43085
▁i	-6.43834
this	-6.44949
[	-6.45567
▁static	-6.46452
List	-6.51308
▁get	-6.52173
Id	-6.53811
for	-6.53922
throw	-6.55973
add	-6.5773
");	-6.58275
T	-6.59231
▁if	-6.60555
▁else	-6.60705
▁:	-6.65161
new	-6.6996
▁this	-6.70328
is	-6.70722
▁@	-6.7081
[]	-6.74254
▁is	-6.75763
▁&&	-6.76613
▁{\	-6.7691
c	-6.77476
ing	-6.77803
))	-6.7882
▁<	-6.7917
▁int	-6.80105
length	-6.80337
S	-6.82288
a	-6.82296
▁a	-6.82957
try	-6.8487
public	-6.86394
x	-6.88308
t	-6.88551
);\	-6.91127
Map	-6.9148
▁throws	-6.91636
append	-6.92355
Override	-6.93079
2	-6.93348
));	-6.93696
n	-6.94668
Value	-6.96478
Object	-6.9681
Request	-6.98034
▁final	-7.01891
▁catch	-7.01999
Class	-7.02402
File	-7.03387
"	-7.04379
b	-7.04876
f	-7.05896
'	-7.10894
▁-	-7.11099
▁value	-7.13408
-	-7.13696
▁private	-7.15174
p	-7.16498
Data	-7.17071
class	-7.1802
▁0;	-7.18118
Node	-7.19816
1	-7.20494
To	-7.20953
▁//	-7.2226
}\	-7.22629
/	-7.23228
▁m	-7.23846
▁false	-7.23865
▁in	-7.26537
name	-7.28159
;\	-7.2914
▁*	-7.29515
Path	-7.29587
▁boolean	-7.29858
Context	-7.3049
]	-7.31121
▁true	-7.31608
Index	-7.31616
D	-7.32336
Info	-7.33474
Key	-7.33658
▁for	-7.34209
put	-7.34967
case	-7.35228
size	-7.36125
R	-7.36492
▁(!	-7.37502
▁return	-7.37509
▁not	-7.38298
▁0)	-7.38677
g	-7.38711
y	-7.39355
v	-7.39712
Set	-7.39967
▁result	-7.4053
C	-7.40788
▁Object	-7.41664
equals	-7.43541
value	-7.44488
▁||	-7.44571
A	-7.446
▁of	-7.45832
id	-7.49654
toString	-7.51693
otocolMarshaller	-7.51991
▁name	-7.53276
F	-7.54836
in	-7.55562
B	-7.55636
▁0	-7.55671
E	-7.56332
L	-7.56669
ID	-7.56684
▁p	-7.5703
P	-7.58176
▁?	-7.59464
result	-7.59477
o	-7.5956
X	-7.59734
I	-7.60802
Element	-7.63313
key	-7.63611
▁IOException	-7.64748
Size	-7.65012
▁c	-7.65437
pr	-7.65517
▁type	-7.65536
Entry	-7.65666
▁and	-7.65893
type	-7.65897
▁set	-7.65953
▁request	-7.66323
▁b	-7.66395
Config	-7.67903
++)	-7.68749
Message	-7.68997
Result	-7.6923
▁List	-7.69335
▁be	-7.7027
request	-7.70585
l	-7.70931
▁key	-7.71537
▁instanceof	-7.71571
▁create	-7.7183
out	-7.72741
Field	-7.73035
▁>	-7.73296
4	-7.73342
Builder	-7.74169
log	-7.74477
3	-7.74821
else	-7.75172
create	-7.75293
null	-7.76609
Factory	-7.77054
@	-7.77875
getName	-7.78173
Count	-7.79195
break	-7.79355
able	-7.79459
State	-7.81686
k	-7.82627
h	-7.83011
0	-7.83873
▁s	-7.84008
Response	-7.84072
M	-7.84531
▁it	-7.85267
to	-7.85483
j	-7.864
marshall	-7.86911
Resource	-7.86917
Manager	-7.87503
▁on	-7.87789
Service	-7.886
Event	-7.88855
Method	-7.89262
+	-7.89355
>>	-7.89655
=	-7.89782
w	-7.89917
();\	-7.90728
Handler	-7.927
▁data	-7.92721
▁t	-7.92814
on	-7.93487
▁we	-7.93576
long	-7.93616
BINDING	-7.93849
data	-7.94084
Time	-7.94165
")	-7.9419
double	-7.95117
debug	-7.9548
write	-7.95655
G	-7.95724
al	-7.9597
In	-7.96263
V	-7.97749
Item	-7.98114
Error	-7.98308
▁n	-7.98927
Property	-7.99242
▁file	-7.99508
Utils	-7.99628
Group	-7.99705
▁path	-8.00143
▁protected	-8.00295
System	-8.01116
▁response	-8.02017
▁from	-8.02511
Configuration	-8.03086
▁list	-8.03123
boolean	-8.03829
▁r	-8.04116
next	-8.05023
▁T	-8.05225
K	-8.05256
▁IllegalArgument	-8.05361
From	-8.05735
it	-8.05737
▁with	-8.05758
▁add	-8.06464
tc	-8.06983
index	-8.0755
▁index	-8.07938
5	-8.08408
▁!	-8.0867
With	-8.0906
Y	-8.09817
byte	-8.10079
Model	-8.1036
N	-8.10547
▁ArrayList	-8.1082
error	-8.11252
while	-8.11718
];	-8.11778
Stream	-8.11891
▁start	-8.12198
logger	-8.13478
Array	-8.13879
▁x	-8.14035
isEmpty	-8.14571
▁j	-8.14602
Async	-8.14799
Table	-8.14945
Code	-8.1524
Query	-8.1534
remove	-8.16093
Instance	-8.17132
8	-8.17392
H	-8.17479
Util	-8.17529
▁d	-8.17714
▁marshall	-8.18176
Status	-8.18367
W	-8.18633
▁node	-8.18705
▁double	-8.18916
or	-8.18974
For	-8.20079
Filter	-8.20111
path	-8.20234
View	-8.20297
ServiceResponse	-8.20472
getMessage	-8.20854
▁long	-8.21523
start	-8.2225
Parameter	-8.22956
current	-8.23083
Impl	-8.23727
Client	-8.24351
Integer	-8.25043
Text	-8.25959
Cache	-8.2596
Token	-8.26112
map	-8.26722
getValue	-8.27231
▁current	-8.27484
Page	-8.27625
list	-8.28183
read	-8.28588
Level	-8.28858
Connection	-8.28895
▁'	-8.2898
▁+=	-8.2919
O	-8.29422
▁f	-8.29933
node	-8.29958
NAME	-8.30269
▁tc	-8.30377
ation	-8.30693
Length	-8.30773
Inner	-8.3081
info	-8.30851
file	-8.31356
▁context	-8.3149
Date	-8.31573
▁byte	-8.31881
Properties	-8.3251
▁File	-8.3269
Of	-8.33027
<?>	-8.33039
▁that	-8.33082
st	-8.33109
Enabled	-8.33262
Session	-8.33498
format	-8.33622
On	-8.33921
▁>=	-8.34163
Source	-8.34312
▁extends	-8.34826
ar	-8.35303
Listener	-8.3531
U	-8.35518
{\	-8.35656
▁input	-8.35784
Buffer	-8.35805
Log	-8.35814
"))	-8.36389
Task	-8.3642
Url	-8.3651
User	-8.37307
LOG	-8.37355
▁end	-8.37419
▁method	-8.37973
▁entry	-8.37975
Entity	-8.39096
▁read	-8.39361
▁max	-8.39671
Line	-8.39728
Constants	-8.39786
Collection	-8.39803
true	-8.39882
at	-8.40076
Expression	-8.40307
▁resource	-8.40399
▁message	-8.40486
▁check	-8.40497
And	-8.40956
Attribute	-8.41616
▁v	-8.42628
as	-8.42744
";	-8.43052
entry	-8.43127
Number	-8.43348
*	-8.43429
Point	-8.43521
Version	-8.43958
▁ex	-8.44012
line	-8.44035
▁throw	-8.44185
▁as	-8.44207
▁target	-8.44867
ly	-8.44871
▁field	-8.44897
▁I	-8.45129
▁->	-8.45372
▁Map	-8.45583
Cms	-8.45598
J	-8.45758
Iterator	-8.45944
TYPE	-8.45992
throws	-8.46225
Start	-8.46328
substring	-8.46554
close	-8.46557
str	-8.46628
▁0,	-8.46911
Options	-8.47198
Bean	-8.47834
▁id	-8.47879
Tag	-8.48227
.");	-8.48614
max	-8.49004
▁out	-8.4946
)\	-8.49465
z	-8.4988
▁&	-8.50191
▁Class	-8.50193
Provider	-8.50229
▁1)	-8.50288
▁Integer	-8.50455
field	-8.50608
Long	-8.50622
Or	-8.51088
client	-8.51845
Writer	-8.51898
build	-8.52184
context	-8.5245
buffer	-8.52637
Image	-8.53072
▁/	-8.53073
input	-8.53294
ingEnabled	-8.53314
Content	-8.53399
▁o	-8.53417
sb	-8.53492
println	-8.53686
Action	-8.54592
isAnyTrac	-8.54705
Offset	-8.54737
Header	-8.54749
state	-8.54905
Bytes	-8.5586
▁SdkClient	-8.56521
▁local	-8.56905
()))	-8.56968
7	-8.5714
Tree	-8.57154
URI	-8.5735
Reader	-8.57448
▁%	-8.57448
▁1	-8.57698
Address	-8.57862
▁1;	-8.57908
TraceComponent	-8.58018
Base	-8.58165
ch	-8.58459
▁are	-8.58512
By	-8.58524
check	-8.58579
▁source	-8.58602
▁case	-8.58832
▁all	-8.59485
Dir	-8.59648
>();	-8.59794
▁an	-8.59858
pos	-8.60295
▁object	-8.60894
Job	-8.6093
6	-8.61148
Reference	-8.61496
URL	-8.61625
end	-8.62065
Column	-8.62073
▁or	-8.62234
▁y	-8.62262
java	-8.62639
1,	-8.62773
▁<=	-8.62791
Record	-8.62818
Invalid	-8.63034
?	-8.63043
contains	-8.63197
▁has	-8.63348
update	-8.63463
InputStream	-8.63706
()));	-8.63901
▁size	-8.63911
▁do	-8.64515
min	-8.64535
▁w	-8.64624
Rule	-8.65023
Tr	-8.65324
▁first	-8.65355
Function	-8.65365
response	-8.65387
Update	-8.65693
▁call	-8.66085
Position	-8.66103
▁service	-8.66173
Mode	-8.66371
has	-8.66586
getClass	-8.66772
resource	-8.66852
▁str	-8.66864
Server	-8.67032
<?	-8.67155
Channel	-8.6733
q	-8.67459
Input	-8.67646
▁next	-8.67885
Descriptor	-8.67887
▁update	-8.67935
Component	-8.68549
▁map	-8.69045
Block	-8.6924
Format	-8.69322
Container	-8.696
ic	-8.69639
▁parent	-8.69734
catch	-8.69993
▁h	-8.70177
<>();	-8.70211
▁pr	-8.70272
IOException	-8.70563
▁find	-8.70611
▁S	-8.70646
stream	-8.70665
Helper	-8.70779
End	-8.71004
Definition	-8.71142
source	-8.71142
ion	-8.71181
message	-8.71295
event	-8.71336
Package	-8.71355
Values	-8.71377
val	-8.71774
▁l	-8.72359
▁buffer	-8.72595
Ref	-8.72762
Target	-8.73021
util	-8.73032
Template	-8.73062
target	-8.73094
▁Math	-8.73586
Double	-8.73691
isEntry	-8.74083
▁class	-8.74121
Metadata	-8.7421
Row	-8.74256
config	-8.74539
Types	-8.74611
default	-8.74866
▁java	-8.75161
...	-8.75299
com	-8.75304
Store	-8.75693
Local	-8.76081
query	-8.7616
▁offset	-8.7641
▁have	-8.76411
service	-8.76617
▁super	-8.76671
Str	-8.76907
un	-8.77255
▁user	-8.77497
Get	-8.77548
RuntimeException	-8.77635
▁state	-8.77661
Pattern	-8.78005
Range	-8.78103
Location	-8.78233
▁element	-8.78509
▁no	-8.78842
Names	-8.7896
▁length	-8.79118
Output	-8.79175
switch	-8.79416
Callback	-8.79421
▁config	-8.79553
getKey	-8.79581
++;	-8.79672
▁sb	-8.79743
iv	-8.79772
▁query	-8.80142
▁parse	-8.80454
].	-8.80557
Command	-8.80606
Parser	-8.80773
msg	-8.8098
▁k	-8.81162
KEY	-8.81293
Pos	-8.81634
▁A	-8.81867
Param	-8.82069
buf	-8.82405
▁sub	-8.82465
builder	-8.82519
Int	-8.8257
text	-8.82661
esourceGroupName	-8.82663
ED	-8.82707
▁last	-8.82729
▁count	-8.83146
LOGGER	-8.83179
▁event	-8.83323
Unable	-8.83334
Link	-8.83381
▁must	-8.83473
method	-8.83708
an	-8.83837
▁url	-8.84603
▁*/	-8.84636
▁Observable	-8.84974
▁obj	-8.84998
▁write	-8.85236
▁can	-8.85332
Document	-8.85869
Parameters	-8.85951
▁Exception	-8.86029
Char	-8.8608
exit	-8.86273
▁|	-8.86319
Queue	-8.86394
Params	-8.8644
ad	-8.86805
valueOf	-8.86964
Thread	-8.87348
SuppressWarnings	-8.87475
▁StringBuilder	-8.87605
getType	-8.87789
Sub	-8.87795
▁error	-8.88158
Call	-8.88206
▁C	-8.88308
last	-8.88367
parent	-8.88562
▁values	-8.88782
▁E	-8.88858
▁array	-8.88905
Option	-8.88914
▁by	-8.88976
▁log	-8.89109
false	-8.89119
float	-8.89165
▁default	-8.89207
hasNext	-8.89474
Z	-8.89758
All	-8.89835
Messages	-8.9034
group	-8.90421
▁V	-8.90432
▁finally	-8.90505
Operation	-8.90663
code	-8.91003
1.	-8.9125
Lock	-8.9131
▁so	-8.91332
<>(	-8.91417
count	-8.9205
▁time	-8.92072
url	-8.92089
Annotation	-8.92333
values	-8.92456
IN	-8.92481
▁found	-8.92694
filter	-8.92711
isDebugEnabled	-8.92856
iterator	-8.92881
Def	-8.92976
▁output	-8.93106
user	-8.93467
Access	-8.9353
▁session	-8.9353
OutputStream	-8.93626
▁remove	-8.93689
▁R	-8.93698
session	-8.94044
im	-8.94069
Read	-8.94242
of	-8.94257
table	-8.94413
body	-8.94642
▁filter	-8.94803
char	-8.94808
obj	-8.94838
▁un	-8.94977
▁exception	-8.94999
▁property	-8.94999
▁args	-8.95015
▁argument	-8.95161
▁line	-8.95218
Un	-8.95328
Label	-8.95425
No	-8.95464
▁content	-8.95799
RE	-8.95907
▁min	-8.95988
do	-8.96166
(0,	-8.96371
As	-8.96401
parse	-8.96478
▁com	-8.96858
Transaction	-8.96897
▁old	-8.97116
");\	-8.97426
▁System	-8.97527
▁other	-8.9755
Uri	-8.97632
ER	-8.97672
▁string	-8.97824
/*	-8.97931
ns	-8.97931
VALUE	-8.97969
▁text	-8.97979
▁use	-8.98321
Pool	-8.98426
▁row	-8.98511
Policy	-8.98539
Style	-8.99021
());\	-8.99282
▁before	-8.99554
Order	-8.99579
▁client	-8.99604
▁cannot	-8.99898
▁will	-8.99987
time	-9.00336
Registry	-9.00393
▁JSON	-9.00526
from	-9.00553
with	-9.00932
delete	-9.00944
Spec	-9.00982
StringBuilder	-9.01009
Json	-9.01315
▁table	-9.01739
num	-9.01786
output	-9.01793
Default	-9.01839
clear	-9.02146
lock	-9.02384
getProperty	-9.02819
Scope	-9.02979
▁should	-9.03334
object	-9.0343
Attributes	-9.03442
charAt	-9.03467
offset	-9.03495
▁HashMap	-9.03559
Mapping	-9.03568
indexOf	-9.03576
getInstance	-9.0379
▁len	-9.0381
▁num	-9.04707
▁If	-9.04754
Variable	-9.04859
Boolean	-9.04874
▁ret	-9.05044
Settings	-9.05678
%	-9.05725
▁J	-9.05753
▁builder	-9.0587
getId	-9.05897
Doc	-9.05941
64	-9.05956
ac	-9.06009
▁item	-9.06248
EClass	-9.06831
Statement	-9.06861
[0]	-9.06868
Color	-9.06934
ip	-9.0707
="	-9.07189
Not	-9.07197
base	-9.07328
Project	-9.07413
▁instance	-9.07529
Directory	-9.07532
writer	-9.0788
Root	-9.07982
continue	-9.0825
▁connection	-9.08382
▁stream	-9.08385
▁Set	-9.08526
Prefix	-9.08647
ING	-9.08684
Match	-9.09115
Width	-9.09215
sub	-9.09295
▁Pr	-9.09672
super	-9.10125
item	-9.10232
){	-9.10298
row	-9.10363
▁params	-9.10595
warn	-9.10618
nt	-9.10627
os	-9.1081
Application	-9.10835
xml	-9.10838
▁Long	-9.10859
Wrapper	-9.112
Future	-9.11208
Out	-9.11288
Throwable	-9.1132
▁src	-9.11472
▁root	-9.11617
First	-9.1172
▁job	-9.11799
▁only	-9.11817
us	-9.11926
▁base	-9.12142
Fields	-9.12512
element	-9.12566
▁at	-9.12844
Module	-9.12953
▁1);	-9.13508
Vector	-9.13685
▁cache	-9.13861
▁was	-9.13941
▁token	-9.14162
model	-9.1456
Feature	-9.14708
▁msg	-9.14871
init	-9.14876
▁passed	-9.14936
Unit	-9.15057
New	-9.15111
▁delete	-9.15218
▁format	-9.15249
▁parameters	-9.15324
Description	-9.15374
▁task	-9.15749
ArrayList	-9.15797
no	-9.15902
▁Boolean	-9.1593
Q	-9.16304
Ids	-9.16364
▁required	-9.16453
▁code	-9.16636
first	-9.1674
Proxy	-9.17025
Http	-9.17062
Segment	-9.17131
addAll	-9.17131
unchecked	-9.17181
position	-9.17199
Schema	-9.17328
assert	-9.1739
startsWith	-9.17631
▁process	-9.18067
content	-9.18165
local	-9.18576
print	-9.18596
array	-9.18945
&&	-9.19037
Execution	-9.19235
▁pos	-9.19281
Var	-9.19367
The	-9.19371
Calendar	-9.195
ret	-9.19728
Port	-9.19731
10	-9.19787
Create	-9.20033
At	-9.20148
http	-9.20195
2.	-9.20387
▁IllegalState	-9.20443
ll	-9.20478
ity	-9.20657
▁column	-9.20954
▁properties	-9.21129
▁build	-9.21178
▁clazz	-9.2118
▁B	-9.21248
Check	-9.21277
split	-9.21367
▁2	-9.2149
find	-9.21492
Host	-9.21706
trim	-9.218
Cluster	-9.21817
Keys	-9.22103
XML	-9.2211
Next	-9.2248
▁execute	-9.22542
ag	-9.22635
\\"	-9.2265
App	-9.22936
trace	-9.23045
"));	-9.23074
▁g	-9.2309
root	-9.23145
entity	-9.23213
tag	-9.23293
ter	-9.23303
2,	-9.23345
Write	-9.23395
Child	-9.23511
synchronized	-9.23567
2)	-9.23747
++	-9.23807
Pair	-9.2387
string	-9.23964
||	-9.24027
▁child	-9.2406
Button	-9.24243
Nullable	-9.24302
▁entity	-9.24305
Byte	-9.2442
▁Double	-9.24652
▁-1)	-9.24721
Internal	-9.24892
connection	-9.24921
task	-9.25322
Len	-9.25473
▁synchronized	-9.2558
▁version	-9.25767
▁load	-9.25779
op	-9.25966
▁number	-9.26104
▁handle	-9.26342
▁Cms	-9.26449
(...)"	-9.26467
Bundle	-9.26533
▁group	-9.26533
old	-9.26557
Failed	-9.26569
Layout	-9.26811
org	-9.26832
token	-9.2686
Search	-9.26885
▁already	-9.26966
▁while	-9.26976
th	-9.27249
LA	-9.27423
▁bytes	-9.27607
▁float	-9.28133
io	-9.28409
load	-9.28465
▁try	-9.28577
9	-9.28631
all	-9.28836
Stack	-9.2886
ol	-9.29078
len	-9.29091
Logger	-9.29132
Part	-9.2914
").	-9.29255
(0);	-9.29272
containsKey	-9.29358
Interface	-9.29487
▁model	-9.29814
DB	-9.29999
▁run	-9.30002
Consumer	-9.30262
▁block	-9.30392
sql	-9.30447
Certificate	-9.30599
OR	-9.30802
Val	-9.30862
32	-9.30977
▁D	-9.31223
▁need	-9.31224
cache	-9.31265
instance	-9.31411
Timeout	-9.31463
▁P	-9.31618
il	-9.3164
Meta	-9.31648
==	-9.31653
Extension	-9.32167
up	-9.3226
execute	-9.32355
am	-9.32451
Hash	-9.32489
json	-9.32678
src	-9.32862
▁but	-9.32956
ERROR	-9.33125
Body	-9.33158
Delete	-9.33547
Sequence	-9.33901
property	-9.33913
Max	-9.34083
Handle	-9.34371
▁date	-9.34399
args	-9.34672
Cell	-9.34678
Identifier	-9.34759
▁char	-9.34939
30	-9.34961
▁{}",	-9.34972
▁-1;	-9.34998
▁page	-9.3525
[1]	-9.35281
AL	-9.35308
Matcher	-9.35609
DEFAULT	-9.35676
Null	-9.35876
▁parameter	-9.36002
If	-9.36182
process	-9.36386
▁json	-9.36412
▁image	-9.3643
Graph	-9.367
action	-9.3688
Add	-9.36891
view	-9.36983
Api	-9.3714
▁don	-9.37173
Window	-9.37857
>()	-9.38314
▁The	-9.38326
▁header	-9.38346
Last	-9.3842
));\	-9.38422
ot	-9.38424
▁param	-9.38432
▁tag	-9.38461
entrySet	-9.38769
INSTANCE	-9.38873
job	-9.38898
▁Collection	-9.38906
(@	-9.38917
Endpoint	-9.39034
Converter	-9.39081
sRequest	-9.39332
Is	-9.39339
param	-9.39358
Batch	-9.3963
Processor	-9.39756
ator	-9.39757
Change	-9.39814
Num	-9.39901
Optional	-9.40084
Files	-9.40231
params	-9.40394
db	-9.40407
properties	-9.40658
UN	-9.40699
validate	-9.40725
Nonnull	-9.40743
Obj	-9.40857
!	-9.40872
▁X	-9.40964
▁any	-9.41229
fs	-9.41347
SI	-9.41365
Msg	-9.41423
Adapter	-9.41451
width	-9.4153
register	-9.41571
▁record	-9.41595
server	-9.4169
▁<<	-9.41967
Device	-9.42024
Notification	-9.42474
replace	-9.42533
▁bean	-9.42588
channel	-9.42711
Chain	-9.42805
match	-9.4296
Frame	-9.43118
ok	-9.43264
11	-9.43363
sh	-9.43393
date	-9.43395
ment	-9.4342
Height	-9.4348
app	-9.43634
▁options	-9.43755
Member	-9.43833
av	-9.43879
lang	-9.43968
▁buf	-9.44141
▁res	-9.443
Form	-9.44407
ClassName	-9.44424
Process	-9.44437
Generator	-9.44439
Matrix	-9.44472
Control	-9.44757
UTF	-9.4476
Character	-9.44932
Space	-9.44938
_0	-9.44984
▁arg	-9.44991
▁col	-9.45187
Interval	-9.45278
child	-9.45299
sTo	-9.45447
▁server	-9.45626
▁copy	-9.4565
▁match	-9.45817
Parent	-9.45835
Script	-9.45911
Account	-9.45994
ap	-9.46412
▁\	-9.46748
ref	-9.46765
store	-9.46897
▁'"	-9.46954
▁F	-9.47302
▁uri	-9.47346
equalsIgnoreCase	-9.47368
li	-9.47391
Abstract	-9.47433
SIZE	-9.47552
label	-9.47631
▁attribute	-9.47805
▁configuration	-9.47837
Metric	-9.47937
protected	-9.48234
ClassLoader	-9.48392
00	-9.48434
▁empty	-9.48438
Non	-9.48462
version	-9.48568
Socket	-9.49044
▁val	-9.49157
Pre	-9.49334
▁tmp	-9.49577
Storage	-9.49647
Left	-9.49829
::	-9.49839
▁thread	-9.499
▁status	-9.5016
▁right	-9.50186
▁ch	-9.50326
▁W	-9.50509
internal	-9.50657
bl	-9.50815
status	-9.5087
▁rule	-9.50908
Copy	-9.50967
page	-9.50994
arg	-9.51047
▁q	-9.51076
rderByComparator	-9.51287
▁Date	-9.51292
▁position	-9.5135
▁then	-9.51438
clazz	-9.51447
getString	-9.51544
NO	-9.51726
api	-9.51801
Java	-9.51869
▁Optional	-9.5193
Resources	-9.51987
20	-9.52137
MAX	-9.52305
▁up	-9.52402
header	-9.52434
Headers	-9.52443
point	-9.52527
record	-9.52544
Symbol	-9.52582
Counter	-9.52611
▁This	-9.52794
tree	-9.53105
container	-9.53464
Partition	-9.53543
call	-9.5363
Enum	-9.53781
uc	-9.53825
▁N	-9.53887
SQL	-9.53954
uri	-9.53971
▁handler	-9.54009
▁listener	-9.54111
and	-9.54148
Namespace	-9.5421
▁reader	-9.54266
ant	-9.54467
("\	-9.54684
link	-9.54702
Folder	-9.54706
Engine	-9.54743
Domain	-9.54766
▁temp	-9.54836
Holder	-9.54883
▁there	-9.54955
▁left	-9.54974
Open	-9.55002
Min	-9.55384
col	-9.55413
".	-9.55457
▁M	-9.55457
Destination	-9.55525
▁search	-9.55599
Profile	-9.55763
idx	-9.55885
JSON	-9.55967
▁init	-9.55967
resources	-9.55986
\\\\	-9.56062
CP	-9.56175
16	-9.56369
Select	-9.56492
Box	-9.5687
SibTr	-9.56969
rule	-9.56978
Condition	-9.57047
send	-9.57101
bean	-9.57198
▁Get	-9.5721
Math	-9.57291
Database	-9.57356
exception	-9.57366
TO	-9.57379
▁component	-9.5747
▁pattern	-9.57509
▁app	-9.57516
▁send	-9.57739
Current	-9.57747
▁make	-9.579
▁writer	-9.57985
project	-9.58047
column	-9.58139
Flow	-9.58187
matcher	-9.58226
▁1,	-9.58401
Summary	-9.58536
Post	-9.58547
Term	-9.58591
GET	-9.58599
▁view	-9.58651
ct	-9.58658
▁H	-9.58704
Op	-9.58721
left	-9.58795
copy	-9.58901
▁Node	-9.59026
Validation	-9.59045
▁non	-9.59108
NonNull	-9.59152
Db	-9.59253
▁when	-9.59296
Repository	-9.59297
▁L	-9.59654
Executor	-9.59673
▁prefix	-9.5975
▁now	-9.59792
▁action	-9.59902
bytes	-9.6002
▁host	-9.60153
Report	-9.60331
Auth	-9.60347
Role	-9.60413
▁project	-9.60531
Limit	-9.60565
▁close	-9.60626
DATA	-9.60695
host	-9.61055
Password	-9.61132
Web	-9.61167
Locale	-9.61209
Xml	-9.613
▁ref	-9.61381
Dialog	-9.61394
Step	-9.61592
Args	-9.61733
Elements	-9.61931
▁order	-9.62078
Protocol	-9.62445
Word	-9.62588
]);	-9.6264
Sql	-9.62705
LE	-9.62803
block	-9.62826
53	-9.62841
▁been	-9.62952
▁does	-9.63028
Panel	-9.63254
other	-9.63305
▁convert	-9.63549
▁SibTr	-9.63694
IC	-9.63715
getResource	-9.63797
handle	-9.63866
tmp	-9.63885
Return	-9.63941
getField	-9.63942
++]	-9.64103
▁lock	-9.64288
▁point	-9.64352
IS	-9.64409
▁Func	-9.64559
Argument	-9.64748
image	-9.64812
options	-9.64847
Timestamp	-9.6492
ob	-9.64956
▁container	-9.65003
Resolver	-9.65035
Route	-9.65066
not	-9.65252
▁HashSet	-9.65276
')	-9.65284
▁info	-9.6534
cl	-9.65351
Tags	-9.65396
doc	-9.6543
(!	-9.6546
Nodes	-9.65578
invoke	-9.6567
SET	-9.65729
exists	-9.65734
▁width	-9.65765
1<	-9.65806
Plugin	-9.65872
dest	-9.65983
2);	-9.66024
Signature	-9.66189
CLASS	-9.66204
▁z	-9.66337
▁command	-9.66368
▁0);	-9.66389
Security	-9.6667
box	-9.66727
NOT	-9.66867
▁valid	-9.6688
reader	-9.6701
Custom	-9.67085
apply	-9.67104
req	-9.67154
)));	-9.67234
▁G	-9.6737
Generic	-9.67472
Desc	-9.67476
▁break	-9.67503
Strategy	-9.6755
newInstance	-9.67607
▁"";	-9.67901
getPath	-9.67941
Work	-9.67954
Duration	-9.68136
Html	-9.68165
getDefault	-9.68376
Short	-9.68738
Activity	-9.6891
▁resources	-9.68917
Idx	-9.69141
net	-9.69188
Memory	-9.69266
cp	-9.69273
FILE	-9.69315
IO	-9.69559
mo	-9.69729
$	-9.69742
ig	-9.69851
the	-9.69854
getParent	-9.6993
▁"+	-9.69953
▁which	-9.69975
▁channel	-9.70019
dir	-9.70047
▁than	-9.70047
ms	-9.70259
Multi	-9.70395
▁callback	-9.70434
▁3	-9.70473
▁after	-9.70488
Empty	-9.70499
#	-9.70538
listener	-9.70557
res	-9.70634
▁range	-9.70761
Constant	-9.70818
component	-9.70822
Operator	-9.70849
Ifc	-9.70855
ps	-9.70933
om	-9.70964
getAttribute	-9.71001
ary	-9.71012
▁URL	-9.71347
▁dest	-9.71489
EL	-9.71542
sum	-9.71545
Items	-9.71568
ul	-9.71643
Entries	-9.72002
12	-9.72139
▁sql	-9.72155
▁Collections	-9.72159
iter	-9.7227
ro	-9.72343
Geometry	-9.72361
DE	-9.72366
port	-9.72408
▁scope	-9.72431
Case	-9.7248
▁here	-9.72506
configuration	-9.72787
Region	-9.72833
StringUtils	-9.72858
Void	-9.73011
END	-9.73108
Permission	-9.73112
over	-9.73167
Remote	-9.7317
printStackTrace	-9.7332
run	-9.7335
err	-9.73385
TAG	-9.73584
act	-9.73642
▁function	-9.73964
Only	-9.74071
Run	-9.74115
Relation	-9.74158
empty	-9.74442
[])	-9.74678
Float	-9.74739
ay	-9.74743
attr	-9.7476
Topic	-9.74771
▁2)	-9.74772
round	-9.7498
NON	-9.75019
TIME	-9.75065
toArray	-9.75067
getCurrent	-9.75068
attribute	-9.75137
par	-9.75149
keySet	-9.75226
notNull	-9.75373
ver	-9.75414
ak	-9.75532
=0;	-9.75546
ST	-9.75565
lo	-9.75592
Right	-9.75646
▁SQLException	-9.75654
ClientExecution	-9.75718
Close	-9.75796
Edge	-9.7589
UUID	-9.75992
▁++	-9.76101
▁port	-9.76267
Details	-9.76358
▁may	-9.76486
Screen	-9.76497
policy	-9.76519
▁resolve	-9.76544
parameter	-9.76666
▁generate	-9.7682
Predicate	-9.76906
alt	-9.76958
▁cl	-9.76987
▁http	-9.77126
▁iter	-9.77181
Constraint	-9.77194
▁work	-9.77209
Failure	-9.77213
NotNull	-9.77219
binding	-9.77435
Columns	-9.77483
▁-1	-9.77506
▁Create	-9.7754
▁template	-9.77741
▁total	-9.77818
Expr	-9.77921
▁reference	-9.77923
01	-9.77986
][	-9.78018
MetaData	-9.78037
▁ServiceFuture	-9.78068
Could	-9.78218
Groups	-9.78339
':	-9.78341
ab	-9.78475
MIN	-9.78515
ting	-9.78613
Layer	-9.78759
ta	-9.78821
Network	-9.78832
sort	-9.78848
Font	-9.79198
Import	-9.7921
right	-9.79264
handler	-9.79354
Common	-9.79365
Loader	-9.79409
Classes	-9.79444
ating	-9.79467
▁annotation	-9.79516
Controller	-9.7965
uff	-9.79857
Single	-9.79889
var	-9.79906
Progress	-9.80003
▁original	-9.80061
://	-9.80078
▁height	-9.80102
▁attributes	-9.80392
▁"'	-9.804
▁because	-9.80423
▁document	-9.8045
▁TODO	-9.80506
1)	-9.80602
Servlet	-9.80685
(1);	-9.80742
▁1]	-9.80817
Site	-9.80829
▁Type	-9.80838
Environment	-9.80853
Day	-9.81016
cms	-9.81097
Binding	-9.81116
report	-9.81351
▁location	-9.81373
ut	-9.81383
Bucket	-9.81385
▁cluster	-9.81392
AR	-9.81397
temp	-9.8146
failed	-9.8161
!=	-9.81703
▁skip	-9.81726
▁10	-9.81739
prefix	-9.81762
conf	-9.81793
cur	-9.81822
▁split	-9.81897
ts	-9.81901
▁expected	-9.81942
Validator	-9.81954
use	-9.81973
ho	-9.82143
urrentTimeMillis	-9.82253
Simple	-9.8229
Arrays	-9.82312
▁expression	-9.82348
Serializer	-9.82396
+"	-9.82418
Snapshot	-9.82432
▁same	-9.82433
ance	-9.82619
ize	-9.82627
Mapper	-9.82714
Widget	-9.82717
open	-9.82824
Atom	-9.82851
Artifact	-9.83028
DateTime	-9.83108
--	-9.83116
▁className	-9.83275
▁methodName	-9.8328
Commerce	-9.83344
hi	-9.83354
▁into	-9.83364
ATION	-9.83379
transform	-9.83409
▁just	-9.83421
Valid	-9.83537
▁factory	-9.83587
[2]	-9.83849
join	-9.83869
[0];	-9.83906
Vertex	-9.83918
▁link	-9.84021
▁part	-9.84051
▁fields	-9.84165
Tile	-9.84219
▁O	-9.84266
0,	-9.84647
UI	-9.84691
Span	-9.84694
PROPERTY	-9.84723
Objects	-9.84772
gen	-9.848
main	-9.84842
select	-9.84929
Cannot	-9.85047
Trace	-9.85168
▁address	-9.85212
▁doc	-9.85363
qu	-9.85379
convert	-9.85475
1);	-9.85495
▁failed	-9.85498
Stats	-9.85525
stop	-9.85569
Encoding	-9.85715
ack	-9.85741
getData	-9.85753
Tuple	-9.85766
ring	-9.85845
encode	-9.85856
▁schema	-9.86158
push	-9.86189
ping	-9.86237
Prop	-9.86292
▁st	-9.86377
matches	-9.86396
▁Json	-9.86407
▁previous	-9.86529
command	-9.86532
AN	-9.86547
▁transform	-9.86626
finally	-9.86632
ized	-9.86648
ALL	-9.8675
▁store	-9.86913
Build	-9.86916
▁Http	-9.86961
Subscription	-9.87124
Millis	-9.87189
▁directory	-9.87245
▁limit	-9.87273
Uuid	-9.87283
▁level	-9.87296
Binary	-9.87445
parseInt	-9.87454
Alias	-9.87526
lat	-9.8757
▁more	-9.87591
ial	-9.87685
enc	-9.87739
INT	-9.87746
Results	-9.87776
post	-9.87866
featureID	-9.87903
▁AfplibPackage	-9.87911
START	-9.87938
FIELD	-9.87986
Chunk	-9.88011
cs	-9.88362
▁test	-9.88398
▁open	-9.8845
▁We	-9.88478
VERSION	-9.88506
])	-9.8852
checkNotNull	-9.88604
Authentication	-9.88605
Information	-9.88606
▁comp	-9.88624
▁extract	-9.88679
▁used	-9.88721
St	-9.88808
Active	-9.88855
▁timeout	-9.8886
▁bundle	-9.88978
asList	-9.89023
▁req	-9.89157
PATH	-9.89331
Required	-9.89397
google	-9.89405
Selector	-9.89468
▁ignore	-9.89519
/{	-9.89529
insert	-9.89532
Remove	-9.89551
total	-9.89582
Constructor	-9.8965
▁module	-9.89732
Bar	-9.89776
Runtime	-9.89822
Metrics	-9.89834
▁"/	-9.89836
▁prop	-9.89841
▁body	-9.89848
Dis	-9.89855
65	-9.89942
Bounds	-9.9
Icon	-9.90006
▁hash	-9.90012
ws	-9.90083
Scale	-9.90213
(1)	-9.90269
18	-9.90326
▁con	-9.90327
amazonaws	-9.90364
endsWith	-9.90435
mp	-9.90533
rate	-9.90603
generate	-9.90696
annotation	-9.9077
Menu	-9.90868
Attr	-9.909
NS	-9.90924
Display	-9.90943
Global	-9.91041
stack	-9.91044
▁dir	-9.91057
Category	-9.91253
▁db	-9.9128
▁K	-9.91369
HashMap	-9.91481
toLowerCase	-9.91585
Ex	-9.91619
EN	-9.91648
▁label	-9.91649
Join	-9.91668
back	-9.91798
ated	-9.9187
Arg	-9.91925
arraycopy	-9.91988
▁ctx	-9.92033
Usage	-9.92125
Identity	-9.92146
▁resp	-9.92304
--;	-9.92306
▁transaction	-9.92435
Agent	-9.92458
▁include	-9.92476
NLS	-9.92488
ted	-9.9262
getLocal	-9.9277
Monitor	-9.92854
▁"/"	-9.92856
resolve	-9.92864
SE	-9.9287
▁begin	-9.92873
accept	-9.92894
parameters	-9.929
-1	-9.9322
▁No	-9.93252
Test	-9.93273
History	-9.93292
Load	-9.93441
Cookie	-9.93448
NotFound	-9.93638
ByteBuffer	-9.93672
Split	-9.93711
▁destination	-9.93762
▁idx	-9.93821
address	-9.93865
Distance	-9.93869
Support	-9.93919
co	-9.93922
search	-9.93998
▁register	-9.94024
▁elements	-9.94041
Auto	-9.94183
getSimpleName	-9.94209
Transformer	-9.94277
▁Check	-9.94461
▁Method	-9.94562
getBytes	-9.94641
▁option	-9.94708
SdkInternal	-9.94739
namespace	-9.94814
location	-9.94818
▁provider	-9.94828
ifc	-9.94835
script	-9.94835
▁validate	-9.94849
▁4	-9.94996
Declaration	-9.95186
▁iterator	-9.9519
>>>	-9.95206
Product	-9.9524
bb	-9.95336
Comparator	-9.95407
getTime	-9.95468
▁back	-9.95472
:"	-9.95508
AT	-9.95517
Props	-9.95659
Detail	-9.95747
height	-9.95748
order	-9.95904
STRING	-9.95936
OK	-9.95957
▁InputStream	-9.95966
Kind	-9.96016
▁op	-9.96088
ON	-9.96122
Changed	-9.96466
▁Page	-9.96474
reset	-9.96548
Found	-9.96614
▁files	-9.96627
Co	-9.96641
style	-9.96641
flush	-9.9669
Period	-9.96875
head	-9.9703
abs	-9.9703
▁var	-9.97168
sp	-9.972
▁each	-9.97348
Managed	-9.9748
ls	-9.9749
Owner	-9.97644
ff	-9.97654
▁results	-9.97758
nitro	-9.97826
ies	-9.97838
▁defaultValue	-9.97968
con	-9.98208
className	-9.98222
rows	-9.98429
ME	-9.98554
|	-9.98561
Available	-9.9862
Methods	-9.98621
Per	-9.98713
▁unit	-9.98733
Zone	-9.98765
red	-9.98801
DataSource	-9.98806
Res	-9.98884
6\	-9.99236
html	-9.99249
Plan	-9.9925
After	-9.99254
ES	-9.99352
Media	-9.99504
Month	-9.99586
CR	-9.99665
API	-9.99688
level	-9.99699
24	-9.99775
draw	-9.99806
▁ele	-9.99864
▁application	-9.99873
rec	-9.99887
Preconditions	-9.99949
▁decode	-10.0016
Listeners	-10.0018
▁merge	-10.0032
po	-10.004
ill	-10.0051
▁operation	-10.0051
Wait	-10.0055
▁atom	-10.0056
limit	-10.0061
isAssignableFrom	-10.0062
Formatter	-10.0074
ng	-10.0079
▁Resource	-10.0085
▁using	-10.0099
pl	-10.0104
Bits	-10.011
template	-10.0111
Title	-10.012
schema	-10.0131
▁password	-10.0134
parser	-10.0141
▁ID	-10.0153
IP	-10.0157
▁compute	-10.0162
▁cause	-10.0168
▁extension	-10.0175
Arguments	-10.018
pattern	-10.0184
▁queue	-10.0187
Dependency	-10.0192
PER	-10.0194
▁Stream	-10.02
Rel	-10.0205
hash	-10.0206
private	-10.0207
Score	-10.0212
Core	-10.0219
FileName	-10.0227
Up	-10.0244
▁props	-10.0247
IF	-10.0252
Language	-10.0255
Rate	-10.0261
getNode	-10.027
IT	-10.029
▁off	-10.0296
Sort	-10.0301
visit	-10.0307
▁//$	-10.0312
Comment	-10.0315
▁keys	-10.0319
number	-10.0336
▁metadata	-10.0338
▁partition	-10.0339
getUser	-10.0341
impl	-10.0374
ast	-10.0402
Slot	-10.0422
USER	-10.0428
▁Arrays	-10.0436
Iterable	-10.0446
ctx	-10.0446
▁Message	-10.0448
Gr	-10.045
Conf	-10.0457
▁save	-10.046
Col	-10.0462
Year	-10.048
Fragment	-10.0483
let	-10.0486
Stop	-10.0496
qPath	-10.0499
system	-10.0509
!");	-10.0514
form	-10.0519
▁stop	-10.053
▁LOG	-10.0533
single	-10.0535
application	-10.0538
POST	-10.0546
commerce	-10.0548
Pointer	-10.055
[]{	-10.0556
▁change	-10.056
PREFIX	-10.0565
▁findBy	-10.0577
df	-10.0578
ENT	-10.059
▁insert	-10.0592
:\	-10.0597
HttpRequest	-10.0602
<?>>	-10.0611
Use	-10.0612
UP	-10.0622
queue	-10.0623
ele	-10.0628
setValue	-10.0636
Scan	-10.0648
OP	-10.0648
▁statement	-10.0649
▁attr	-10.0653
▁Invalid	-10.066
getText	-10.0668
▁full	-10.0677
Super	-10.069
▁/*	-10.0699
▁encoding	-10.0702
fa	-10.0705
Principal	-10.0714
▁Data	-10.0719
getMethod	-10.0722
▁available	-10.0723
MESSAGE	-10.0732
setProperty	-10.0732
Top	-10.0733
▁URI	-10.0749
5\	-10.075
▁collection	-10.0764
Bit	-10.0769
▁member	-10.0772
Immutable	-10.0777
collect	-10.0782
▁future	-10.0796
validator	-10.0801
cal	-10.0808
Sign	-10.081
member	-10.0813
FS	-10.0819
atom	-10.0826
OF	-10.0829
▁existing	-10.0844
EMPTY	-10.0847
▁Not	-10.0851
test	-10.0851
Capacity	-10.0853
CmsResource	-10.0856
Export	-10.0859
▁Abstract	-10.086
Tokens	-10.0867
▁sure	-10.0896
],	-10.0909
compareTo	-10.0916
getNext	-10.0921
▁tree	-10.0925
External	-10.0929
▁Response	-10.0936
▁Field	-10.0946
Annotations	-10.0947
TABLE	-10.0948
document	-10.0949
▁report	-10.0963
ByteArray	-10.0965
▁dst	-10.0966
▁raw	-10.0966
conn	-10.0971
▁over	-10.0974
prop	-10.0974
short	-10.0975
Specification	-10.0978
DAY	-10.0985
active	-10.0991
▁stack	-10.0991
requireNonNull	-10.1
21	-10.1007
Subject	-10.1012
52	-10.1012
▁2;	-10.1035
Edit	-10.1036
▁StringBuffer	-10.1039
space	-10.1044
LINE	-10.1056
▁serviceName	-10.1056
Modifier	-10.1058
day	-10.1062
▁mapping	-10.1066
per	-10.1085
This	-10.1099
Con	-10.1105
▁system	-10.1111
▁specified	-10.113
Weight	-10.1133
▁namespace	-10.1136
▁replace	-10.1144
Sp	-10.1146
compiler	-10.1151
▁logger	-10.1164
off	-10.1168
▁types	-10.1169
▁0.0	-10.1175
install	-10.1183
Attachment	-10.1191
Collections	-10.1195
▁Throwable	-10.1197
processor	-10.1203
CODE	-10.1204
AS	-10.1204
SSL	-10.1217
cc	-10.1226
Factor	-10.1235
mi	-10.1251
Worker	-10.1255
13	-10.1259
Section	-10.1261
51	-10.1265
decode	-10.1265
▁encode	-10.1266
tp	-10.1276
Literal	-10.1285
Driver	-10.129
Grid	-10.13
▁access	-10.1311
thread	-10.132
bit	-10.1325
-1$	-10.1326
▁feature	-10.133
axis	-10.1332
Collector	-10.1337
');	-10.1347
warning	-10.1354
Shape	-10.1355
Render	-10.1367
clone	-10.1378
range	-10.1382
pool	-10.1387
▁xml	-10.1397
any	-10.1401
▁since	-10.1406
scale	-10.1415
pt	-10.1417
JS	-10.1425
unit	-10.143
9\	-10.1436
prev	-10.1437
found	-10.1437
▁-=	-10.1442
▁initialize	-10.1444
save	-10.1444
types	-10.1446
cluster	-10.1452
Ad	-10.1452
Deprecated	-10.1454
▁Add	-10.1467
LENGTH	-10.1476
Upload	-10.1476
▁segment	-10.1478
make	-10.1493
disable	-10.1494
tx	-10.15
▁main	-10.1513
sFor	-10.1514
▁org	-10.152
word	-10.1525
▁DEFAULT	-10.1527
▁pool	-10.1528
▁scale	-10.1533
▁matcher	-10.1534
Rest	-10.1535
connect	-10.1537
title	-10.1541
▁where	-10.1541
ResultSet	-10.1544
▁apply	-10.1553
▁parser	-10.1564
80	-10.1569
▁Path	-10.1582
comp	-10.1595
HttpServlet	-10.1615
AND	-10.162
begin	-10.1634
22	-10.1635
getAbsolutePath	-10.1636
▁top	-10.1636
Events	-10.1636
Selection	-10.1636
Missing	-10.1643
FOLLOW	-10.1645
Credentials	-10.1655
DATE	-10.1661
Children	-10.1669
define	-10.1674
▁Thread	-10.1674
ix	-10.1687
nd	-10.1693
CH	-10.1701
SS	-10.1705
▁cur	-10.1712
getContext	-10.1715
▁U	-10.1716
▁term	-10.172
▁Default	-10.1723
Put	-10.173
▁short	-10.1738
Complete	-10.1742
"),	-10.1742
getX	-10.1754
color	-10.1756
▁sequence	-10.1756
▁>>>	-10.176
Interceptor	-10.1761
Full	-10.1762
forEach	-10.1764
":	-10.1766
TOKEN	-10.1778
Interrupted	-10.178
Variables	-10.1784
▁>>	-10.1784
bind	-10.1786
Trigger	-10.1788
fc	-10.1792
Present	-10.1795
ibm	-10.1807
skip	-10.1813
▁NoSuch	-10.1815
Can	-10.1815
Sync	-10.1816
getRequest	-10.1817
unlock	-10.1818
xff	-10.1818
Unique	-10.1821
▁nodes	-10.183
Archive	-10.1831
fill	-10.1835
▁XML	-10.1837
TypeName	-10.1839
▁second	-10.1855
scope	-10.1864
Supplier	-10.1865
xFF	-10.1877
Assignment	-10.1896
Back	-10.1897
ia	-10.1898
▁put	-10.1899
▁step	-10.1899
module	-10.1902
Transform	-10.1905
ative	-10.1909
segment	-10.1912
tion	-10.1919
▁1.0	-10.1926
device	-10.1927
READ	-10.1936
▁Constants	-10.1944
initialize	-10.1945
▁Vector	-10.195
bo	-10.1951
▁some	-10.1962
[][]	-10.1969
▁actual	-10.1971
▁conf	-10.1971
▁per	-10.1972
▁loop	-10.1973
▁could	-10.1989
▁sort	-10.199
▁variable	-10.2005
▁["	-10.2007
env	-10.2008
Paths	-10.2009
Print	-10.2012
bundle	-10.2024
cd	-10.2026
▁fileName	-10.2034
merge	-10.2035
graph	-10.2037
▁word	-10.2046
edit	-10.2047
Intent	-10.2055
getColumn	-10.2061
▁5	-10.2069
compile	-10.2083
▁initial	-10.2092
▁remote	-10.2095
callback	-10.2099
receive	-10.21
PARAM	-10.2103
getAnnotation	-10.2122
Jar	-10.2125
Timer	-10.2127
getEPackage	-10.2127
US	-10.2132
Visitor	-10.2138
replaceAll	-10.2139
▁sum	-10.2139
und	-10.214
TH	-10.2142
Sid	-10.2143
TER	-10.2144
Points	-10.2146
▁items	-10.2152
od	-10.2158
▁proxy	-10.2164
Tx	-10.2164
isValid	-10.2165
▁Iterator	-10.2172
frame	-10.2187
▁exist	-10.2191
▁select	-10.2194
▁day	-10.22
Proto	-10.2203
OS	-10.2203
Payload	-10.2214
show	-10.2214
▁batch	-10.222
bar	-10.2222
Transport	-10.2224
▁conn	-10.2228
▁entries	-10.2234
Unknown	-10.2237
metadata	-10.2244
gr	-10.2245
Insert	-10.2248
getEClassifier	-10.2252
Delegate	-10.2252
▁TimeUnit	-10.2257
props	-10.2263
getInt	-10.2264
▁post	-10.2264
▁children	-10.2269
▁DB	-10.2272
Gen	-10.2283
ToString	-10.2291
15	-10.2295
Validate	-10.2303
MAP	-10.2306
ization	-10.2313
Flag	-10.232
flow	-10.2333
tur	-10.2333
▁print	-10.2337
tr	-10.2339
▁interface	-10.2339
mark	-10.234
Include	-10.2343
▁bucket	-10.2351
getContent	-10.2357
ach	-10.2364
4\	-10.2378
Assert	-10.238
▁style	-10.2382
Algorithm	-10.2402
Direct	-10.2416
▁JAXBElement	-10.2421
&	-10.2422
StringBuffer	-10.2426
▁ByteArray	-10.2439
def	-10.2442
expression	-10.2448
timeout	-10.2448
Virtual	-10.2449
"+	-10.2453
Separator	-10.246
getMax	-10.2463
web	-10.2465
▁invoke	-10.2468
Debug	-10.2468
Success	-10.2473
Invocation	-10.2476
Send	-10.2477
NODE	-10.248
>>()	-10.248
▁Function	-10.2485
▁def	-10.2489
newBuilder	-10.2493
67	-10.2504
fire	-10.2508
Init	-10.2527
000	-10.2531
Rows	-10.2533
Primitive	-10.2533
angle	-10.2536
BASE	-10.2539
Buf	-10.2548
Registration	-10.2553
];\	-10.2559
▁prev	-10.2561
Tab	-10.2565
Cursor	-10.2575
checkArgument	-10.2592
Instances	-10.2593
(0)	-10.2596
fac	-10.2599
▁arguments	-10.26
factory	-10.2605
▁form	-10.2607
Iter	-10.2608
▁chain	-10.261
raw	-10.2613
operation	-10.2634
metric	-10.2644
14	-10.2653
----------------	-10.2659
Accept	-10.2662
Coordinate	-10.2663
INFO	-10.2663
RESOURCE	-10.2666
▁co	-10.2674
MS	-10.2675
)))	-10.2684
Sample	-10.2695
ca	-10.2698
work	-10.2699
Geo	-10.2707
Rules	-10.2711
Backup	-10.2717
toBlocking	-10.2725
jcasType	-10.2731
▁description	-10.2733
ally	-10.2735
▁Iterable	-10.2735
90	-10.2736
PI	-10.2741
top	-10.2754
Dimension	-10.2758
Currency	-10.276
SC	-10.2763
proxy	-10.2768
batch	-10.2768
▁Interrupted	-10.2771
40	-10.2772
loc	-10.2777
setAttribute	-10.2777
intValue	-10.2777
▁database	-10.2782
option	-10.2782
can	-10.2786
Border	-10.2786
("/	-10.2789
ty	-10.279
Area	-10.2793
EDEFAULT	-10.2796
FORMAT	-10.2804
FINE	-10.2818
▁mode	-10.282
cast	-10.2824
statement	-10.2826
▁space	-10.2827
Deployment	-10.2853
▁color	-10.2886
▁"\	-10.2887
▁headers	-10.2887
▁Element	-10.2888
ATTRIBUTE	-10.2901
Person	-10.2909
part	-10.291
Structure	-10.2912
SQLException	-10.2914
LIST	-10.2921
schedule	-10.2921
2;	-10.2922
▁sp	-10.2933
▁render	-10.2937
TimeZone	-10.2941
Commit	-10.2944
compare	-10.295
▁bit	-10.2951
my	-10.2952
▁StringUtils	-10.2955
Mark	-10.2964
Save	-10.2972
Pro	-10.2979
oc	-10.2983
previous	-10.2985
Before	-10.2987
▁?>	-10.2987
▁edge	-10.2994
Ip	-10.2996
Native	-10.3004
59	-10.3006
ub	-10.3023
▁NullPointer	-10.3025
31	-10.3027
Retry	-10.303
Convert	-10.3033
poll	-10.3037
▁created	-10.304
ui	-10.3042
REQUEST	-10.3055
55	-10.3061
dbc	-10.3068
1;	-10.3072
getParameter	-10.3075
▁names	-10.3083
ARN	-10.3085
WS	-10.3086
▁}\	-10.3106
Login	-10.3106
lt	-10.3107
lastIndexOf	-10.3108
ErrorCode	-10.3114
reference	-10.3117
original	-10.3118
DataType	-10.3122
attributes	-10.3123
setName	-10.3132
▁compare	-10.3137
Merge	-10.3151
Main	-10.3153
include	-10.3155
arr	-10.3156
▁supported	-10.3158
Criteria	-10.317
ompletableFuture	-10.3173
ient	-10.3174
/**	-10.3174
OBJECT	-10.3188
bc	-10.3192
lv	-10.3195
AsString	-10.3204
▁accept	-10.321
partition	-10.3213
subscribe	-10.3215
▁columns	-10.3219
▁import	-10.3219
JSONObject	-10.3222
▁device	-10.3227
▁Base	-10.3228
resp	-10.3229
▁exists	-10.3233
spec	-10.3233
non	-10.3239
▁1000	-10.3255
ENTITY	-10.3256
▁constructor	-10.3261
▁our	-10.3265
Exists	-10.3266
allocate	-10.3271
Mask	-10.3273
▁6	-10.3277
StringUtil	-10.328
Statistics	-10.328
keys	-10.3281
▁Ovh	-10.3285
CPDefinition	-10.3289
▁contains	-10.3299
dialog	-10.33
▁condition	-10.3303
▁Job	-10.3311
ld	-10.3315
br	-10.3316
▁scan	-10.3316
concat	-10.3317
Temp	-10.3317
RO	-10.3321
Cert	-10.3325
▁delta	-10.3328
Trans	-10.333
Gateway	-10.3331
CACHE	-10.3335
Logging	-10.3335
Bitmap	-10.3342
Authorization	-10.3355
▁go	-10.3358
▁candidate	-10.3364
▁script	-10.3373
Writable	-10.3378
▁0;\	-10.3379
feature	-10.3382
▁active	-10.3382
la	-10.3386
GL	-10.3389
LI	-10.339
lib	-10.3393
Fixed	-10.3395
▁happen	-10.3395
▁trace	-10.3401
edge	-10.3403
bin	-10.3406
It	-10.3415
▁cp	-10.3417
destination	-10.3417
our	-10.342
GroupId	-10.3423
mail	-10.3436
▁Query	-10.3438
Setting	-10.3439
COLUMN	-10.344
auth	-10.344
separator	-10.3456
fine	-10.3457
Head	-10.346
Any	-10.346
getStatus	-10.3471
▁allow	-10.3484
td	-10.3485
>");	-10.3485
consume	-10.3495
FileSystem	-10.3498
▁cell	-10.3502
tokens	-10.3507
Dao	-10.3508
mod	-10.3517
ResponseBody	-10.3537
na	-10.3551
Raw	-10.3553
▁th	-10.3564
▁Number	-10.3573
STATE	-10.358
Tasks	-10.3583
ssl	-10.3589
▁clear	-10.3593
Persistence	-10.3601
STATUS	-10.3603
Marker	-10.3607
▁Simple	-10.3609
▁package	-10.361
▁charset	-10.3616
zip	-10.3618
render	-10.3619
▁continue	-10.3623
domain	-10.3624
js	-10.3632
Static	-10.3635
Lat	-10.3636
Zero	-10.3636
▁topic	-10.3637
▁custom	-10.3638
19	-10.364
Allowed	-10.3643
▁join	-10.3646
ELEMENT	-10.3647
nextPageLink	-10.365
ti	-10.3667
Attempt	-10.3667
Admin	-10.367
condition	-10.3675
▁rs	-10.368
Visible	-10.3684
CON	-10.3685
[0].	-10.3695
Issue	-10.37
ped	-10.3704
Ch	-10.3706
Transition	-10.3712
Digest	-10.3716
sib	-10.372
tri	-10.3727
▁chunk	-10.3729
Schedule	-10.373
description	-10.3741
Js	-10.3742
Tool	-10.3743
GROUP	-10.3756
DELETE	-10.3764
Direction	-10.3766
Diff	-10.3793
Flags	-10.3796
▁filename	-10.3801
*/	-10.3801
digit	-10.3805
▁tile	-10.3806
function	-10.3813
▁distance	-10.3813
▁auth	-10.382
▁cms	-10.3829
cf	-10.3832
izer	-10.3837
Loop	-10.3842
cas	-10.3852
TEXT	-10.386
▁frame	-10.386
Revision	-10.3862
▁--	-10.3878
▁Annotation	-10.3885
recover	-10.3887
NumberFormat	-10.3901
OUT	-10.3906
getWidth	-10.3907
0)	-10.3908
fields	-10.3911
IllegalAccess	-10.3914
BO	-10.3924
NULL	-10.3927
Editor	-10.3936
▁role	-10.3938
rc	-10.3963
Final	-10.3964
▁fieldName	-10.3974
SP	-10.3978
▁methods	-10.3983
▁added	-10.3987
formatter	-10.3994
sBy	-10.4004
Audit	-10.4007
HTTP	-10.4012
60	-10.4013
Pixel	-10.4015
▁"\\"	-10.4021
ION	-10.4024
hour	-10.4034
Ignore	-10.4052
Delay	-10.4059
cell	-10.4062
()];	-10.407
▁reset	-10.4075
▁|=	-10.4079
ify	-10.408
Email	-10.4084
cmd	-10.4087
Seq	-10.4087
Selected	-10.4091
complete	-10.4092
elements	-10.4099
Depth	-10.41
custom	-10.41
("%	-10.4111
Skip	-10.4111
509	-10.4114
lu	-10.4115
▁pair	-10.4122
▁Point	-10.4122
Escape	-10.4124
DBID	-10.4127
Background	-10.4128
Injection	-10.4129
ba	-10.4139
RequestContext	-10.4144
▁"]	-10.415
Bus	-10.4152
▁Task	-10.4156
▁its	-10.4159
term	-10.416
Association	-10.4162
crypt	-10.4163
▁tokens	-10.4176
▁rows	-10.4179
extension	-10.4187
▁them	-10.4187
CE	-10.4197
▁env	-10.4202
▁MAX	-10.4205
▁Array	-10.4209
▁EPackage	-10.421
opt	-10.4214
initial	-10.4219
INDEX	-10.4226
1\	-10.423
Public	-10.423
cm	-10.423
core	-10.4231
Paint	-10.4235
▁groupId	-10.4244
stat	-10.4245
getObject	-10.4251
▁api	-10.4267
cat	-10.4272
CmsObject	-10.4277
lex	-10.4286
Clause	-10.429
getLength	-10.4292
Packet	-10.43
Follow	-10.4302
▁Repository	-10.4302
Expected	-10.431
Do	-10.4313
ph	-10.4316
▁visit	-10.4325
▁calculate	-10.4337
99	-10.4337
▁want	-10.4337
▁real	-10.4339
ColumnName	-10.4341
HTML	-10.4341
IM	-10.4354
Connect	-10.4358
Move	-10.4365
password	-10.4366
▁tx	-10.4371
Invoke	-10.4376
getChild	-10.4377
Bond	-10.4387
currentThread	-10.4388
endpoint	-10.4388
▁meta	-10.439
▁random	-10.4393
25	-10.4396
apiVersion	-10.4399
uuid	-10.4401
extract	-10.4402
Renderer	-10.4402
▁two	-10.4402
Rect	-10.4402
02	-10.4415
Tracker	-10.4418
notify	-10.442
[]>	-10.4423
▁consumer	-10.4426
▁self	-10.4427
MP	-10.4433
children	-10.4437
^	-10.444
Bind	-10.4444
pair	-10.4444
POS	-10.4444
Total	-10.4451
▁through	-10.4453
8\	-10.4482
Workspace	-10.4485
Has	-10.4491
FilePath	-10.4498
▁sign	-10.4498
Sum	-10.4505
Real	-10.4506
ification	-10.4507
Processing	-10.4518
dst	-10.4519
counter	-10.4522
Basic	-10.4523
meta	-10.4527
▁mark	-10.4527
Down	-10.4533
▁you	-10.4557
AD	-10.4557
An	-10.4561
▁endpoint	-10.4561
full	-10.4569
1.0	-10.4576
sPer	-10.458
results	-10.458
CHAR	-10.4587
▁single	-10.4591
3,	-10.4598
getElement	-10.4602
identity	-10.4602
='	-10.4607
▁relation	-10.4611
▁domain	-10.4617
63	-10.462
variable	-10.4622
▁support	-10.4633
AM	-10.4634
PE	-10.4635
▁Image	-10.4635
▁timestamp	-10.4641
Parse	-10.4644
global	-10.4654
Stat	-10.4658
▁storage	-10.4659
filtered	-10.4662
provider	-10.4663
7\	-10.4667
Master	-10.4674
Click	-10.4676
ids	-10.4678
("\\\\	-10.468
Seconds	-10.468
▁HttpServlet	-10.4688
Begin	-10.4692
▁mod	-10.4693
setText	-10.4696
Accessor	-10.47
Candidate	-10.4701
Dynamic	-10.4701
▁given	-10.4703
▁Character	-10.4709
profile	-10.4714
<?,	-10.4715
Bi	-10.4727
Branch	-10.4741
[3]	-10.4743
▁plugin	-10.4745
access	-10.4748
pc	-10.4751
▁"."	-10.4753
Suffix	-10.4759
cap	-10.476
Utility	-10.4762
Shared	-10.4768
getAll	-10.4771
Conversion	-10.4773
▁window	-10.4779
Tokenizer	-10.478
▁Log	-10.4784
Deleted	-10.4785
▁possible	-10.4787
CONTENT	-10.479
BigDecimal	-10.4793
▁classes	-10.4793
▁Properties	-10.4794
Closed	-10.4798
▁Property	-10.4801
▁move	-10.4807
Composite	-10.4808
SA	-10.481
man	-10.4819
sign	-10.4822
▁trans	-10.4823
▁newValue	-10.4825
direct	-10.4827
ParseException	-10.4827
HttpResponse	-10.4827
Secret	-10.4829
change	-10.4829
Sip	-10.483
MD	-10.4832
[0]);	-10.4843
sl	-10.4849
forName	-10.4855
Stage	-10.4856
Fast	-10.4858
cancel	-10.4858
▁alias	-10.486
=\\"	-10.4863
23	-10.4867
low	-10.487
getHeight	-10.4873
▁loader	-10.4873
Standard	-10.4876
Initial	-10.4884
("-	-10.489
50	-10.4891
▁Request	-10.4894
tile	-10.4896
ling	-10.4905
getSource	-10.4911
Enumeration	-10.4913
Arn	-10.4914
FieldName	-10.4915
span	-10.4917
0\	-10.4917
dl	-10.492
RS	-10.4922
▁title	-10.4926
release	-10.493
Priority	-10.494
att	-10.4941
Chars	-10.4943
require	-10.4945
(1,	-10.4951
▁internal	-10.4951
cause	-10.4956
▁needed	-10.4957
processException	-10.4957
▁cal	-10.4957
mode	-10.4962
▁Float	-10.4964
step	-10.4972
import	-10.4975
mb	-10.4975
newValue	-10.4976
display	-10.4979
submit	-10.4981
bucket	-10.4984
items	-10.5
▁""	-10.5001
▁fail	-10.5002
Envelope	-10.5004
WITH	-10.5013
tl	-10.5016
getTarget	-10.5017
bound	-10.502
fd	-10.5022
CONFIG	-10.5027
Permissions	-10.5027
getConnection	-10.5028
prod	-10.503
▁character	-10.5033
Filename	-10.5034
Cost	-10.5041
Throw	-10.5042
▁counter	-10.5043
▁interval	-10.5045
▁ns	-10.5046
pop	-10.505
getLast	-10.505
tic	-10.505
▁web	-10.5054
escape	-10.5057
▁Update	-10.5062
expected	-10.5068
▁JSONObject	-10.5081
Lookup	-10.5083
▁best	-10.5083
▁invalid	-10.5084
transaction	-10.5084
isLoggable	-10.5087
▁...	-10.509
Portlet	-10.5092
Center	-10.5095
SESSION	-10.5097
stats	-10.5103
sIn	-10.511
EE	-10.5112
socket	-10.5112
ContentType	-10.5115
IL	-10.5117
▁getIfc	-10.5129
wrap	-10.5129
ian	-10.513
▁ByteBuffer	-10.5132
EEnum	-10.5134
Errors	-10.5138
▁score	-10.514
ged	-10.5146
inner	-10.5148
pipeline	-10.5149
ov	-10.5151
Pipeline	-10.5154
▁append	-10.5155
▁tags	-10.5157
EC	-10.5162
Features	-10.5164
▁Calendar	-10.5165
METHOD	-10.5166
Ops	-10.5169
▁mapper	-10.5169
describe	-10.517
ical	-10.5179
IR	-10.5184
eNS	-10.5185
CS	-10.5187
▁payload	-10.519
Forward	-10.5211
COUNT	-10.5218
remote	-10.5219
El	-10.5221
compute	-10.5222
▁registry	-10.5229
Hex	-10.5231
ous	-10.5232
Random	-10.5232
Services	-10.5234
Linked	-10.5236
EventListener	-10.5237
menu	-10.5244
▁execution	-10.5249
▁LinkedList	-10.5251
curr	-10.5257
▁multi	-10.5258
database	-10.5259
valid	-10.5261
PO	-10.5271
stmt	-10.5284
NONE	-10.5287
getHost	-10.5306
DO	-10.5309
62	-10.5313
SEPARATOR	-10.5322
Axis	-10.5323
▁zero	-10.5323
▁allowed	-10.5325
▁'%	-10.5329
go	-10.5332
MI	-10.5334
real	-10.5335
Replace	-10.5337
▁descriptor	-10.534
▁parts	-10.5344
▁Server	-10.5345
▁8	-10.5347
acc	-10.5348
▁propertyName	-10.5348
ified	-10.5353
==0	-10.5355
Pass	-10.5356
▁DateTime	-10.5363
TR	-10.5364
Describe	-10.5369
Charset	-10.537
▁settings	-10.5371
(0).	-10.5376
Mod	-10.5376
getFile	-10.5384
wait	-10.5388
Jvm	-10.5388
DOM	-10.5394
▁convertTo	-10.5398
HttpClient	-10.5402
Scheme	-10.5403
gl	-10.5411
▁doesn	-10.5416
▁ioe	-10.5417
▁selected	-10.5417
▁matrix	-10.542
306	-10.5425
Management	-10.5427
RA	-10.5428
Pane	-10.5428
LO	-10.5432
ock	-10.5435
security	-10.5438
Relationship	-10.5446
Decl	-10.5454
Mem	-10.5461
ABLE	-10.5464
Created	-10.5467
doubleValue	-10.5478
getLog	-10.5488
getY	-10.5489
Install	-10.5492
trans	-10.5492
Disk	-10.5494
Watch	-10.5499
serialize	-10.551
Encoder	-10.5521
peek	-10.5522
Assign	-10.5527
getStart	-10.553
17	-10.554
▁show	-10.5545
Measure	-10.5546
INVALID	-10.5553
Scheduler	-10.5555
▁serialize	-10.5555
fileName	-10.5558
ensure	-10.5559
interrupt	-10.5562
▁look	-10.5562
getNum	-10.5563
▁Un	-10.5566
scan	-10.557
layer	-10.557
ERR	-10.5573
▁cls	-10.5575
Callable	-10.5594
ServiceCallback	-10.5599
LT	-10.5601
getBundle	-10.5606
PRE	-10.5615
enable	-10.5621
MODE	-10.5622
window	-10.5623
cached	-10.5623
PK	-10.5624
▁called	-10.5625
▁User	-10.5629
▁Internal	-10.5634
Cipher	-10.5635
▁owner	-10.5638
DataSet	-10.5641
getEnd	-10.5648
ACTION	-10.5649
▁contain	-10.5651
ONE	-10.5654
Variant	-10.5665
▁getAll	-10.5667
commit	-10.5668
33	-10.5679
▁featureID	-10.5681
div	-10.5681
▁cached	-10.5684
currency	-10.5686
▁removed	-10.5687
by	-10.5693
ql	-10.5695
▁pass	-10.5696
▁my	-10.5707
names	-10.5709
Cloud	-10.5709
nextToken	-10.5711
Off	-10.5719
AV	-10.572
▁complete	-10.5722
/"	-10.5728
unc	-10.5731
[0],	-10.5736
second	-10.5738
ARRAY	-10.5754
▁EClass	-10.5758
getService	-10.576
▁head	-10.5767
workspace	-10.5769
Asset	-10.5772
groupId	-10.5774
▁display	-10.5775
Safe	-10.5777
ness	-10.5779
Env	-10.5785
site	-10.5793
Launch	-10.5793
quot	-10.5797
Rpc	-10.58
FileOutputStream	-10.5803
▁tableName	-10.5805
dValue	-10.5807
force	-10.5809
readLine	-10.5814
isDirectory	-10.5816
Parts	-10.5817
www	-10.5818
▁layer	-10.5819
▁Web	-10.5823
Connector	-10.5826
Bad	-10.5826
▁predicate	-10.5828
▁signature	-10.5829
Cause	-10.5831
Polygon	-10.5833
shape	-10.5835
▁spec	-10.5837
getLogger	-10.5844
ifier	-10.5845
Codec	-10.5851
minute	-10.5857
▁duration	-10.586
serviceName	-10.5861
CU	-10.5861
▁site	-10.5865
credential	-10.5865
▁8)	-10.5867
▁matches	-10.5871
▁Java	-10.5874
MO	-10.5877
0.0	-10.5879
▁prepare	-10.588
sheet	-10.5883
MediaType	-10.5888
img	-10.5895
▁wait	-10.5904
▁always	-10.5908
▁arr	-10.591
▁month	-10.5914
NA	-10.5916
compress	-10.5918
▁In	-10.5921
Tick	-10.5921
Second	-10.5922
CA	-10.5923
SH	-10.5928
Opt	-10.5928
Running	-10.5929
HEADER	-10.5934
bus	-10.5937
<?>)	-10.5937
getFirst	-10.5956
▁BigDecimal	-10.5957
SHA	-10.596
JC	-10.5962
pi	-10.5963
ations	-10.5964
▁folder	-10.5964
▁sample	-10.5965
fromResponse	-10.5968
▁Expression	-10.5969
▁Key	-10.597
Quote	-10.5979
▁escape	-10.5983
Equal	-10.5984
kind	-10.5986
▁schedule	-10.5993
headers	-10.5995
▁correct	-10.5998
ROOT	-10.6005
fix	-10.601
▁year	-10.6011
▁points	-10.6013
Register	-10.6015
Producer	-10.602
ras	-10.6025
getCause	-10.603
▁exec	-10.6031
▁servlet	-10.6036
Zip	-10.6037
subscriptionId	-10.6039
button	-10.604
Show	-10.604
Exp	-10.6047
▁manager	-10.605
ident	-10.6054
▁Operation	-10.6059
▁zip	-10.6063
shutdown	-10.6068
▁cookie	-10.608
paint	-10.6083
Arr	-10.6083
mapping	-10.6087
▁auto	-10.6091
less	-10.6092
3\	-10.6093
▁high	-10.6096
Pdf	-10.6099
▁ensure	-10.61
LONG	-10.6107
ang	-10.611
Fetch	-10.6112
XA	-10.6125
Cached	-10.6127
▁rec	-10.6142
▁commerce	-10.6143
ml	-10.6147
coord	-10.6148
Scroll	-10.6154
pack	-10.6155
▁tr	-10.616
destroy	-10.6163
getApplication	-10.6172
Credential	-10.6174
isPresent	-10.6174
▁opt	-10.6179
admin	-10.6182
role	-10.6188
▁trigger	-10.619
Dev	-10.6191
GUI	-10.6193
collection	-10.6196
▁never	-10.6196
getEntity	-10.6199
Availability	-10.6205
SELECT	-10.621
Sorted	-10.6211
prov	-10.6218
points	-10.6224
ga	-10.6224
protocol	-10.6226
▁nextPageLink	-10.6227
▁Document	-10.6233
remaining	-10.6236
just	-10.624
▁normalize	-10.6243
mt	-10.6247
sleep	-10.6248
md	-10.6254
Parameterized	-10.6256
Week	-10.626
idBagConstraints	-10.6262
RG	-10.6263
Threshold	-10.6267
dev	-10.6269
Drawable	-10.6269
getVersion	-10.6278
Peer	-10.6282
▁ifc	-10.6282
▁expr	-10.6303
▁Locale	-10.6309
sip	-10.631
NE	-10.631
sWith	-10.6312
7684\	-10.6315
Actions	-10.6317
aw	-10.6321
Push	-10.633
getIndex	-10.6344
toUpperCase	-10.6346
▁username	-10.6348
▁repository	-10.6348
>();\	-10.6349
▁cmd	-10.6351
▁Int	-10.6355
getTask	-10.6356
JsonObject	-10.6359
bf	-10.636
UR	-10.636
▁3)	-10.6361
getState	-10.6365
alias	-10.6365
ning	-10.6366
Example	-10.6367
year	-10.6368
war	-10.6375
▁7	-10.638
▁bits	-10.6381
tick	-10.6383
▁attempt	-10.6385
Rectangle	-10.6388
Padding	-10.6399
Io	-10.6405
backtracking	-10.6409
pn	-10.6416
settings	-10.642
▁profile	-10.6421
▁fetch	-10.6423
SAX	-10.6425
▁down	-10.6426
fieldName	-10.6427
getAs	-10.6429
Encoded	-10.644
SERVER	-10.6446
USE	-10.6446
EVENT	-10.6447
detail	-10.6449
INDArray	-10.6454
▁lookup	-10.6458
Unsupported	-10.646
Serializable	-10.6462
Dispatcher	-10.6465
lp	-10.6469
▁socket	-10.6476
[1];	-10.6479
▁bind	-10.6479
Labels	-10.648
configure	-10.6486
getP	-10.6487
Keyword	-10.6488
▁").	-10.6492
▁region	-10.6492
tab	-10.6492
Expressions	-10.6493
propertyName	-10.6496
dump	-10.65
getSession	-10.6504
Ms	-10.6506
Pending	-10.6507
toByteArray	-10.6508
filename	-10.6508
Shard	-10.6508
square	-10.651
exp	-10.6514
Com	-10.6516
dimension	-10.6518
Extended	-10.6523
KeyStore	-10.6529
DEBUG	-10.6532
▁2);	-10.6533
sc	-10.6561
JSONArray	-10.6563
▁1];	-10.6565
▁artifact	-10.6565
ResourceBundle	-10.6566
future	-10.6573
▁'\\	-10.6575
chunk	-10.6579
servlet	-10.6579
Extensions	-10.6581
Observer	-10.6581
person	-10.6582
▁formatter	-10.6589
available	-10.6594
Compute	-10.6603
MBean	-10.6611
InetAddress	-10.6612
thing	-10.6616
jar	-10.6621
SUB	-10.663
▁graph	-10.6631
▁nothing	-10.6636
Reply	-10.6639
▁binding	-10.6643
DD	-10.6656
▁avoid	-10.6656
package	-10.6657
auto	-10.6657
IllegalArgument	-10.6658
FF	-10.6661
TRUE	-10.6661
Components	-10.6662
IAtom	-10.6662
56	-10.6667
▁media	-10.6672
▁Runnable	-10.6674
Behavior	-10.6677
milli	-10.6678
cls	-10.6679
▁Configuration	-10.6682
▁4)	-10.6686
Cancel	-10.6689
▁take	-10.6693
sig	-10.6697
sequence	-10.6701
Collectors	-10.6707
▁encoded	-10.6712
▁indent	-10.6714
RED	-10.6714
basic	-10.6716
EX	-10.6716
▁Matrix	-10.6716
▁del	-10.6717
▁nodeList	-10.6718
TS	-10.6722
▁defined	-10.6723
mul	-10.6723
selected	-10.6726
200	-10.6727
Release	-10.6727
▁suffix	-10.6727
))\	-10.673
Runnable	-10.6731
putAll	-10.6731
▁jar	-10.6731
ability	-10.6734
sym	-10.674
▁protocol	-10.6743
RI	-10.6745
copyOf	-10.6745
reply	-10.6748
▁Pattern	-10.6751
Amount	-10.6756
cursor	-10.6758
tz	-10.6759
Over	-10.6772
uid	-10.6772
weight	-10.6776
XPath	-10.6776
▁exp	-10.6783
lookup	-10.6786
▁like	-10.6791
▁uuid	-10.6793
Ring	-10.6795
▁retrieve	-10.6796
▁language	-10.6796
▁definition	-10.6803
Home	-10.6807
▁progress	-10.6821
media	-10.6823
topic	-10.6825
Matching	-10.683
Graphics	-10.6836
▁weight	-10.6839
▁100	-10.6848
getItem	-10.6851
distance	-10.6854
▁remaining	-10.6858
▁control	-10.6863
BigInteger	-10.6868
Sheet	-10.6869
Definitions	-10.687
getHeader	-10.6896
score	-10.6897
Segments	-10.6897
bug	-10.6901
exchange	-10.6902
Normal	-10.6908
Old	-10.6923
plus	-10.6923
▁Service	-10.6926
owner	-10.6928
OAuth	-10.6937
CSS	-10.6939
home	-10.694
product	-10.6946
AttributeValue	-10.6948
Supported	-10.6951
PROP	-10.6955
EJB	-10.6964
Other	-10.6964
backup	-10.697
combine	-10.6973
where	-10.698
Curve	-10.6982
ByName	-10.6995
PrintWriter	-10.6996
▁changed	-10.7001
plugin	-10.7003
▁cursor	-10.7005
WIDTH	-10.7009
▁bond	-10.7013
pkg	-10.7014
getConfig	-10.7018
URLConnection	-10.7021
▁vector	-10.7022
allow	-10.7023
mac	-10.7027
Absolute	-10.7031
▁comment	-10.7035
▁product	-10.7039
Words	-10.704
Digits	-10.704
getRoot	-10.7042
▁retry	-10.7049
▁they	-10.7051
dim	-10.7053
▁Recognition	-10.7053
expr	-10.7056
▁FileInputStream	-10.7058
strict	-10.7059
activate	-10.706
Distribution	-10.706
Warning	-10.706
Family	-10.7062
Fill	-10.707
▁diff	-10.7071
MONTH	-10.7071
Lines	-10.7086
▁"");	-10.7089
attach	-10.7093
storage	-10.7096
reparedStatement	-10.7098
rest	-10.7099
addBody	-10.7101
username	-10.711
Contact	-10.7117
Connected	-10.7122
Serialization	-10.7122
▁clean	-10.7125
zone	-10.7127
Patch	-10.7128
Catalog	-10.7133
parts	-10.7134
";\	-10.7135
erviceCallback	-10.7137
layout	-10.7137
Reason	-10.7139
▁environment	-10.7141
BE	-10.7143
▁stmt	-10.7148
▁ApiException	-10.7149
SL	-10.7155
▁converter	-10.7155
Hour	-10.7163
Utilities	-10.7163
Equals	-10.7164
2\	-10.7165
▁identifier	-10.7166
Visibility	-10.7173
Bound	-10.7174
▁exc	-10.7176
fl	-10.7178
ignore	-10.7184
Finder	-10.7191
▁separator	-10.7192
Bug	-10.7192
MPS	-10.7205
Closure	-10.7207
▁ip	-10.721
▁childNode	-10.7211
▁keep	-10.7213
▁perform	-10.7213
helper	-10.7217
FFDCFilter	-10.7224
▁determine	-10.7225
attachment	-10.7225
▁OutputStream	-10.7227
self	-10.7228
▁desc	-10.7229
flags	-10.7235
Entities	-10.7236
▁Cache	-10.7243
addContent	-10.7245
ities	-10.7251
Clazz	-10.7253
getS	-10.7256
▁Config	-10.7264
`	-10.7265
Elem	-10.7266
Jsp	-10.7267
entities	-10.7267
exec	-10.7269
methodName	-10.7272
▁*/\	-10.7274
▁Color	-10.7277
Analysis	-10.7282
Execute	-10.7282
TableName	-10.7283
Src	-10.7284
getClient	-10.7286
Dictionary	-10.7288
00\	-10.729
▁Describe	-10.7306
normalize	-10.7307
▁factor	-10.7309
▁slot	-10.7309
nodes	-10.7309
cut	-10.7314
portlet	-10.7318
random	-10.7318
▁16	-10.7322
wrapped	-10.7325
▁Byte	-10.7329
▁curr	-10.7331
Illegal	-10.7331
desc	-10.7332
flatMap	-10.7344
ai	-10.7347
tra	-10.7348
▁listeners	-10.7349
▁updated	-10.7353
256	-10.7353
▁extra	-10.7354
▁connect	-10.7357
free	-10.7357
panel	-10.7358
JMS	-10.7359
▁yet	-10.7361
Completion	-10.7363
▁Connection	-10.7365
Days	-10.7369
▁objects	-10.7369
26	-10.7372
updateresource	-10.7372
Transfer	-10.7375
General	-10.7375
toList	-10.7381
isTraceOn	-10.7381
Delta	-10.7381
rpc	-10.7389
Comp	-10.7391
Evaluation	-10.7393
SinglePage	-10.7405
▁Client	-10.7413
▁too	-10.7414
")\	-10.7417
27	-10.7418
▁Build	-10.7418
▁metric	-10.7419
▁exclude	-10.7422
▁inner	-10.7422
ADD	-10.7429
▁retval	-10.7433
checkState	-10.7436
entries	-10.7437
tool	-10.7444
ick	-10.7462
48	-10.7466
Track	-10.7468
getMin	-10.7468
Blocks	-10.7468
mat	-10.7473
▁route	-10.7474
PATTERN	-10.7475
96	-10.7475
▁detect	-10.7475
MB	-10.7478
Dependencies	-10.7481
ATTR	-10.7482
▁'/'	-10.7487
af	-10.749
▁until	-10.7492
▁center	-10.7494
pp	-10.7496
holder	-10.75
cert	-10.75
MA	-10.7504
▁symbol	-10.7508
ads	-10.7516
Runner	-10.7516
nn	-10.7517
Ext	-10.7518
Filters	-10.7518
EObject	-10.7519
PAGE	-10.752
▁closed	-10.7524
▁provided	-10.7534
▁wrapper	-10.7534
retval	-10.7542
▁cancel	-10.7555
Cl	-10.7556
NT	-10.7557
PA	-10.7559
▁iv	-10.7561
tags	-10.7562
shard	-10.757
AUTH	-10.7575
AB	-10.7578
cn	-10.758
▁without	-10.7582
seen	-10.7583
Extractor	-10.7584
Download	-10.7587
PublicKey	-10.7588
▁export	-10.7595
▁failure	-10.7597
Platform	-10.7599
▁subject	-10.7601
widget	-10.7601
rad	-10.7605
lhs	-10.7606
PORT	-10.7609
Struct	-10.7611
Codes	-10.7613
▁UnsupportedOp	-10.7615
▁ids	-10.7616
font	-10.7618
▁API	-10.7619
▁dis	-10.7625
▁also	-10.7629
writeInt	-10.763
▁Notification	-10.7633
}/	-10.7635
cookie	-10.7636
erationException	-10.7636
BY	-10.7638
Free	-10.7639
_0=	-10.7639
=");	-10.7643
SECONDS	-10.7648
encoding	-10.7649
▁wrap	-10.7649
Scanner	-10.7653
COMP	-10.7657
scroll	-10.7661
▁cert	-10.7665
PT	-10.7669
CO	-10.7677
Workflow	-10.7678
Named	-10.7678
2.0	-10.7679
▁would	-10.7683
consumer	-10.7684
og	-10.7685
getChildren	-10.7695
▁messages	-10.7696
watch	-10.7701
Lifecycle	-10.7707
trust	-10.7714
▁SQL	-10.7718
▁executor	-10.772
candidate	-10.7723
Completed	-10.7724
hashCode	-10.7732
▁describe	-10.7738
help	-10.7741
sync	-10.7743
▁mask	-10.7753
SERVICE	-10.7755
▁Attribute	-10.7759
Animation	-10.7762
▁Token	-10.7766
){\	-10.777
YEAR	-10.7774
Flush	-10.778
Break	-10.778
WARNING	-10.7786
columns	-10.779
casFeat	-10.7798
locale	-10.7804
▁different	-10.781
border	-10.7815
▁unique	-10.7815
▁registered	-10.7821
interface	-10.7824
▁fill	-10.7826
icon	-10.7827
Angle	-10.7828
▁assert	-10.7829
jdbc	-10.7832
getBase	-10.7835
QName	-10.7836
Reduce	-10.7841
stage	-10.7843
▁requested	-10.7844
SOURCE	-10.7845
PAR	-10.7846
Cur	-10.7854
pow	-10.7859
▁Q	-10.7864
▁cs	-10.7868
▁fetchBy	-10.7869
▁'0'	-10.7869
Regex	-10.787
visible	-10.7878
ClassInfo	-10.7878
center	-10.7883
MASK	-10.7883
▁global	-10.7898
monitor	-10.7898
elem	-10.791
timestamp	-10.7911
after	-10.7912
▁CmsResource	-10.7912
APP	-10.7914
multi	-10.7915
Th	-10.7922
mapped	-10.7924
vc	-10.7933
▁chars	-10.7935
dataSource	-10.7936
▁present	-10.7949
Extra	-10.796
Exclude	-10.7963
Instant	-10.7964
Relative	-10.7964
Replication	-10.7964
▁gr	-10.7964
Insn	-10.7966
Persist	-10.7969
▁(@	-10.797
Preference	-10.7974
Compare	-10.7976
▁ParseException	-10.7977
Notify	-10.7981
respond	-10.7988
Contain	-10.7991
book	-10.8001
payload	-10.8007
actual	-10.8009
▁information	-10.8013
Digit	-10.8016
progress	-10.8018
▁fall	-10.8019
TreeNode	-10.802
now	-10.8023
inputStream	-10.8029
inc	-10.8037
getClassLoader	-10.804
repo	-10.8046
▁running	-10.8046
▁Table	-10.8048
activity	-10.8051
▁additional	-10.8052
▁alpha	-10.8054
userAgent	-10.8058
methodBuilder	-10.8059
digest	-10.8064
mutation	-10.8064
Used	-10.8066
APPLICATION	-10.8075
Publish	-10.8077
getRecord	-10.8081
LOAD	-10.8082
CharSequence	-10.8083
StackTrace	-10.8085
Same	-10.8092
▁least	-10.8101
oid	-10.8101
▁Content	-10.8106
Focus	-10.8107
Par	-10.8123
Matches	-10.8126
matrix	-10.8128
▁lower	-10.8128
Members	-10.8138
Terminal	-10.8138
UPDATE	-10.8139
CF	-10.8147
finder	-10.8147
▁span	-10.8147
play	-10.8149
▁CharSequence	-10.8149
ATE	-10.8155
Indices	-10.8157
▁serverName	-10.8159
Append	-10.8162
Volume	-10.8163
▁LA	-10.8166
secret	-10.817
Reg	-10.8172
▁0.0;	-10.8174
Prob	-10.8174
fetch	-10.8179
▁ignored	-10.818
CHECK	-10.8182
Indent	-10.8182
Atomic	-10.8186
75	-10.8187
▁what	-10.8188
sample	-10.8193
▁during	-10.8195
prepare	-10.8199
▁resourceName	-10.8199
lon	-10.8206
Started	-10.8212
pending	-10.8216
▁dim	-10.8222
68	-10.8223
▁commit	-10.8227
Author	-10.8228
Origin	-10.823
scanner	-10.8233
Redirect	-10.8234
▁constraint	-10.8237
invalid	-10.8243
diff	-10.8245
Sets	-10.8247
executor	-10.825
▁":"	-10.8255
NEW	-10.8256
▁memory	-10.8256
▁alt	-10.8257
▁might	-10.8257
marker	-10.8258
Blob	-10.8258
sys	-10.8263
▁flag	-10.8265
▁rel	-10.8273
ending	-10.8274
▁qPath	-10.8276
▁let	-10.8278
▁still	-10.8279
▁classLoader	-10.8282
chain	-10.8284
▁simple	-10.8285
isBlank	-10.8285
listeners	-10.8286
emptyList	-10.8288
More	-10.8288
IAtomContainer	-10.8288
Opcode	-10.8288
▁missing	-10.8291
Infos	-10.8292
▁'.'	-10.8295
Hook	-10.8297
Leaf	-10.8301
dynamic	-10.8303
NUMBER	-10.8303
expire	-10.8304
Alignment	-10.8305
Inter	-10.8308
Replica	-10.8309
interval	-10.8311
existing	-10.8314
▁amount	-10.8314
ward	-10.8316
ks	-10.8325
▁force	-10.8327
70	-10.8344
controller	-10.8351
getResponse	-10.8353
RETURN	-10.8354
Addr	-10.8358
Handlers	-10.8369
Reflection	-10.8394
Numeric	-10.8394
▁generic	-10.8399
Solution	-10.8399
IVE	-10.84
▁calendar	-10.8403
engine	-10.8404
Inv	-10.8407
adaptor	-10.8408
manager	-10.8409
duration	-10.8417
gi	-10.8418
FOUND	-10.8419
Using	-10.8422
▁security	-10.8423
▁sync	-10.8425
▁Transaction	-10.8428
export	-10.8431
Instruction	-10.8432
Modified	-10.8438
PUT	-10.8439
▁activity	-10.8444
setup	-10.8448
▁algorithm	-10.8453
ORDER	-10.8453
Unexpected	-10.8461
--)	-10.8462
Stmt	-10.8465
getLong	-10.8466
clip	-10.8467
WRITE	-10.847
NEXT	-10.8471
▁*=	-10.8471
Loc	-10.8475
Previous	-10.8477
Conversation	-10.849
Locator	-10.8491
own	-10.8492
▁24	-10.8493
OptionValue	-10.8496
dingException	-10.8496
mon	-10.8505
▁UUID	-10.851
directory	-10.851
DS	-10.8513
Aware	-10.8513
grid	-10.8513
▁zone	-10.8515
Acc	-10.8516
FileNotFound	-10.8518
▁os	-10.8522
VER	-10.8531
IndexOutOfBounds	-10.8532
getTable	-10.8533
ById	-10.8534
getProperties	-10.8535
Scheduled	-10.8536
apache	-10.8536
▁err	-10.8537
iferay	-10.8543
▁policy	-10.8545
▁32	-10.8548
▁period	-10.8549
ACK	-10.855
Mail	-10.8555
▁enabled	-10.8557
waitFor	-10.8562
qui	-10.8564
Mgr	-10.8565
pointer	-10.8568
TE	-10.8574
▁implementation	-10.8575
▁verify	-10.8576
UnsupportedEnco	-10.8577
▁setup	-10.8577
should	-10.8577
bits	-10.8596
76	-10.8602
▁flags	-10.8605
▁4;	-10.8607
▁\\""	-10.8607
Mappings	-10.8613
▁ssl	-10.8614
28	-10.8614
▁specific	-10.8615
numRows	-10.8621
▁":	-10.8624
messages	-10.8625
TypeEnum	-10.8637
ML	-10.8639
95	-10.8641
matched	-10.8641
▁dependency	-10.8643
(0));	-10.8646
getAtom	-10.865
rand	-10.8651
gt	-10.8657
States	-10.8658
Without	-10.8658
▁Error	-10.8658
BACK	-10.8659
zz	-10.8667
▁NOT	-10.867
Dataset	-10.867
awt	-10.8674
BYTE	-10.8676
cb	-10.8679
QNAME	-10.8697
▁between	-10.87
MM	-10.8701
▁flow	-10.8707
Library	-10.8708
Remaining	-10.8708
delta	-10.8708
FOR	-10.8714
plain	-10.8714
ful	-10.8724
▁rest	-10.8731
isNotEmpty	-10.8737
fixed	-10.874
▁issue	-10.874
CREATE	-10.875
sqrt	-10.8754
HttpMethod	-10.8759
▁errors	-10.8762
language	-10.8763
adapter	-10.8768
▁being	-10.8783
mask	-10.8783
Drop	-10.8789
best	-10.8789
Syntax	-10.8792
▁bounds	-10.8796
getInputStream	-10.8797
Dist	-10.8804
▁collect	-10.8805
CL	-10.8806
-1)	-10.8808
dc	-10.881
▁Charset	-10.8813
▁delegate	-10.8814
▁ClassLoader	-10.8815
lm	-10.8816
▁getValue	-10.8818
▁know	-10.882
Facet	-10.8821
numCols	-10.8827
03	-10.8831
58	-10.8833
▁For	-10.8834
86	-10.8838
Marshaller	-10.8841
▁both	-10.8841
InvocationTarget	-10.8845
▁ClassNotFound	-10.8846
Under	-10.885
cent	-10.8851
pref	-10.8855
written	-10.8855
Specific	-10.8857
setContent	-10.886
CD	-10.886
getRaw	-10.8862
editor	-10.8862
Country	-10.8863
modifier	-10.8863
Detector	-10.8863
▁Security	-10.8864
persist	-10.8868
<?>[]	-10.8872
▁"'");	-10.8873
files	-10.8875
BIT	-10.8878
nz	-10.8883
▁publish	-10.8884
getAttributes	-10.8885
▁Predicate	-10.8888
implement	-10.8896
CT	-10.8896
Prev	-10.8906
StringBundler	-10.8911
▁override	-10.8913
TRANS	-10.8913
loader	-10.8915
▁assign	-10.8918
Received	-10.8924
97	-10.8928
▁network	-10.8931
usage	-10.8934
audit	-10.8937
CommandLine	-10.8937
▁BufferedReader	-10.8941
buff	-10.8942
advance	-10.8943
Alert	-10.895
Aggregate	-10.895
VO	-10.8952
getRow	-10.8952
▁equal	-10.8954
▁normal	-10.8956
topology	-10.8957
PRO	-10.8957
delegate	-10.8958
▁upload	-10.8961
standard	-10.8964
▁layout	-10.8966
tableName	-10.8966
control	-10.897
▁mean	-10.8971
drools	-10.8971
▁#	-10.8977
rain	-10.8984
cont	-10.8986
▁LinkedHashMap	-10.8991
Creation	-10.8998
comment	-10.8999
▁clone	-10.9004
pw	-10.9004
visitor	-10.901
ClassNotFound	-10.9011
▁another	-10.9012
88	-10.9013
▁msgs	-10.9018
virtual	-10.9019
VarReturnType	-10.9019
typeName	-10.9021
Decoder	-10.9026
isNullOrEmpty	-10.9026
Original	-10.9028
Cast	-10.9035
Rec	-10.9037
Place	-10.9038
Closeable	-10.9039
intent	-10.9039
VAR	-10.904
Help	-10.9046
▁engine	-10.9048
calendar	-10.9049
▁ca	-10.9052
Operand	-10.906
PARAMETER	-10.9062
repository	-10.9071
▁maximum	-10.908
catalog	-10.9081
cross	-10.9081
getDescription	-10.9085
Fix	-10.9086
▁EOF	-10.9087
neighbor	-10.9095
OC	-10.9107
Req	-10.9107
Hint	-10.911
gc	-10.9115
AST	-10.9117
Vars	-10.912
ITY	-10.9125
mv	-10.9126
addChild	-10.9127
publish	-10.9135
DateFormat	-10.914
▁success	-10.9143
Problem	-10.9143
LEFT	-10.9143
fail	-10.9143
100	-10.9145
lab	-10.9147
month	-10.915
getComponent	-10.915
alert	-10.9151
▁shutdown	-10.9154
▁OpenCms	-10.9156
trigger	-10.9156
clientResponse	-10.916
UL	-10.9162
cos	-10.9163
INTERNAL	-10.9164
literal	-10.9164
down	-10.9168
variant	-10.9171
Payment	-10.9171
▁deleted	-10.9172
NoSuchMethod	-10.9174
Versions	-10.9175
▁16)	-10.9178
▁Basic	-10.918
Reset	-10.9183
strategy	-10.9185
▁geometry	-10.9189
▁reason	-10.9192
nextElement	-10.9194
▁large	-10.9201
Getter	-10.9203
sha	-10.9205
57	-10.9208
FLAG	-10.9213
Css	-10.9214
▁nm	-10.9215
card	-10.9216
▁validation	-10.9222
getTag	-10.9225
javax	-10.9228
primaryKey	-10.9228
▁processing	-10.923
▁inputStream	-10.9232
polygon	-10.9234
▁instead	-10.9234
Whitespace	-10.9241
INIT	-10.9241
Compiler	-10.9245
▁CLASS	-10.9249
▁Project	-10.9251
▁way	-10.9253
▁resolved	-10.9263
fsp	-10.9263
▁parsed	-10.9264
nl	-10.9267
region	-10.9272
bond	-10.9274
▁caller	-10.9275
Hub	-10.9275
Constraints	-10.9275
mm	-10.9279
▁sc	-10.9279
▁groups	-10.928
▁0.5	-10.928
▁Filter	-10.9284
Persistent	-10.9291
▁matching	-10.9292
Expand	-10.9298
geom	-10.9302
PrimaryKey	-10.9309
vert	-10.931
Topology	-10.9311
Annotated	-10.9312
▁Pair	-10.9312
▁Tr	-10.9317
▁shape	-10.932
getBoolean	-10.9333
Choice	-10.9333
▁variables	-10.9336
▁release	-10.9338
▁Text	-10.9338
IV	-10.9341
GroupName	-10.9341
Addresses	-10.9345
Exit	-10.9346
FROM	-10.9347
▁vertex	-10.9349
FieldType	-10.9352
gram	-10.9354
▁structure	-10.936
BUFFER	-10.9361
Mutable	-10.9367
▁Void	-10.937
Sec	-10.9376
before	-10.9381
classes	-10.9384
route	-10.9385
▁Do	-10.9389
account	-10.939
common	-10.939
CM	-10.9398
HashSet	-10.94
cmp	-10.9401
seek	-10.9409
▁controller	-10.9415
MENT	-10.9418
Roles	-10.9424
▁elem	-10.9426
mlElementDecl	-10.9426
Dest	-10.9434
▁origin	-10.9434
Sha	-10.9437
Enable	-10.9439
Manifest	-10.944
▁tuple	-10.9444
54	-10.9447
Tables	-10.9449
mission	-10.9451
▁solution	-10.9452
collector	-10.9455
Mtas	-10.9462
descriptor	-10.9469
EXP	-10.947
▁getPersistence	-10.9474
Slice	-10.9474
DN	-10.9478
FALSE	-10.9483
Shutdown	-10.9483
▁multiple	-10.9483
Program	-10.9483
words	-10.9484
Generated	-10.9484
UNKNOWN	-10.949
LocalizedMessage	-10.949
Big	-10.9493
serv	-10.9494
▁safe	-10.9496
Vec	-10.95
Violation	-10.9504
required	-10.9505
Username	-10.9505
EventType	-10.9509
▁snapshot	-10.9518
4:	-10.9519
QualifiedName	-10.9521
divide	-10.9529
increment	-10.9529
▁small	-10.9538
rollback	-10.954
▁lines	-10.9541
lic	-10.9542
MethodName	-10.9544
geometry	-10.9546
DIS	-10.9546
▁events	-10.9547
CmsUUID	-10.955
ChangeListener	-10.9556
Share	-10.9559
▁shift	-10.9562
Organization	-10.9567
anno	-10.9567
▁instanceValue	-10.9567
Cmd	-10.9576
permission	-10.9581
resolved	-10.9585
removeAll	-10.9589
cleanup	-10.9592
▁CmsException	-10.9594
Cont	-10.9602
Multiple	-10.9607
getJob	-10.9608
Card	-10.9614
[0])	-10.9614
need	-10.9617
logging	-10.9619
xx	-10.962
▁notification	-10.9621
connected	-10.9621
▁selector	-10.9621
▁problem	-10.9625
seq	-10.9631
Changes	-10.9631
success	-10.9633
▁Database	-10.9642
TIMEOUT	-10.9643
Qua	-10.9646
Dep	-10.9649
DOUBLE	-10.9657
mem	-10.9664
plan	-10.9664
Operations	-10.9666
chars	-10.9668
Checkpoint	-10.9668
NodeType	-10.9673
loop	-10.9674
acl	-10.9676
Where	-10.9679
▁sorted	-10.9683
+1)	-10.9685
Registered	-10.9686
Extract	-10.9686
RIGHT	-10.9694
▁eDataType	-10.9695
getPort	-10.9697
▁Enum	-10.9698
▁were	-10.97
Sink	-10.9701
exclude	-10.9701
▁FFDC	-10.9702
move	-10.9703
ible	-10.9704
▁replacement	-10.9714
Jdbc	-10.9722
Links	-10.9723
lastModified	-10.9728
Checker	-10.9732
ServletRequest	-10.9736
LY	-10.9743
orElse	-10.9745
▁button	-10.9746
LocalDate	-10.9747
ParameterTypes	-10.9752
▁javax	-10.9753
pm	-10.9753
▁account	-10.9757
▁Xml	-10.9757
hasMoreElements	-10.976
Go	-10.9763
Bindings	-10.9769
sk	-10.9777
symbol	-10.9777
▁configure	-10.9779
addresource	-10.9782
Added	-10.9784
Sig	-10.9785
▁external	-10.9789
jp	-10.9791
factor	-10.9791
DIR	-10.9793
driver	-10.9793
▁inv	-10.9795
Chart	-10.9799
▁seq	-10.98
signed	-10.98
getOutput	-10.9801
Creator	-10.9804
QueryParam	-10.9808
▁certificate	-10.9809
0000	-10.981
▁flush	-10.9811
Encryption	-10.9813
▁characters	-10.9819
associate	-10.9822
Primary	-10.9822
BufferedReader	-10.9823
Net	-10.9831
▁changes	-10.9833
EQ	-10.9835
assign	-10.9837
network	-10.9838
ENABLED	-10.9842
ned	-10.9844
getDocument	-10.9847
aggregate	-10.9849
relation	-10.9852
Const	-10.9857
▁branch	-10.9858
▁switch	-10.9859
▁Tuple	-10.9863
▁track	-10.9863
Band	-10.9867
phase	-10.987
roll	-10.9871
addTo	-10.9873
_1,	-10.9873
coll	-10.9873
▁fix	-10.9876
subject	-10.9877
keyword	-10.988
Lib	-10.9881
Nanos	-10.9881
Checksum	-10.9889
disk	-10.9895
▁Multi	-10.9899
ReadOnly	-10.9906
SPACE	-10.9907
▁12	-10.9907
▁got	-10.9911
way	-10.9914
▁free	-10.9914
▁fs	-10.9915
FILTER	-10.9917
▁evaluate	-10.9924
ctor	-10.9926
converter	-10.9938
▁InternalXbase	-10.9939
▁primary	-10.994
qual	-10.9944
compressed	-10.9944
OPEN	-10.9953
getSub	-10.9956
CLIENT	-10.9962
predicate	-10.9962
Bootstrap	-10.9962
light	-10.9968
Interfaces	-10.997
LOCK	-10.997
▁runtime	-10.9981
▁returned	-10.9985
▁bound	-10.9993
dp	-10.9996
COLOR	-11.0008
▁Try	-11.0009
Encode	-11.0012
▁binary	-11.0015
rel	-11.0016
identifier	-11.0017
▁Screen	-11.0018
maybe	-11.0018
coordinate	-11.0019
Pipe	-11.0024
▁delay	-11.0024
dispatch	-11.0026
ServletContext	-11.0029
Records	-11.0033
▁big	-11.0033
▁State	-11.0034
SecurityGroup	-11.0035
]))	-11.0035
country	-11.0041
Private	-11.0043
Increment	-11.0045
errors	-11.0051
▁low	-11.006
dfs	-11.0061
▁It	-11.0065
responses	-11.0066
▁throwable	-11.0071
36	-11.0072
norm	-11.0072
▁1));	-11.0073
Estimate	-11.0076
dependencies	-11.0076
fld	-11.0081
▁comparator	-11.0082
▁either	-11.0083
Units	-11.0084
High	-11.0085
rank	-11.0092
encoded	-11.0095
▁shared	-11.0102
▁optional	-11.0105
SO	-11.0107
outputStream	-11.0111
findBy	-11.0111
SYSTEM	-11.0114
FAILED	-11.0114
Sparse	-11.0117
Indexes	-11.0118
Volt	-11.0121
live	-11.0122
beta	-11.0127
px	-11.013
CONTEXT	-11.0138
▁upper	-11.0139
▁adjust	-11.0144
Exchange	-11.0146
cfg	-11.0147
getGroup	-11.0155
Resolution	-11.0158
Lazy	-11.0168
▁contentType	-11.0171
91	-11.0174
Modification	-11.0176
Conn	-11.0176
fp	-11.0181
BYTES	-11.0181
TION	-11.0183
verify	-11.0184
▁ext	-11.0185
getProject	-11.0187
▁driver	-11.0188
Phase	-11.0189
login	-11.0192
tf	-11.0196
Ssl	-11.02
▁authentication	-11.0201
evaluate	-11.0206
launch	-11.0206
ISO	-11.0208
▁seconds	-11.0217
▁means	-11.022
▁tab	-11.0223
▁Remove	-11.0225
LAST	-11.0229
Diagnostic	-11.023
RULE	-11.023
OFFSET	-11.023
Threads	-11.0238
Recognition	-11.0238
43	-11.0238
pass	-11.0242
IMAGE	-11.0245
▁configured	-11.0246
tail	-11.025
registry	-11.025
Recovery	-11.0261
Checked	-11.0261
Defined	-11.0265
vers	-11.0267
▁setting	-11.027
acceptLanguage	-11.0274
quality	-11.0275
repeat	-11.0276
▁'{}'	-11.0276
Dump	-11.0292
Classpath	-11.0296
adapt	-11.0298
terminate	-11.0301
execution	-11.0302
▁Result	-11.0307
Material	-11.0307
Scaling	-11.0308
66	-11.0308
Lower	-11.0308
▁Application	-11.0308
printf	-11.031
constraint	-11.031
Connections	-11.0312
ServiceException	-11.0313
▁'\	-11.0315
("\\"	-11.0317
charset	-11.0329
LU	-11.033
▁$	-11.0339
inject	-11.0342
ApiResponse	-11.0343
Journal	-11.0347
addListener	-11.0347
▁orig	-11.0352
reverse	-11.0356
Ready	-11.0357
Evaluator	-11.0362
serial	-11.0366
NodeList	-11.0368
conversation	-11.037
▁Delete	-11.0372
tran	-11.0375
500	-11.0376
Find	-11.0376
SF	-11.0377
Complex	-11.0386
▁columnName	-11.0391
▁font	-11.0393
▁deserialize	-11.0397
Anno	-11.0399
GRA	-11.04
selector	-11.0408
KeyValue	-11.041
RES	-11.0417
Margin	-11.0417
cloud	-11.0417
▁DevFailed	-11.0418
newArrayList	-11.0418
finished	-11.0421
EST	-11.0423
hostname	-11.0424
getDeclared	-11.0425
HOUR	-11.0425
Based	-11.043
Refresh	-11.0433
▁otherwise	-11.0434
Mirror	-11.0441
▁pending	-11.0442
+1]	-11.0448
geo	-11.0449
NORMAL	-11.0449
Dom	-11.0452
▁Parse	-11.0452
dist	-11.0453
▁grid	-11.0454
▁worker	-11.0457
unset	-11.0462
ServletException	-11.0464
ExecutorService	-11.0465
longValue	-11.0467
▁async	-11.0471
embedded	-11.0473
kernel	-11.0474
Dot	-11.0475
AccountName	-11.0476
fw	-11.0476
▁started	-11.0487
grammarAccess	-11.0489
▁forward	-11.0491
validation	-11.0491
background	-11.0497
Ctx	-11.05
addParameter	-11.0502
mapper	-11.0504
Bottom	-11.0505
▁regex	-11.0505
Inputs	-11.0507
▁again	-11.051
canonical	-11.0513
▁operator	-11.0513
DBConstant	-11.0515
Mean	-11.0517
▁delimiter	-11.052
revision	-11.0521
inherit	-11.0521
Special	-11.0533
JVM	-11.0533
enter	-11.0535
License	-11.0537
Plain	-11.0537
TASK	-11.0545
setDefault	-11.0545
Done	-11.0551
LIMIT	-11.0553
replica	-11.056
JOB	-11.0561
Trust	-11.0565
parsed	-11.0566
▁Use	-11.0568
▁Execution	-11.0569
Linear	-11.0573
Jms	-11.0581
runtime	-11.0584
unregister	-11.059
Reporter	-11.0592
Chrono	-11.0593
transfer	-11.0594
constructor	-11.0598
34	-11.0599
ByteString	-11.06
Maven	-11.0601
writeLock	-11.0606
▁special	-11.061
Locked	-11.0614
qualifier	-11.0617
PS	-11.062
▁stats	-11.0622
enabled	-11.0622
Maximum	-11.0625
AP	-11.0627
Redis	-11.0632
authorization	-11.0633
▁section	-11.0633
...");	-11.0635
vpn	-11.0648
▁depth	-11.0648
▁HTTP	-11.0655
deploy	-11.0657
Naming	-11.0658
getOwner	-11.0659
cpDefinition	-11.0665
LastModified	-11.0669
Instantiation	-11.0671
extended	-11.0671
authentication	-11.0671
Radius	-11.0674
Boundary	-11.0674
grant	-11.0677
▁enum	-11.0683
▁ImmutableList	-11.0699
▁enable	-11.0706
photo	-11.0706
▁2,	-11.0716
Inline	-11.0718
closed	-11.0726
▁proc	-11.0726
LOCAL	-11.0729
Browser	-11.0731
▁Entity	-11.0731
getResources	-11.0733
▁metrics	-11.0736
Surface	-11.0737
getTableName	-11.0743
Inf	-11.0744
las	-11.075
signature	-11.0754
amp	-11.0755
Already	-11.0755
NoSuch	-11.0756
▁Api	-11.0756
Wave	-11.0758
Partial	-11.0759
▁needs	-11.0768
▁box	-11.0768
▁about	-11.0772
cycle	-11.0772
regex	-11.0774
AC	-11.078
perform	-11.0781
folder	-11.0783
Backend	-11.0784
▁ds	-11.0785
Receiver	-11.0789
EM	-11.0791
WebSocket	-11.0792
▁html	-11.0797
Updated	-11.0798
Cap	-11.0803
JDBC	-11.0804
SimpleDateFormat	-11.0805
MATCH	-11.0812
tokenizer	-11.0821
injection	-11.0822
addresources	-11.0824
ACCESS	-11.0829
OT	-11.0831
argument	-11.0837
Clone	-11.0844
Configure	-11.0844
analyze	-11.0845
()+"	-11.0853
Clock	-11.0853
▁resolver	-11.0854
SIMP	-11.0854
izing	-11.0855
Deserializer	-11.0855
readInt	-11.0861
▁Schema	-11.0865
Audio	-11.087
Ratio	-11.0871
Setup	-11.0873
▁modified	-11.0874
urn	-11.0874
bulk	-11.0895
▁timer	-11.0901
Contract	-11.091
opencms	-11.091
▁serializer	-11.0911
▁tail	-11.0911
MINUTE	-11.0912
Red	-11.0917
▁criteria	-11.0919
▁Context	-11.0919
Setter	-11.0927
Jobs	-11.0928
Sibling	-11.0928
clean	-11.0934
Singleton	-11.0936
NoSuchAlgorithm	-11.0939
baos	-11.0939
▁words	-11.0942
Contents	-11.0943
300	-11.0947
▁br	-11.0952
▁NULL	-11.0955
▁place	-11.096
sink	-11.0965
leaf	-11.0966
▁notify	-11.0967
dependency	-11.0967
DMatrixRMaj	-11.097
decimal	-11.0978
license	-11.0978
▁plan	-11.0981
Qualifier	-11.0986
Lambda	-11.0987
setData	-11.0988
workflow	-11.0989
agent	-11.0991
numberOf	-11.0994
Fail	-11.0995
MF	-11.0996
▁reading	-11.1003
Restore	-11.1004
()]);	-11.1012
▁common	-11.1012
middle	-11.1013
▁features	-11.1014
▁radius	-11.1016
▁Short	-11.1016
writeObject	-11.1017
EXCEPTION	-11.102
▁NO	-11.102
▁tasks	-11.1023
ByteBuf	-11.1024
[1]);	-11.1029
percent	-11.103
cnt	-11.1031
▁Return	-11.1032
slice	-11.1033
ErrorMessage	-11.1033
▁fragment	-11.1037
▁master	-11.1037
▁Process	-11.104
week	-11.1041
▁increment	-11.1042
period	-11.1045
ann	-11.1048
▁Types	-11.1051
Dto	-11.1051
Promise	-11.1054
restore	-11.1055
▁principal	-11.1056
▁push	-11.1057
lower	-11.106
arguments	-11.1064
Wrap	-11.1065
("</	-11.1067
▁pixel	-11.1072
:2:	-11.1075
absolute	-11.1079
▁mat	-11.1079
Repeat	-11.108
propName	-11.1082
▁assignment	-11.1085
measure	-11.1087
Dim	-11.1088
Soy	-11.1091
Series	-11.1091
parseLong	-11.1094
section	-11.1096
Clean	-11.1104
setStatus	-11.1104
calculate	-11.1106
unique	-11.1106
getParameters	-11.1106
29	-11.1106
▁transport	-11.1112
▁negative	-11.1112
only	-11.1113
isNotBlank	-11.1113
done	-11.1117
▁accountName	-11.1117
utils	-11.1118
Procedure	-11.1121
netSocketAddress	-11.1122
Delivery	-11.1123
Pure	-11.1123
My	-11.1124
▁credentials	-11.1126
▁monitor	-11.1135
Histogram	-11.1138
▁received	-11.1141
ATOR	-11.1144
observ	-11.1144
▁adapter	-11.1145
UNIT	-11.1145
Finish	-11.1146
39	-11.1147
Upper	-11.1149
Many	-11.1153
Shift	-11.1155
▁priority	-11.1156
Prepare	-11.1161
Feed	-11.1162
MessageFormat	-11.1163
groups	-11.1164
▁variant	-11.1164
Nav	-11.1164
=1;	-11.1168
Broker	-11.1181
▁versionId	-11.1183
slot	-11.1188
tracker	-11.119
▁once	-11.1194
simple	-11.1195
declaration	-11.1198
iFieldSeq	-11.1198
MimeType	-11.1201
▁login	-11.1203
▁fire	-11.1204
War	-11.1205
area	-11.1208
▁BigInteger	-11.1212
Edges	-11.1215
Modify	-11.1216
instant	-11.1216
FailedException	-11.1216
Tax	-11.1217
Ok	-11.122
await	-11.1222
FormatException	-11.1222
Video	-11.1224
metrics	-11.1226
union	-11.1226
▁drop	-11.123
▁restore	-11.1232
Temporal	-11.1232
zoom	-11.1232
89	-11.1232
FE	-11.1235
▁rules	-11.1237
Tail	-11.1245
isNull	-11.1245
▁example	-11.1247
Notation	-11.1249
Mapped	-11.1253
000000	-11.1254
rotate	-11.1259
ext	-11.1262
GVR	-11.1267
Sent	-11.127
Decode	-11.127
▁reduce	-11.1277
▁dist	-11.1277
addAttribute	-11.128
dot	-11.1282
REST	-11.1284
AGE	-11.1285
vector	-11.1286
dict	-11.1288
Requested	-11.1302
▁dot	-11.1307
supported	-11.131
FORM	-11.1312
▁startTime	-11.1318
setMax	-11.1319
▁3;	-11.1329
Multimap	-11.133
▁annotations	-11.1331
focus	-11.1336
▁whether	-11.1336
Blocking	-11.1339
OPTION	-11.1343
▁SAXException	-11.1346
When	-11.1353
getServer	-11.1354
▁occur	-11.1361
▁pt	-11.1363
▁category	-11.1367
BoundingBox	-11.137
manifest	-11.137
▁screen	-11.1373
▁construct	-11.1377
Att	-11.138
▁later	-11.1381
Projection	-11.1382
depth	-11.1389
STORE	-11.1391
▁JsonObject	-11.1391
▁relative	-11.1395
toCharArray	-11.1396
accessToken	-11.1397
DocumentBuilder	-11.1402
Grant	-11.1407
Resp	-11.1408
▁constant	-11.1408
▁initialValue	-11.1411
Switch	-11.1414
getPage	-11.1417
SVG	-11.1423
Appender	-11.1427
locator	-11.1429
▁cf	-11.143
>(_	-11.1432
Consume	-11.1433
transport	-11.1435
▁pc	-11.1436
ONLY	-11.144
PrivateKey	-11.1443
▁userId	-11.1443
White	-11.1448
Square	-11.1449
numeric	-11.1451
('.')	-11.1451
Executable	-11.1456
MenuItem	-11.1456
NUM	-11.1464
FINDER	-11.1466
▁filePath	-11.1468
Initialized	-11.1468
pic	-11.147
Readable	-11.147
Coordinates	-11.1473
DTM	-11.1478
Del	-11.1479
▁sym	-11.1479
patch	-11.1481
▁necessary	-11.1484
Arc	-11.1494
▁components	-11.1498
persistence	-11.1502
▁following	-11.1502
79	-11.1504
ln	-11.1505
▁subscription	-11.1513
Compound	-11.1516
▁declared	-11.1517
▁even	-11.1517
▁quote	-11.1524
nextInt	-11.1524
Alpha	-11.1528
forward	-11.1528
▁rhs	-11.153
▁generated	-11.1536
Detection	-11.1538
tries	-11.1541
emit	-11.1542
▁iteration	-11.1543
SUCCESS	-11.1545
▁permission	-11.1546
wave	-11.1558
connector	-11.1559
updateresources	-11.1563
CONNECTION	-11.1563
compatible	-11.1565
SECOND	-11.157
(0))	-11.1579
▁cipher	-11.158
Terms	-11.158
Policies	-11.1581
78	-11.1582
shared	-11.1584
Sym	-11.1587
Duplicate	-11.159
Fleet	-11.159
vertex	-11.159
Functions	-11.1591
]",	-11.1592
dao	-11.1595
▁due	-11.1597
DRL	-11.1599
binary	-11.16
isArray	-11.1601
▁2]	-11.1602
artifact	-11.1605
73	-11.1606
slash	-11.1608
ThreadPool	-11.161
Transformation	-11.162
MSG	-11.1625
getParam	-11.1627
ACL	-11.163
black	-11.1637
EQUAL	-11.1638
closure	-11.1643
WebApp	-11.1644
Scene	-11.1652
ptr	-11.1653
changed	-11.166
▁direction	-11.1661
Parsed	-11.1663
▁getter	-11.1665
relationship	-11.1666
WORK	-11.167
Parsing	-11.167
▁createOrUpdate	-11.1672
TypeElement	-11.1673
▁attrs	-11.1673
Prc	-11.1679
Translation	-11.1679
exc	-11.168
▁deriv	-11.1685
EntityType	-11.1687
Triple	-11.1688
history	-11.1689
DataStore	-11.1693
▁BufferedImage	-11.1696
▁")");	-11.1698
Secure	-11.1702
verbose	-11.1706
cipher	-11.1707
Classifier	-11.1708
getLocation	-11.171
▁cast	-11.1714
Atoms	-11.1715
Membership	-11.1716
▁generator	-11.1716
getRemote	-11.172
▁reverse	-11.172
BLOCK	-11.1723
▁classpath	-11.1724
TARGET	-11.1724
▁Make	-11.1725
gp	-11.1727
Rev	-11.1729
txt	-11.1732
▁labels	-11.1732
Delimiter	-11.1733
DISPLAY	-11.1733
▁datasource	-11.1741
align	-11.1742
ency	-11.1742
RequestBuilder	-11.1743
▁^	-11.1746
▁60	-11.1749
statistics	-11.1752
Removed	-11.1761
Preferences	-11.1762
sorted	-11.1764
getClassName	-11.1771
Than	-11.1772
Since	-11.1773
recovery	-11.1774
Multipart	-11.1775
▁deployment	-11.1776
annotationType	-11.1777
▁Const	-11.1777
lit	-11.1779
▁based	-11.178
safe	-11.178
('\	-11.1783
imag	-11.179
notification	-11.1792
▁numberOf	-11.1793
▁seed	-11.1796
follow	-11.1796
DESCRIPTION	-11.1796
Iteration	-11.1799
meter	-11.182
▁","	-11.183
runnable	-11.1833
Mouse	-11.1837
ten	-11.1837
EOF	-11.184
Descr	-11.184
registration	-11.1842
OUTPUT	-11.1842
Tracing	-11.1844
PackageName	-11.1848
setAccessible	-11.1849
▁expect	-11.1849
seconds	-11.1851
▁answer	-11.1857
Generate	-11.1859
arc	-11.1866
PARENT	-11.1868
▁hex	-11.1869
▁translate	-11.1871
▁less	-11.1872
upload	-11.1875
▁Now	-11.1882
▁initialized	-11.1885
stub	-11.1886
BAD	-11.1887
LEVEL	-11.1888
▁within	-11.1888
Allow	-11.1896
contentType	-11.19
mitted	-11.1904
Epoch	-11.1906
qualified	-11.1906
offer	-11.191
zero	-11.1911
Round	-11.1915
FLOAT	-11.1915
▁[{}]	-11.1915
family	-11.1915
corner	-11.1915
columnName	-11.1918
graphic	-11.192
Observable	-11.1922
suffix	-11.1922
fraction	-11.1923
proto	-11.1926
REF	-11.1927
JsonNode	-11.1927
Ldap	-11.1934
getFirstChild	-11.1935
▁peer	-11.1941
static	-11.1945
SEVERE	-11.1952
Shell	-11.1952
ROW	-11.1958
floor	-11.197
▁jcasType	-11.197
setEnabled	-11.1976
band	-11.1978
▁Find	-11.1978
Existing	-11.1979
Wildcard	-11.1979
fragment	-11.198
NG	-11.1982
Stamp	-11.1983
▁download	-11.1984
heap	-11.1985
del	-11.1986
Cas	-11.1996
Fault	-11.1998
▁bottom	-11.2003
6570\	-11.2006
Cross	-11.2007
precision	-11.2007
Tango	-11.2011
▁Random	-11.2014
bootstrap	-11.2026
Sentence	-11.2026
MILLISECONDS	-11.2029
Disabled	-11.2037
IOUtils	-11.2041
Two	-11.2045
▁fast	-11.2051
jedis	-11.2068
OpenCms	-11.207
Visit	-11.207
VIEW	-11.2072
anchor	-11.2072
agg	-11.2075
Written	-11.2082
[4]	-11.2085
Hit	-11.2085
▁packageName	-11.2088
DA	-11.2091
failure	-11.2094
getNumberOf	-11.2095
ight	-11.2096
▁digest	-11.2099
compose	-11.2105
hole	-11.2109
dom	-11.211
▁segments	-11.2113
("/")	-11.2114
preference	-11.2116
OVER	-11.2118
getOffset	-11.2118
acquire	-11.2119
Aggregation	-11.2119
_2);	-11.2119
▁how	-11.2119
httpClient	-11.2124
envelope	-11.2128
▁rect	-11.2129
invalidate	-11.213
--------------	-11.2132
▁Don	-11.2132
▁{0}	-11.2133
▁icon	-11.2138
Hierarchy	-11.2138
▁selection	-11.214
▁archive	-11.214
okhttp	-11.2144
QUERY	-11.2147
white	-11.2147
=2;	-11.2147
DT	-11.2149
▁assume	-11.2149
▁refresh	-11.2152
ibility	-11.2156
android	-11.2157
mean	-11.2158
Clear	-11.216
Phrase	-11.2166
ttl	-11.2166
Finished	-11.2166
SHORT	-11.2175
gauge	-11.2175
Fraction	-11.2176
RGB	-11.2179
getIdentifier	-11.218
▁TRACE	-11.2181
screen	-11.2181
pAddParam	-11.2185
Unsigned	-11.2187
WithHttp	-11.219
multiply	-11.2194
▁sent	-11.2197
ACT	-11.2199
TimeUnit	-11.2202
flat	-11.2203
PropertyType	-11.2206
flip	-11.2206
compact	-11.221
▁listBy	-11.2212
ENCODING	-11.2213
45	-11.2216
leave	-11.2224
FFFF	-11.2235
▁packet	-11.2237
Into	-11.2239
▁loaded	-11.2241
DOCUMENT	-11.2241
WORD	-11.2242
led	-11.2243
305	-11.2245
REFERENCE	-11.2251
singleton	-11.2255
RM	-11.226
canvas	-11.2261
features	-11.2264
MPP	-11.2266
Low	-11.2266
72	-11.2272
98	-11.2273
Stroke	-11.2281
▁nested	-11.2284
running	-11.229
True	-11.2296
setTime	-11.2298
spi	-11.2298
Choose	-11.2308
DAO	-11.2311
place	-11.2313
▁"]");	-11.232
vec	-11.232
SiteRoot	-11.2322
rgb	-11.2325
inst	-11.2326
direction	-11.2332
half	-11.2338
CORE	-11.2343
Resolved	-11.2347
▁1);\	-11.2352
Thing	-11.2355
Decimal	-11.2355
async	-11.2356
ResourceInner	-11.236
Serial	-11.2364
NetworkInterface	-11.237
getLabel	-11.2384
STR	-11.2393
Embedded	-11.2394
Monomer	-11.2394
alpha	-11.2397
getDate	-11.2397
pk	-11.2398
getApp	-11.2401
PROCESS	-11.2404
summary	-11.2404
Need	-11.2407
solve	-11.2408
Literals	-11.241
Indicator	-11.2414
drop	-11.2419
Camera	-11.2433
Concurrent	-11.2437
jul	-11.2439
Pack	-11.2442
Initializer	-11.2442
discover	-11.2443
Drawer	-11.2448
▁1;\	-11.2449
STREAM	-11.2452
▁duplicate	-11.2456
IBond	-11.2458
logical	-11.2459
Hashtable	-11.2461
61	-11.2462
eUnset	-11.2463
NaN	-11.2464
finish	-11.2466
Resolve	-11.2469
35	-11.2473
formula	-11.2478
unused	-11.2482
refresh	-11.2487
38	-11.2511
setHeader	-11.2512
HS	-11.2515
▁attributeName	-11.2517
track	-11.252
▁finish	-11.2521
FacesContext	-11.2526
Keep	-11.2534
environment	-11.2537
getTitle	-11.2542
44	-11.2545
▁indices	-11.2546
authenticate	-11.2546
chart	-11.2546
jj	-11.2549
Live	-11.255
contact	-11.2551
attributeName	-11.2551
Replacement	-11.2552
\\"");	-11.2554
▁most	-11.2555
▁capacity	-11.2559
INode	-11.2562
getBean	-11.2567
Now	-11.2568
▁Buffered	-11.2568
Google	-11.2569
Associate	-11.257
▁Mutable	-11.2571
Mock	-11.2572
jcas	-11.2577
Book	-11.2579
filePath	-11.258
▁under	-11.2582
83	-11.2583
42	-11.2583
▁MojoExecution	-11.2589
CLOSE	-11.2592
Publisher	-11.2594
void	-11.2595
booleanValue	-11.2595
▁email	-11.2597
Hidden	-11.2599
CC	-11.2599
540	-11.2611
proc	-11.2611
JAVA	-11.2618
toHexString	-11.2619
TEMPLATE	-11.2628
Difference	-11.2628
▁parsing	-11.2628
ResourceAsStream	-11.2629
struct	-11.2629
Compact	-11.2633
CommercePrice	-11.2633
WHERE	-11.2638
platform	-11.2638
boot	-11.264
▁cos	-11.2645
▁appId	-11.2646
Fire	-11.2647
PROJECT	-11.2648
manage	-11.2649
columnIndex	-11.2657
volume	-11.2658
dup	-11.266
dic	-11.2661
Draw	-11.2672
▁populate	-11.2674
Texture	-11.2675
▁~	-11.2678
capacity	-11.2678
▁managed	-11.2679
2*	-11.2681
PC	-11.2691
lg	-11.2692
▁iterable	-11.2694
NotificationImpl	-11.2695
readLock	-11.2695
bounds	-11.2697
HOST	-11.2697
balance	-11.2698
ARG	-11.2699
▁known	-11.271
func	-11.2716
Deriv	-11.2718
Indexed	-11.2719
JAXB	-11.2727
getSuperclass	-11.2728
protobuf	-11.2729
POINT	-11.2734
Mo	-11.2737
Reserved	-11.2737
▁sw	-11.274
Assertion	-11.2742
▁swap	-11.2743
utf	-11.2744
getTotal	-11.2745
▁TreeMap	-11.2747
getInput	-11.2749
solution	-11.2752
ResponseInner	-11.2754
MULTI	-11.2757
vertices	-11.2757
Ordering	-11.2758
Require	-11.2759
indent	-11.276
addElement	-11.2764
OWL	-11.2767
Additional	-11.2767
edBy	-11.2767
▁)?	-11.2768
Negative	-11.2769
▁"%	-11.2773
readObject	-11.2773
Samples	-11.2775
Groovy	-11.2777
▁oldValue	-11.2783
Coll	-11.2784
ResultInner	-11.2784
("/"))	-11.2785
CONNECT	-11.2787
▁greater	-11.2787
Loading	-11.2788
Force	-11.2792
Concept	-11.2797
Recursive	-11.2797
Subscriber	-11.2801
▁So	-11.2813
loadClass	-11.2816
EntityManager	-11.2823
Compress	-11.2826
CmsException	-11.2827
css	-11.2833
difference	-11.2837
library	-11.2847
chrono	-11.2848
Animator	-11.2848
train	-11.2851
appId	-11.2865
generated	-11.2866
-8");	-11.2866
nav	-11.2869
▁agent	-11.287
URISyntax	-11.2872
▁integer	-11.2875
SB	-11.2877
Proposal	-11.2877
board	-11.2878
behavior	-11.2878
VM	-11.2878
mult	-11.2887
Actual	-11.2888
Best	-11.2888
Categories	-11.2888
Tran	-11.2888
INPUT	-11.289
href	-11.2892
▁processed	-11.2896
built	-11.2898
Idle	-11.2901
▁details	-11.2904
pub	-11.2904
Minimum	-11.2908
listFiles	-11.2909
▁There	-11.2912
lambda	-11.2918
BitSet	-11.2921
Framework	-11.2931
▁JSONException	-11.2932
▁obtain	-11.2933
ordered	-11.2937
GenericType	-11.2948
▁minimum	-11.2957
tive	-11.2962
▁threshold	-11.2963
isEnabled	-11.2967
PrintStream	-11.2969
Roll	-11.2969
662	-11.2974
▁above	-11.2979
isInfoEnabled	-11.2979
▁prob	-11.2981
=%	-11.2982
Ptr	-11.2987
FileUtils	-11.2987
high	-11.2989
Until	-11.299
57\	-11.299
expiration	-11.3
Retrieve	-11.3
▁XMLStream	-11.3001
organization	-11.301
Vpc	-11.301
Perform	-11.3011
shift	-11.3012
KeyArea	-11.3023
reserve	-11.3028
TITLE	-11.303
Corner	-11.303
abort	-11.3031
▁sentence	-11.3033
▁TypeToken	-11.3034
operand	-11.3035
LINK	-11.3041
external	-11.3042
▁completed	-11.3044
eIsSet	-11.3049
▁cb	-11.3049
CURRENT	-11.3051
httpRequest	-11.3051
logp	-11.3053
classLoader	-11.3055
JCR	-11.3056
▁expand	-11.3059
▁history	-11.306
inv	-11.3061
Formula	-11.3062
unexpected	-11.3063
getModifiers	-11.3063
zk	-11.3072
StartTime	-11.3073
▁unknown	-11.3074
304	-11.3076
world	-11.3082
Navigation	-11.3082
ITEM	-11.3083
Attrs	-11.3088
LoadBalancer	-11.3092
jax	-11.3093
▁represent	-11.3093
rawtypes	-11.3094
▁thrown	-11.3096
ZERO	-11.3103
Criterion	-11.3106
▁mid	-11.3108
origin	-11.3112
ordinal	-11.3113
Restriction	-11.3113
broker	-11.3113
TimeoutException	-11.3114
Loaded	-11.312
77	-11.3123
Theme	-11.3124
▁bitmap	-11.3124
setParent	-11.3127
related	-11.313
Anchor	-11.3134
mkdirs	-11.3134
Sender	-11.3136
Csv	-11.3136
▁stored	-11.3138
deep	-11.3139
getStyle	-11.3147
▁permissions	-11.315
FACTORY	-11.3155
EDataType	-11.3161
GrayF	-11.3165
09	-11.3168
reserved	-11.3171
ATED	-11.3174
▁scheme	-11.3179
JSType	-11.3181
▁[{}]",	-11.3183
serializer	-11.3185
RESPONSE	-11.3186
Exact	-11.3188
▁Comparable	-11.3194
Align	-11.3195
CAT	-11.3195
PROPERTIES	-11.3196
defaultValue	-11.3197
correct	-11.3199
series	-11.3199
DER	-11.3199
▁1:	-11.32
(":")	-11.321
▁[%	-11.3211
syntax	-11.3217
Chronology	-11.3217
video	-11.3217
claim	-11.3217
isEvent	-11.3219
▁pid	-11.3222
processed	-11.3223
jarFile	-11.3226
intersect	-11.3226
PH	-11.3226
upgrade	-11.3227
CmsContainer	-11.3227
hex	-11.3228
Meter	-11.3229
cv	-11.3229
▁redirect	-11.3233
SecretKey	-11.3234
^=	-11.3236
▁something	-11.3239
algorithm	-11.3245
▁did	-11.3249
Secondary	-11.325
successful	-11.3252
statusCode	-11.3252
executeUpdate	-11.3255
RECORD	-11.3256
CmsProperty	-11.3258
dependent	-11.3261
additional	-11.3266
principal	-11.3267
TypeReference	-11.3269
▁operations	-11.3279
choice	-11.328
▁transition	-11.3283
▁fn	-11.3288
▁modify	-11.3291
▁recursive	-11.3295
FEATURE	-11.3301
Unicode	-11.3301
actor	-11.3301
Percent	-11.3302
Flat	-11.3302
("$	-11.3303
priority	-11.3309
Trail	-11.3312
signal	-11.3313
txn	-11.3318
AccessControl	-11.332
generator	-11.3321
▁HtmlTree	-11.3322
CALL	-11.3325
▁waiting	-11.3326
▁via	-11.3331
composite	-11.3333
kill	-11.3335
Quick	-11.3343
PACKAGE	-11.3343
framework	-11.3345
CmsXmlContent	-11.3345
construct	-11.3351
▁sl	-11.3353
JsonArray	-11.3354
TypeVariable	-11.336
amount	-11.3361
UIComponent	-11.3366
wrapper	-11.3376
QueryResult	-11.3379
CommonTree	-11.338
Known	-11.3386
generic	-11.3386
FileStatus	-11.339
coding	-11.3397
structure	-11.3399
toJson	-11.34
▁getOrCreate	-11.3414
▁strip	-11.3414
metaData	-11.3415
PUBLIC	-11.3417
Quota	-11.3418
getCanonicalName	-11.3418
getDeclaredField	-11.3419
308	-11.3424
Canonical	-11.3428
desired	-11.3428
GO	-11.3428
SCRIPT	-11.3433
▁actually	-11.3435
▁primitive	-11.3436
rotation	-11.3439
terior	-11.3443
Bulk	-11.345
clause	-11.345
Cols	-11.345
registered	-11.3454
▁entityType	-11.3456
=\\""	-11.3464
getSchema	-11.3466
Age	-11.348
ValueEnforcer	-11.3482
stride	-11.3483
▁positive	-11.3485
dispose	-11.3489
Mutation	-11.3492
Orientation	-11.3493
Should	-11.3493
category	-11.3496
Pin	-11.3505
▁invocation	-11.3509
Tmp	-11.3509
Pri	-11.3511
IES	-11.3513
Suggest	-11.3514
EDIT	-11.3525
Inventory	-11.3525
Heap	-11.3525
extra	-11.3527
▁instantiate	-11.3534
Play	-11.3535
("&	-11.3536
getSymbol	-11.3537
Popup	-11.3546
▁interceptor	-11.3547
Successful	-11.3548
84	-11.3572
▁8;	-11.3576
Cycle	-11.3579
pid	-11.3579
Srv	-11.3584
49	-11.3587
Faces	-11.359
Invoice	-11.3598
▁pro	-11.3602
apiKey	-11.3604
94	-11.3611
orig	-11.3616
negative	-11.3624
RandomVariable	-11.3624
CB	-11.3624
ction	-11.3627
bytesRead	-11.3629
▁padding	-11.3634
128	-11.3651
parseDouble	-11.3655
big	-11.3659
Nested	-11.3666
NextWith	-11.3675
training	-11.3676
FAILURE	-11.3677
mutable	-11.3679
▁many	-11.3681
▁tolerance	-11.3684
getReturnType	-11.3689
createNew	-11.369
projection	-11.3694
isNaN	-11.3697
07	-11.3702
▁prevent	-11.3704
setVisible	-11.3705
Deploy	-11.3709
openg	-11.371
Reverse	-11.3711
semantics	-11.3721
ACC	-11.3721
Ticket	-11.3727
Alternative	-11.3732
choose	-11.3732
Dialect	-11.3732
internalRequest	-11.3735
06	-11.3739
INFINITY	-11.3743
▁'-'	-11.3755
mimeType	-11.3755
Div	-11.3756
ServiceInterface	-11.3758
Representation	-11.3765
InProgress	-11.3766
Price	-11.3767
keyArea	-11.3779
41	-11.3781
setColor	-11.3783
ocpDate	-11.3787
STYLE	-11.3787
Macro	-11.3788
retrieve	-11.3788
MalformedURL	-11.3788
Upgrade	-11.3798
Health	-11.3803
▁their	-11.3806
"));\	-11.3807
Gallery	-11.3809
Vault	-11.3809
ancestor	-11.3809
Lexer	-11.3809
Capture	-11.3809
(",");	-11.3809
TextField	-11.3813
47	-11.3816
association	-11.382
worker	-11.3821
COM	-11.3826
1000	-11.3828
Starting	-11.3829
CONSTRAINT	-11.3831
supplier	-11.3831
Generation	-11.3832
ticket	-11.3839
SUCH	-11.3841
vaultBaseUrl	-11.3842
deployment	-11.3847
Shadow	-11.3853
BufferedImage	-11.3857
Raster	-11.3865
swap	-11.3865
STATIC	-11.3876
WEB	-11.3876
▁starting	-11.3878
Azure	-11.3887
nano	-11.3893
UserId	-11.3896
FIRST	-11.3898
RESULT	-11.3899
Strip	-11.3904
Receive	-11.3905
isInstance	-11.3908
Wrapped	-11.391
program	-11.3914
resume	-11.392
Trade	-11.3922
fos	-11.3925
Utf	-11.3926
PM	-11.393
Sarl	-11.3933
DESC	-11.3934
ANT	-11.3939
moveTo	-11.3941
Self	-11.3943
fmt	-11.3946
_0));	-11.3948
override	-11.3949
Dec	-11.3949
ToBe	-11.3954
▁InternalXtext	-11.3954
META	-11.3959
InMillis	-11.396
packageName	-11.3961
Acl	-11.3962
Cli	-11.3969
ADDRESS	-11.3977
Answer	-11.3977
VALID	-11.398
ApiException	-11.3985
Possible	-11.3988
pivot	-11.3989
LABEL	-11.3999
REC	-11.4001
Enclosing	-11.4011
replication	-11.4015
Console	-11.4021
Iterate	-11.4025
Declared	-11.4032
translation	-11.4034
LoggingUtil	-11.4036
unmodifiable	-11.4041
Func	-11.4043
encrypted	-11.4043
!",	-11.4046
Jedis	-11.4046
Binder	-11.4046
pipe	-11.4046
Ho	-11.4054
Reflect	-11.4057
▁trying	-11.4058
secure	-11.4061
▁currently	-11.4062
redirect	-11.4064
Disable	-11.4064
resourceName	-11.4069
ny	-11.407
▁below	-11.407
ILL	-11.4073
Comparison	-11.4079
EXPRESSION	-11.4079
StandardCharset	-11.408
tenant	-11.408
Exist	-11.4087
billingAccount	-11.409
CHANNEL	-11.409
reportError	-11.4092
escaped	-11.4106
accessor	-11.4109
getStatusCode	-11.4111
SUFFIX	-11.4113
compareAndSet	-11.4113
OperationStatus	-11.4117
major	-11.4125
swing	-11.4126
userId	-11.4129
Pid	-11.4133
BetaApi	-11.4136
click	-11.4144
getFull	-11.4152
▁side	-11.4156
alarm	-11.4159
Destroy	-11.4159
StartIndex	-11.4165
INITIAL	-11.4171
▁such	-11.4171
criteria	-11.4172
nanoTime	-11.4176
SCHEMA	-11.4182
broadcast	-11.4182
▁LinkedHashSet	-11.4182
▁dt	-11.4183
LD	-11.4191
molecule	-11.4194
Zoom	-11.4194
MQ	-11.4195
flag	-11.4203
SCOPE	-11.4205
Slash	-11.4205
Inverse	-11.4207
getDatabase	-11.4212
analysis	-11.4217
Degree	-11.4217
persistent	-11.4217
▁coreType	-11.4218
mix	-11.4226
isTraceEnabled	-11.4228
▁creating	-11.4228
Discovery	-11.4232
>0)	-11.4239
recycle	-11.4239
▁enough	-11.424
LOCATION	-11.424
team	-11.4241
Authority	-11.4242
Minutes	-11.4248
ARY	-11.4249
isAnnotation	-11.425
Look	-11.4251
▁databaseName	-11.4254
jsp	-11.4256
You	-11.4259
keyspace	-11.4269
mol	-11.427
support	-11.4271
CSV	-11.4272
iterable	-11.4278
aught	-11.4281
37	-11.4285
Broadcast	-11.4286
Implicit	-11.4286
={}	-11.4296
EXIST	-11.4298
bottom	-11.4303
Mongo	-11.4321
▁ModelNode	-11.4327
discard	-11.4329
Foreign	-11.4345
deserialize	-11.4347
JobExecution	-11.4355
average	-11.4356
klass	-11.4357
codePoint	-11.4357
DefaultValue	-11.4369
▁occurred	-11.4369
executorService	-11.4371
ship	-11.4372
WebElement	-11.4373
▁requires	-11.4375
Abort	-11.438
Integration	-11.438
Canvas	-11.4391
console	-11.4391
ALLOW	-11.4392
="+	-11.4394
Initialize	-11.4394
CacheKey	-11.4396
FacesConfig	-11.4397
getConstructor	-11.4397
Fn	-11.4397
-1]	-11.4398
SDVariable	-11.4404
getDimension	-11.4411
Queries	-11.4415
"1:	-11.4416
Sep	-11.4416
▁)*	-11.4422
archive	-11.4423
SINGLE	-11.4427
Deferred	-11.4427
estimate	-11.4427
Sdk	-11.443
Apply	-11.4432
orderBy	-11.4439
minus	-11.4441
Pay	-11.4443
▁dimensions	-11.4445
EntityMetadata	-11.4446
histogram	-11.445
▁ifNoneMatch	-11.445
▁BpsimPackage	-11.4451
intersection	-11.4453
expanded	-11.4456
ObjectMapper	-11.4456
hidden	-11.4462
payment	-11.4463
HttpSession	-11.4466
reduce	-11.4473
Optimiz	-11.4474
upper	-11.4477
delay	-11.4478
branch	-11.4484
annotate	-11.4485
Dns	-11.4487
writeByte	-11.449
WithHeaders	-11.4496
Implementation	-11.4498
Spatial	-11.4498
81	-11.4504
visited	-11.4508
Eval	-11.4511
numerator	-11.4512
Ordered	-11.4516
csv	-11.4521
Bracket	-11.4522
Physical	-11.4522
getRootPath	-11.4524
master	-11.4533
baseUrl	-11.4534
ByResourceGroup	-11.4536
pay	-11.4537
EXT	-11.4542
definition	-11.4545
Exclusive	-11.4545
messaging	-11.4545
▁'\\\\'	-11.4546
extend	-11.4546
("}");	-11.4556
snapshot	-11.457
SortedSet	-11.4572
operationType	-11.4577
CommerceDiscount	-11.4581
health	-11.4581
Crypto	-11.4586
Determin	-11.4595
abilities	-11.4605
audio	-11.4605
TODO	-11.4609
FL	-11.4611
Spi	-11.4616
Frequency	-11.4617
Activation	-11.4617
Training	-11.4617
traverse	-11.4618
RPC	-11.4625
Working	-11.4625
disconnect	-11.4626
atomContainer	-11.4627
FULL	-11.463
Player	-11.4634
(-1);	-11.4636
NF	-11.4636
Sketch	-11.4642
article	-11.4643
Solr	-11.4644
Coords	-11.4644
Ack	-11.4654
Please	-11.4661
alg	-11.4663
dateTime	-11.4664
Handshake	-11.4666
Tenant	-11.4666
COL	-11.4666
HttpHeaders	-11.4667
OFF	-11.4669
pat	-11.4671
Mismatch	-11.468
closeQuietly	-11.4691
facet	-11.4693
ClickListener	-11.4697
Exec	-11.4699
Thrift	-11.4702
instruction	-11.4702
Subnet	-11.4705
ANY	-11.4709
Preview	-11.4711
AndGet	-11.4713
allowed	-11.4724
Gradient	-11.4726
suspend	-11.4727
Expired	-11.4728
INF	-11.4731
executeQuery	-11.4733
setCurrent	-11.4735
▁&=	-11.4738
Aggregator	-11.4738
▁every	-11.4738
▁MozuUrl	-11.4738
ACTIVE	-11.4739
▁inside	-11.4739
Jcr	-11.4742
ption	-11.4743
Compile	-11.4745
\\""	-11.4752
Atlas	-11.4752
Trie	-11.4758
HostName	-11.4762
SDK	-11.4763
LOW	-11.4765
fast	-11.4769
Err	-11.477
▁QueryUtil	-11.4775
PropertyKey	-11.4779
Repo	-11.4784
EXTENSION	-11.4787
Between	-11.4787
Bin	-11.4792
Overlay	-11.4799
DIRECT	-11.4799
Rollback	-11.48
Verify	-11.48
soft	-11.4806
scheme	-11.4807
▁directly	-11.4812
getParentFile	-11.4816
queries	-11.4824
Picker	-11.4836
appendChild	-11.4846
character	-11.4846
getRuntime	-11.485
OptionRel	-11.4855
primary	-11.4858
(".")	-11.4859
UserSegmentRel	-11.4861
ASCII	-11.4861
Suite	-11.4862
math	-11.487
Hadoop	-11.4873
evaluation	-11.4873
Perm	-11.4876
▁"-"	-11.4882
unknown	-11.4884
explicit	-11.4885
increase	-11.4886
addStatement	-11.4886
GEN	-11.489
AddOn	-11.4906
Slide	-11.4911
Sku	-11.4913
CONFIGURATION	-11.4923
▁anything	-11.4925
Reload	-11.4929
getSelected	-11.493
Watermark	-11.4935
truncate	-11.4935
Alg	-11.494
fromJson	-11.4944
writing	-11.4948
BeanDefinition	-11.4948
LayoutParams	-11.4948
Requirement	-11.4949
jms	-11.4965
Parallel	-11.4972
▁Otherwise	-11.4972
▁clientId	-11.4978
Money	-11.4985
Combine	-11.4985
putInt	-11.4986
▁associated	-11.4987
Micro	-11.4987
readResource	-11.4991
Alt	-11.4995
BufferedWriter	-11.4999
Compression	-11.4999
46	-11.5003
SessionId	-11.5006
elapsed	-11.501
ofNullable	-11.5025
▁endIndex	-11.5028
procedure	-11.5035
Migration	-11.5035
Soft	-11.5035
comparator	-11.5037
Light	-11.504
singletonList	-11.5042
alloc	-11.5043
▁/=	-11.5053
▁','	-11.5056
WorkUnit	-11.5059
("{}	-11.5061
example	-11.5063
voice	-11.5063
GC	-11.5064
Submit	-11.5066
workUnit	-11.5066
CONTROL	-11.5073
HEIGHT	-11.5073
UTC	-11.5073
writeTo	-11.5073
ROLE	-11.5076
▁calling	-11.5082
Some	-11.5088
VAL	-11.5089
HttpStatus	-11.5092
writeAttribute	-11.5096
Machine	-11.5097
ratio	-11.5099
Related	-11.51
completed	-11.512
AccessToken	-11.5122
CWSI	-11.5124
author	-11.5126
assignment	-11.5129
Rotation	-11.5136
enclosing	-11.5136
Must	-11.5137
SuccessResponse	-11.5137
(4);	-11.514
Inst	-11.5148
BEGIN	-11.5148
Inclusive	-11.5148
addPostParam	-11.515
DefinitionInner	-11.5151
Fallback	-11.5161
BOOLEAN	-11.5161
Transient	-11.5162
Inherit	-11.5164
subtract	-11.5165
Aliases	-11.5169
unwrap	-11.517
Hdr	-11.5172
Grammar	-11.5174
Decision	-11.5174
Vertical	-11.5174
679	-11.5174
putIfAbsent	-11.5176
sax	-11.5176
Union	-11.5177
Detect	-11.5182
isPrimitive	-11.5193
Encrypt	-11.5198
TIMESTAMP	-11.5199
Touch	-11.5199
diag	-11.5205
radius	-11.5206
JarFile	-11.5207
incoming	-11.5215
ChangeEvent	-11.522
HEAD	-11.5224
popup	-11.5227
SearchResult	-11.523
Coord	-11.5234
got	-11.5235
suppress	-11.5237
▁consider	-11.5238
AUTO	-11.5238
underlying	-11.5238
=0	-11.5238
Initialization	-11.5239
alignment	-11.5239
85	-11.5239
modified	-11.5246
sigma	-11.525
wise	-11.5251
attributeValue	-11.5252
runner	-11.5254
JavaClass	-11.5254
74	-11.5259
Blank	-11.5261
wildcard	-11.5263
variance	-11.5263
CENTER	-11.5276
lifecycle	-11.5276
Ret	-11.5276
Kernel	-11.5277
▁RemoteException	-11.5294
Expect	-11.5295
was	-11.5296
Bridge	-11.5302
Translator	-11.5302
('/')	-11.5302
KeyPair	-11.5311
Amazon	-11.5315
INTEGER	-11.5315
Semantic	-11.5315
evict	-11.5315
Swap	-11.5318
drawable	-11.5321
Coverage	-11.5328
NN	-11.5332
pixel	-11.5338
ommerceWarehouse	-11.5342
reject	-11.5343
Git	-11.5349
lazy	-11.5352
translate	-11.5352
Terminate	-11.5354
Tier	-11.5355
▁TreeSet	-11.5358
LocalDateTime	-11.5359
missing	-11.5365
Mime	-11.5371
~	-11.5378
▁dec	-11.5379
BufferSize	-11.5389
JavaType	-11.5394
123	-11.5397
Accessible	-11.5398
foo	-11.5402
secondary	-11.5403
MAC	-11.5404
ZipFile	-11.5404
operator	-11.5405
margin	-11.5406
DOT	-11.5408
eforeCall	-11.5413
overlap	-11.5419
ImmutableList	-11.5429
Black	-11.5431
handshake	-11.5431
animation	-11.5434
projectIdOrPath	-11.5435
TEMP	-11.5437
ClassDescriptor	-11.5444
Occur	-11.5444
BOUND	-11.5444
potential	-11.5444
inverse	-11.5445
pause	-11.5445
▁annotated	-11.5446
ValidateB	-11.5448
Preferred	-11.5457
preferred	-11.5457
Claim	-11.5458
adjust	-11.546
py	-11.547
▁checksum	-11.5472
PRIORITY	-11.5483
DFS	-11.5489
placeholder	-11.5491
Retention	-11.5497
TypeEnumEEnum	-11.5497
Placement	-11.5498
Construct	-11.5506
atMissing	-11.5506
decl	-11.5507
Voice	-11.551
featOkTst	-11.551
Catch	-11.551
latest	-11.5514
dmanager	-11.5515
>>>>()	-11.5517
Temporary	-11.5523
commercePrice	-11.5534
Kam	-11.5534
shadow	-11.5536
Budget	-11.5536
Room	-11.5536
promise	-11.5537
hide	-11.5544
QueryBuilder	-11.5557
prob	-11.5559
srv	-11.5561
walk	-11.5563
ZipEntry	-11.5575
Privilege	-11.5576
crc	-11.5577
Walk	-11.5578
08	-11.558
deriv	-11.5582
GENERIC	-11.5589
Letter	-11.5602
Unchecked	-11.5603
indices	-11.5608
Conditional	-11.5609
grow	-11.5618
Analyzer	-11.5621
Expire	-11.5627
Compilation	-11.5629
Allocation	-11.5629
Ancestor	-11.5629
categories	-11.5642
▁cost	-11.565
UserInfo	-11.5657
maven	-11.5669
replacement	-11.5685
CASE	-11.5689
containing	-11.569
Heartbeat	-11.5696
INTERVAL	-11.5698
ItemStream	-11.5701
optional	-11.5709
optimize	-11.571
Ident	-11.5713
Scriptable	-11.5716
CmsXml	-11.5717
constant	-11.5719
IgnoreCase	-11.5719
:5:	-11.5729
transition	-11.5732
authorize	-11.5739
Plus	-11.574
blue	-11.5744
NumberOf	-11.5751
Sys	-11.5752
PARAMETERS	-11.5757
▁checked	-11.5761
MARK	-11.5762
SEC	-11.5771
▁really	-11.5775
Classification	-11.5775
Positive	-11.5776
FRAME	-11.5777
capture	-11.5777
leader	-11.5777
Signal	-11.5777
PoolSize	-11.5782
lineNumber	-11.5788
▁"_"	-11.5789
PASSWORD	-11.579
completion	-11.579
Sensitive	-11.579
COMMA	-11.579
lease	-11.5797
possible	-11.5801
Substitution	-11.5804
RSA	-11.5807
delivery	-11.5809
checkFor	-11.581
Was	-11.5813
Lit	-11.5823
onError	-11.5826
SequenceNumber	-11.5828
OrWhitespaceOnly	-11.5831
Android	-11.5831
Own	-11.5838
facesContext	-11.5844
JPA	-11.5848
That	-11.5849
Quality	-11.5858
▁coordinates	-11.5863
remainder	-11.5871
▁leaving	-11.5871
subscription	-11.5872
Jwt	-11.5872
Processed	-11.5872
Comm	-11.5873
ldap	-11.5875
isStatic	-11.5878
WEEK	-11.5885
Insets	-11.5885
IGNORE	-11.5885
hand	-11.5892
PhoneNumber	-11.5892
▁AssertionError	-11.5899
Serialized	-11.5899
jvm	-11.5905
Realm	-11.5907
CREATED	-11.5907
blocking	-11.591
Ascii	-11.5912
Pull	-11.5913
▁PagedList	-11.5913
normal	-11.592
▁indicate	-11.5926
Average	-11.5926
guess	-11.5926
leading	-11.5926
LogRecord	-11.5932
Para	-11.5935
▁itself	-11.5936
Participant	-11.594
alluxio	-11.594
Hive	-11.5947
prepareStatement	-11.5952
foreign	-11.5954
flatten	-11.5954
Portal	-11.5956
Chat	-11.5962
▁"'"	-11.5964
Alarm	-11.5967
▁conversion	-11.5972
doclet	-11.5977
Rewrite	-11.5981
reflect	-11.5983
stamp	-11.5985
Reject	-11.5995
Outbound	-11.5998
Clip	-11.5999
detect	-11.6
issue	-11.6002
isClosed	-11.6005
download	-11.6012
Horizontal	-11.6022
effective	-11.6023
ANNOTATION	-11.6036
kam	-11.6042
getNextToken	-11.6048
Rank	-11.605
Creating	-11.605
ANCE	-11.6054
▁hold	-11.6056
drag	-11.6058
arrow	-11.606
Longitude	-11.6064
DeclaringClass	-11.6064
Scalar	-11.6064
Tensor	-11.6064
Hyper	-11.6072
Subscribe	-11.6073
startDate	-11.6078
VISIBLE	-11.6078
FUNCTION	-11.6078
Neighbor	-11.6078
TRACE	-11.6084
AndNext	-11.6089
Balance	-11.6092
Leader	-11.6092
QUOTE	-11.6106
FormalParameter	-11.6106
RANGE	-11.6106
Kafka	-11.612
parallel	-11.612
packet	-11.612
▁getting	-11.6126
vserver	-11.6128
Directories	-11.6134
front	-11.6134
PdfName	-11.6141
most	-11.6146
titutionHeadName	-11.6148
Placeholder	-11.6148
BEAN	-11.6149
Injector	-11.615
contract	-11.6159
git	-11.6163
BIG	-11.6165
soapModel	-11.6166
QueryParameter	-11.6179
Malformed	-11.6188
(':')	-11.6197
Then	-11.6201
selection	-11.6202
Actor	-11.6214
win	-11.6219
▁well	-11.6222
NAMESPACE	-11.6223
when	-11.6232
withParam	-11.6243
DryRun	-11.6247
invert	-11.6247
PlanNode	-11.6251
comma	-11.6252
gml	-11.6262
ENTRY	-11.6275
Expiration	-11.6275
WINDOW	-11.6275
IPv	-11.6278
▁better	-11.6303
MODEL	-11.6304
Routing	-11.632
DBObject	-11.6323
CPDefinitionId	-11.6328
responseFields	-11.6343
isTrue	-11.6343
touch	-11.6344
Decorator	-11.6346
THE	-11.6347
SUM	-11.6357
RESULTS	-11.6359
Summaries	-11.636
deliver	-11.6372
Provide	-11.6372
DELIMITER	-11.6374
INTER	-11.6387
cacheKey	-11.6388
Gap	-11.6388
dispatcher	-11.6388
SCREEN	-11.6389
OPERATION	-11.6389
raft	-11.639
Just	-11.6391
injector	-11.6394
Compat	-11.6395
occurrence	-11.6403
▁evt	-11.6408
Collect	-11.6414
Needed	-11.6414
MILLIS	-11.6418
NotEmpty	-11.6418
JavaScript	-11.642
fetchBy	-11.6424
CommerceOrder	-11.644
BINARY	-11.6447
OrderBy	-11.6457
clearCache	-11.6461
formatUrl	-11.6465
AWS	-11.6469
press	-11.6474
theta	-11.6475
Vertices	-11.6476
rootPath	-11.6488
Precision	-11.649
limited	-11.6494
Lang	-11.6497
pageContext	-11.6498
Inbound	-11.6503
propagate	-11.6505
purge	-11.6505
DoubleMatrix	-11.6507
World	-11.6519
Suppress	-11.6519
POSITION	-11.6519
deviceProxy	-11.653
Spliterator	-11.6534
▁InvalidArgument	-11.6537
MAIN	-11.6541
readByte	-11.6542
entityMetadata	-11.6545
Proc	-11.6547
XAResource	-11.6552
answer	-11.6554
COMPLETE	-11.6563
centroid	-11.6563
Spring	-11.6569
Bool	-11.6577
jjt	-11.6578
EntityRole	-11.6582
memory	-11.6585
▁converted	-11.6589
Poly	-11.659
Corporation	-11.6598
avail	-11.6603
gallery	-11.6606
ARGUMENT	-11.6607
Logical	-11.6608
LEN	-11.6612
jndi	-11.6622
Explicit	-11.6636
IfNot	-11.6646
Buff	-11.6648
DOWN	-11.6651
Alluxio	-11.6651
Calculate	-11.6651
▁'"'	-11.6651
CAN	-11.6653
Stub	-11.6654
{0}	-11.666
Instrument	-11.6666
Compatible	-11.6666
93	-11.6678
SYNC	-11.668
doPrivileged	-11.6682
ceil	-11.6683
bitmap	-11.6687
threshold	-11.669
commerceDiscount	-11.6695
aux	-11.67
Dispatch	-11.6703
▁executeGet	-11.6714
feat	-11.6722
issues	-11.6724
PROXY	-11.6725
camera	-11.6725
findFirst	-11.6726
Gson	-11.6731
cannot	-11.6737
Cassandra	-11.674
ServiceReference	-11.675
Skipped	-11.6756
Circuit	-11.6757
CmsSearch	-11.6758
SecurityManager	-11.6759
IZED	-11.6761
Reaction	-11.6762
PrivilegedAction	-11.6768
interpolat	-11.6769
IDENTIFIER	-11.677
getComponentType	-11.6771
lazyGet	-11.6771
:7:	-11.6772
share	-11.6782
heartbeat	-11.6784
thrift	-11.6784
Finding	-11.679
SARL	-11.6793
InternalSARL	-11.6794
▁encrypt	-11.6798
rootNode	-11.6799
syn	-11.6799
Occurrence	-11.6799
Hierarchical	-11.6799
▁creation	-11.68
Unsafe	-11.6806
Excel	-11.6812
dialect	-11.6814
accumulator	-11.6814
mgr	-11.6816
aking	-11.6817
hasText	-11.6819
Localization	-11.6819
sendMessage	-11.6824
▁specify	-11.683
unmarshal	-11.6843
suggest	-11.6844
quick	-11.6846
636	-11.6851
▁blockSize	-11.6852
[5]	-11.6877
Maybe	-11.689
illegal	-11.689
trimmed	-11.689
Editable	-11.6894
errorCode	-11.6895
bmd	-11.6903
unicode	-11.6905
FIX	-11.6906
Appendable	-11.6915
fold	-11.6916
POOL	-11.692
mount	-11.6922
FormattedMessage	-11.6923
Drag	-11.6932
backend	-11.6932
Front	-11.6935
REMOVE	-11.6935
serialization	-11.6949
delimiter	-11.6952
Dirty	-11.6958
baseDir	-11.6961
machine	-11.6965
▁overflow	-11.6967
Comparable	-11.6969
Outcome	-11.697
pull	-11.6971
kw	-11.6982
tackTraceElement	-11.6994
terminal	-11.6996
general	-11.6998
Translate	-11.7012
STOP	-11.7015
relativePath	-11.7017
EOL	-11.7024
phoneNumber	-11.7028
CODES	-11.703
▁care	-11.7032
Define	-11.7032
nonce	-11.7041
Cardinality	-11.7042
Photo	-11.7042
retain	-11.7044
declared	-11.7047
CAS	-11.7047
accountId	-11.7055
Dense	-11.7058
Abs	-11.7068
Deque	-11.707
temporal	-11.7073
Oracle	-11.7073
inflate	-11.7081
Mat	-11.7085
Elastic	-11.7087
tuple	-11.7094
Effect	-11.7103
Dependent	-11.7103
Jenkins	-11.7103
Verbose	-11.7103
Benchmark	-11.7103
orientation	-11.7103
Unavailable	-11.711
timeZone	-11.7116
PROTOCOL	-11.7119
abstract	-11.7119
Effective	-11.7119
implicit	-11.7134
Signed	-11.7137
Syn	-11.7137
ToUse	-11.7142
Circle	-11.7149
Termination	-11.7149
certificate	-11.715
:3:	-11.7153
IllegalState	-11.7155
entering	-11.7159
Messaging	-11.7164
disc	-11.7166
Synchronization	-11.7168
CheckBox	-11.7169
take	-11.7171
Soap	-11.7174
rowIndex	-11.7179
cardinality	-11.718
snmp	-11.7182
jcr	-11.7186
gate	-11.7191
SQLite	-11.7196
Datum	-11.7196
IMPORT	-11.7197
Way	-11.7211
Adjustment	-11.7212
triple	-11.7213
IZE	-11.7214
▁executeDescribe	-11.7215
Cleanup	-11.7229
▁won	-11.7229
Polling	-11.7235
Accumulator	-11.7243
Wiki	-11.7243
budget	-11.7243
Markup	-11.7247
400	-11.7248
Cnt	-11.725
DEV	-11.7258
Footer	-11.7258
latitude	-11.7259
IPAddress	-11.7271
▁findAll	-11.7271
bridge	-11.7275
OfDay	-11.7277
▁NOTE	-11.7282
timezone	-11.7287
LocalService	-11.729
Latitude	-11.729
Durable	-11.729
generation	-11.729
Motion	-11.7291
FINER	-11.7301
Drools	-11.7305
instrument	-11.7306
▁reached	-11.7306
DDRM	-11.7306
\\\\\\\\	-11.7309
VirtualNetwork	-11.7311
ZonedDateTime	-11.7321
FINEST	-11.7324
▁restart	-11.7334
Confirm	-11.7337
multipart	-11.7337
Wire	-11.7346
-8"	-11.7351
Severity	-11.7353
recognize	-11.7353
Deletion	-11.7353
Directive	-11.7354
Minute	-11.7355
Intern	-11.7365
COMMENT	-11.7368
▁GitLabApi	-11.7368
Business	-11.7369
Jinx	-11.737
spring	-11.7376
guid	-11.738
poly	-11.7381
▁pick	-11.7383
Correct	-11.7385
detach	-11.7385
Mixin	-11.7386
THREAD	-11.7386
conditional	-11.7391
reason	-11.74
While	-11.7401
METRIC	-11.7401
▁successfully	-11.7401
regorianCalendar	-11.7402
Normalized	-11.7402
upperBound	-11.7408
AccessController	-11.741
AtomContainer	-11.741
longitude	-11.7416
Docker	-11.7417
DOC	-11.7431
gateway	-11.7432
DIRECTORY	-11.7432
Authenticate	-11.7446
▁handling	-11.7448
incrementAndGet	-11.7448
Gitlab	-11.7448
const	-11.745
population	-11.7464
journal	-11.7464
▁EFapsException	-11.7464
cred	-11.7465
▁those	-11.7465
maximum	-11.7465
management	-11.7466
queryParam	-11.7487
tsdb	-11.7496
RenderingHints	-11.7497
PolicyInner	-11.7503
readOnly	-11.7511
WAIT	-11.7512
hadoop	-11.7512
Most	-11.7517
similar	-11.7528
CmsUser	-11.7529
OrNull	-11.7535
StorageAccount	-11.7541
ThreadLocal	-11.7542
visibility	-11.7544
exponent	-11.7545
Purchase	-11.7545
Statistic	-11.7546
884	-11.7548
PAREN	-11.7549
siteRoot	-11.7552
Logic	-11.7555
EndPoint	-11.7558
INSERT	-11.7561
quoted	-11.7561
predict	-11.7562
6587\	-11.7576
ICON	-11.7576
▁"0"	-11.7593
+1;	-11.7598
CompanyId	-11.7603
Inject	-11.7605
commandLine	-11.7609
QUA	-11.7618
▁':'	-11.7619
violation	-11.7625
Power	-11.7625
Like	-11.7626
Seen	-11.7627
populate	-11.7631
present	-11.7632
UserSegmentEntry	-11.7633
ClassCast	-11.7638
hop	-11.7642
OLD	-11.765
'0'	-11.7655
Traversal	-11.7658
synchronous	-11.7658
scaling	-11.766
soap	-11.767
ICE	-11.7671
meth	-11.7674
Txn	-11.7675
Toolbar	-11.7676
▁boundary	-11.7676
datastore	-11.7678
decrement	-11.769
LITERAL	-11.7691
Adapt	-11.7701
SIGN	-11.7706
fatal	-11.7709
requirement	-11.771
Mac	-11.7722
PubSub	-11.7724
▁parameterTypes	-11.7728
byteBuffer	-11.7729
scene	-11.7729
FOLDER	-11.774
dictionary	-11.774
CUSTOM	-11.774
Verification	-11.774
▁'9'	-11.774
▁against	-11.7745
attempt	-11.7749
Extend	-11.7752
material	-11.7756
neighbour	-11.7756
assertNotNull	-11.7769
Jawr	-11.7773
CPRule	-11.7774
classifier	-11.7786
Historic	-11.7789
GZIP	-11.7789
Aws	-11.7802
Recipient	-11.7806
SECURITY	-11.7806
TRANSACTION	-11.7806
caption	-11.7811
observable	-11.7814
▁XbasePackage	-11.7822
horizontal	-11.7822
shell	-11.7825
▁KNX	-11.7834
IZATION	-11.7839
xsd	-11.7849
openConnection	-11.785
dummy	-11.7855
COMMAND	-11.7855
POSITIVE	-11.7856
SIErrorException	-11.7856
DOMAIN	-11.7856
Concat	-11.7857
EXTRA	-11.7865
sentence	-11.7868
Guard	-11.7872
Design	-11.788
buildingFunction	-11.7889
elementAt	-11.7894
Deep	-11.7895
learn	-11.7905
gamma	-11.7905
appfw	-11.7913
TrustManager	-11.7913
MEMBER	-11.7922
Fingerprint	-11.7922
regular	-11.7922
▁'\\''	-11.7922
FLOW	-11.7933
DEF	-11.7939
Polymer	-11.7939
Capability	-11.7939
radix	-11.794
trail	-11.7942
unmodifiableList	-11.7944
Jmx	-11.7959
CAP	-11.7962
INVOKE	-11.7973
alphabet	-11.7974
SSLContext	-11.7975
degree	-11.7978
HEX	-11.7983
Attach	-11.7998
Tracking	-11.7998
divisor	-11.8006
writable	-11.8006
HASH	-11.8009
afpChain	-11.8023
comparison	-11.8024
stringBuilder	-11.8027
Compose	-11.8042
motion	-11.8061
synchroniz	-11.8067
Enc	-11.8068
Cut	-11.807
expand	-11.8074
Protection	-11.8075
adwords	-11.8077
openStream	-11.808
tempFile	-11.8092
grpc	-11.81
Take	-11.8101
MAPPING	-11.8108
SKIP	-11.8108
SERIAL	-11.8125
directories	-11.8125
evaluator	-11.8125
Stereo	-11.8125
Allocate	-11.8125
▁everything	-11.8125
parseBoolean	-11.8134
IpAddress	-11.8138
Monetary	-11.8142
serviceEndpoint	-11.8144
rtn	-11.8147
MBeanServer	-11.8148
69	-11.8149
Campaign	-11.815
Provisioning	-11.8151
Structural	-11.8159
AFTER	-11.8159
▁trailing	-11.816
IfNeeded	-11.816
OPTIONS	-11.8164
webApp	-11.8172
oauth	-11.8176
MODIFIED	-11.8176
consistent	-11.8176
***************	-11.8176
SEGMENT	-11.8176
sketch	-11.8176
▁probably	-11.8176
▁"\\""	-11.8177
▁implemented	-11.8177
HtmlTag	-11.8182
Poll	-11.8185
Always	-11.8194
OTHER	-11.8194
PRIMARY	-11.8194
FastMath	-11.8196
getChildNodes	-11.8197
▁exceed	-11.8199
BiFunction	-11.8202
CLOSED	-11.8205
TRA	-11.821
ESCAPE	-11.8211
ganizationalUnit	-11.8218
like	-11.8243
phrase	-11.8246
Restart	-11.8251
slide	-11.8254
CLI	-11.8256
negate	-11.8262
Factories	-11.8265
cular	-11.8266
accessible	-11.8266
cuda	-11.8275
anim	-11.8276
yyyy	-11.828
alternate	-11.828
diagnostic	-11.828
sanitize	-11.828
conflict	-11.828
PARSE	-11.8284
CANCEL	-11.829
declare	-11.8297
Reliability	-11.8297
question	-11.8297
room	-11.8303
-8"));	-11.8307
specific	-11.831
Handling	-11.8315
False	-11.8315
DecimalFormat	-11.8317
▁hql	-11.8321
Norm	-11.8321
-----	-11.833
Molecule	-11.8332
Compliance	-11.8332
PREFERRED	-11.835
WebDriver	-11.8353
ProcessInstance	-11.8355
HealthCheck	-11.8359
Pub	-11.8363
Rtf	-11.8374
mandatory	-11.8385
Evict	-11.8385
Crawl	-11.8385
xctxt	-11.8385
aaa	-11.8386
duplicate	-11.8396
Built	-11.8402
DTD	-11.8413
Smart	-11.842
notEmpty	-11.842
▁gson	-11.842
CHARSET	-11.8422
INCLUDE	-11.8437
Capabilities	-11.8438
Adjust	-11.8438
footer	-11.8439
ReturnCode	-11.8452
hierarchy	-11.8455
201809.	-11.8455
Lexicon	-11.8473
Enter	-11.8473
BODY	-11.849
Caption	-11.8491
hdr	-11.8492
▁'_'	-11.8503
TTL	-11.8507
SEARCH	-11.8508
GrayU	-11.8508
Billing	-11.8508
intern	-11.8521
ASSIGN	-11.8526
Colon	-11.8531
ANCHOR	-11.8544
activation	-11.8544
▁appropriate	-11.8544
naming	-11.8563
Ajax	-11.857
Skill	-11.8572
▁metaModel	-11.8574
▁had	-11.8578
alternative	-11.8579
deprecated	-11.8579
Startup	-11.8583
texture	-11.8588
PersistenceUnit	-11.8592
▁didn	-11.8592
▁nvae	-11.8597
▁reload	-11.8597
VoltDB	-11.8599
Era	-11.8609
RFC	-11.8614
CONF	-11.8622
dirty	-11.8625
Adj	-11.8626
Convention	-11.8633
DayOfWeek	-11.8633
Legacy	-11.8633
Cfg	-11.8634
AfplibPackage	-11.8634
Coding	-11.8637
WAS	-11.8638
Attached	-11.8641
UpperBound	-11.8649
correlation	-11.8651
keep	-11.8651
Cpu	-11.8654
ENUM	-11.8657
▁mixin	-11.866
cond	-11.8665
Img	-11.8671
Offline	-11.8677
blockLength	-11.8686
7528\	-11.8686
Failover	-11.8688
▁timeUnit	-11.8692
substitute	-11.8705
Axiom	-11.8705
DETAIL	-11.8705
▁resolution	-11.8708
MOVE	-11.8715
▁DMatrix	-11.8718
:9:	-11.8718
Verifier	-11.8723
ENGLISH	-11.8741
confirm	-11.8741
SIBUuid	-11.8741
distribution	-11.8743
getDisplayName	-11.8745
jwt	-11.8745
primitive	-11.8746
Mono	-11.8747
SITE	-11.8748
Comma	-11.876
could	-11.8764
HAS	-11.8768
tunnel	-11.8778
gradient	-11.8778
navigation	-11.8778
Major	-11.8778
LANGUAGE	-11.8778
Similar	-11.8778
▁druidG	-11.8778
gwt	-11.8779
ControlFlow	-11.8786
Mojo	-11.8796
503	-11.8797
parms	-11.8803
UrlFormatter	-11.8811
Dict	-11.8814
mpxj	-11.8815
Paragraph	-11.8815
lowerBound	-11.8823
hasMoreTokens	-11.8833
getMaxResults	-11.8836
▁')'	-11.8837
encryption	-11.8838
Neighbour	-11.8851
Concurrency	-11.8853
Retries	-11.8855
RDF	-11.8865
QUEUE	-11.8869
Modifiable	-11.8869
serializable	-11.887
▁TypesPackage	-11.8875
7684	-11.8882
committed	-11.8883
SOAP	-11.8888
MessagingEngine	-11.8889
MeasureEClass	-11.8892
Workplace	-11.8897
PRIVATE	-11.8906
deferred	-11.8906
that	-11.8907
▁JspException	-11.8909
succ	-11.8911
DESTINATION	-11.8925
Seek	-11.893
Formatted	-11.894
6709\	-11.8942
Descendant	-11.8943
▁outside	-11.8944
nested	-11.8954
NotSupported	-11.8954
▁executeDelete	-11.8956
SPECIFIC	-11.8962
vertical	-11.8963
DECIMAL	-11.898
recipient	-11.898
spliterator	-11.8981
objectMapper	-11.8985
izable	-11.8999
NoViableAlt	-11.8999
!!!	-11.9001
Facade	-11.9018
provision	-11.9036
CHANGED	-11.905
▁separate	-11.9055
REGEX	-11.9056
directive	-11.9056
Javadoc	-11.906
MODULE	-11.9074
SHIFT	-11.9074
boundingBox	-11.9074
Pause	-11.9074
Specified	-11.9079
-----------	-11.908
unsafe	-11.9087
compound	-11.9112
CHANGE	-11.9116
Interaction	-11.9133
typedArray	-11.9144
VARIABLE	-11.9149
Conflict	-11.9149
pretty	-11.9149
bookmark	-11.915
Corrupt	-11.9168
Velocity	-11.9168
Anim	-11.9171
routing	-11.918
▁depend	-11.9184
PROVIDER	-11.9187
WsByteBuffer	-11.9188
Workbook	-11.9189
▁'='	-11.92
Planar	-11.9204
MIME	-11.9208
unpack	-11.9218
TaxFixedRate	-11.9225
▁CDKException	-11.9225
SECTION	-11.9225
interceptor	-11.9227
Strict	-11.9228
relative	-11.9242
5982	-11.9243
REMOTE	-11.9244
SUPPORTED	-11.9244
Regular	-11.9244
Isotope	-11.9244
padding	-11.9246
FTP	-11.9246
ZooKeeper	-11.9263
circuit	-11.9264
SocketAddress	-11.9264
modify	-11.9266
Saml	-11.9283
marshal	-11.9296
membership	-11.9298
▁give	-11.9298
Large	-11.93
prototype	-11.9301
magic	-11.9304
Measurement	-11.9305
LOCALE	-11.9305
enqueue	-11.9315
probability	-11.9331
TimeStamp	-11.9333
Discriminator	-11.934
expiry	-11.934
Reservation	-11.934
FaxJob	-11.9341
Ruby	-11.9342
Daemon	-11.936
expect	-11.9373
Communication	-11.9379
Pojo	-11.9379
which	-11.9383
placement	-11.9386
overlay	-11.9389
knowledge	-11.9398
UNIQUE	-11.9398
Yaml	-11.9398
▁automation	-11.941
VirtualMachine	-11.9412
green	-11.9417
Mention	-11.9418
Small	-11.9418
authority	-11.9419
copied	-11.9437
kunderaMetadata	-11.9437
migration	-11.9437
Good	-11.9438
wire	-11.9455
INTERFACE	-11.9457
Suspend	-11.9457
MARKER	-11.9459
▁whole	-11.9461
problem	-11.9463
getOrCreate	-11.9463
integer	-11.9464
CHARACTER	-11.9476
Assessment	-11.9476
arameterizedHost	-11.9478
OptionValueRel	-11.9497
Keras	-11.9502
Inspect	-11.9517
Except	-11.9534
Elasticsearch	-11.9536
JDK	-11.9536
[6]	-11.9553
Mount	-11.9555
proceed	-11.9559
KNN	-11.9567
FriendlyURLEntry	-11.9574
Embeddable	-11.9575
micro	-11.9578
Overflow	-11.9579
jmx	-11.9585
campaign	-11.9591
DIGIT	-11.9594
Wrong	-11.9594
NameValuePair	-11.9595
Protected	-11.9599
SCALE	-11.9614
scenario	-11.9614
PGP	-11.9615
extent	-11.963
Ignoring	-11.9634
bldr	-11.9641
obtain	-11.9644
▁ruleJvm	-11.965
Consistency	-11.9654
HANDLER	-11.9657
Agg	-11.9692
Foreground	-11.9693
TierPriceEntry	-11.9694
▁virtualNetwork	-11.9694
▁performance	-11.9696
Customizer	-11.9697
already	-11.9707
distribut	-11.9712
crop	-11.9713
ough	-11.9713
distinct	-11.9734
FACE	-11.9734
REPORT	-11.9738
▁caught	-11.9743
CONTAINER	-11.9754
ACCEPT	-11.9754
absent	-11.9756
latch	-11.9769
Analytic	-11.9794
getElementsByTag	-11.9794
CommerceWishList	-11.9794
ActionPerformed	-11.9794
Avro	-11.9794
Extent	-11.9795
networkInterface	-11.9805
getStructureId	-11.9814
semantic	-11.9815
0.5	-11.9832
RUNNING	-11.9835
Guacamole	-11.9835
▁entire	-11.9835
ENDPOINT	-11.9836
Polyline	-11.9837
aggregation	-11.9855
Slave	-11.9855
Plural	-11.9855
cess	-11.9861
Gauge	-11.9875
exclusive	-11.9875
Leading	-11.9875
▁simply	-11.9875
▁appear	-11.9881
polyline	-11.9898
Blue	-11.9904
Ovh	-11.9915
deprecation	-11.9916
loadBalancer	-11.9916
_1_0	-11.992
initCause	-11.9924
FAIL	-11.9935
NEGATIVE	-11.9936
Scenario	-11.9957
MEDIA	-11.9957
FINISH	-11.9977
RoundingMode	-11.9977
▁classloader	-11.9983
BUTTON	-11.9998
decorator	-11.9998
STEP	-11.9998
▁good	-12
'#'	-12.0002
▁'['	-12.0003
LAYER	-12.0019
corpus	-12.0019
▁properly	-12.0019
ColumnFamily	-12.0029
▁treat	-12.0036
Lost	-12.0039
Fax	-12.004
EDGE	-12.0041
minimum	-12.0042
▁expired	-12.0043
mutate	-12.0046
Installation	-12.0052
shuffle	-12.006
THRESHOLD	-12.006
Boot	-12.006
Stylesheet	-12.0065
circle	-12.0081
parallelism	-12.0081
Closing	-12.0081
ACCOUNT	-12.0081
CmsPublish	-12.0085
must	-12.0086
observation	-12.0099
Interleaved	-12.0101
overridden	-12.0101
github	-12.0101
Evidence	-12.0122
Divider	-12.0122
inspection	-12.0123
DDL	-12.0141
loss	-12.0142
restriction	-12.0142
faxJob	-12.0143
Surrogate	-12.0143
Storable	-12.0143
prompt	-12.0143
weak	-12.0145
stylesheet	-12.0148
:1:	-12.0154
Quantity	-12.0164
Expiry	-12.0164
nternalPureXbase	-12.0164
Rotate	-12.0164
ctrl	-12.0178
Authenticator	-12.0185
Distributed	-12.0185
▁immediately	-12.0185
ItsId	-12.0186
PERMISSION	-12.0227
CONDITION	-12.0227
CmsDbContext	-12.0227
Skin	-12.0228
▁Joiner	-12.0232
prepend	-12.0239
Discover	-12.0242
SEQUENCE	-12.0248
legacy	-12.0248
▁further	-12.0248
▁FIXME	-12.0248
JMX	-12.0248
Doclet	-12.0257
invocation	-12.0257
MainRecord	-12.0258
Agreement	-12.0269
pRqVs	-12.0269
Guild	-12.0269
Inside	-12.027
METADATA	-12.0271
aintenanceWindow	-12.0276
MISSING	-12.029
Configurator	-12.0291
CommerceShipping	-12.0291
Recent	-12.0301
Calculator	-12.0312
traffic	-12.0312
▁according	-12.0312
fault	-12.0319
▁whitespace	-12.0333
Plot	-12.0333
▁very	-12.0335
HANDLE	-12.035
RETRY	-12.0354
▁stopped	-12.0357
SafeVarargs	-12.0358
UnknownHost	-12.036
Robot	-12.0376
DEVICE	-12.0376
JOIN	-12.0376
ZONE	-12.0382
monomer	-12.0397
Through	-12.0419
ALGORITHM	-12.0419
frequency	-12.0419
consistency	-12.0419
dManagerServices	-12.042
gress	-12.0428
lationalDatabase	-12.0432
BUILD	-12.044
aggregator	-12.044
ALPHA	-12.044
Assembly	-12.044
REPLACE	-12.0441
Moment	-12.0442
LESS	-12.0446
interpreter	-12.0462
FONT	-12.0462
Have	-12.0463
dtm	-12.0469
BUNDLE	-12.0483
Article	-12.0483
plot	-12.0491
(',');	-12.0505
Isolation	-12.0505
Identification	-12.0505
('=')	-12.0506
crl	-12.0508
ALIGN	-12.0527
RandomAccessFile	-12.0527
Discard	-12.0528
discount	-12.0531
SharedPreference	-12.0549
suite	-12.0552
Alphabet	-12.057
Webhook	-12.057
▁'*'	-12.0571
coerce	-12.0572
phone	-12.0587
quad	-12.0589
MANAGER	-12.0592
Caching	-12.0593
Overlap	-12.0593
▁initialization	-12.0594
Nano	-12.0608
Explorer	-12.0614
▁explicitly	-12.0614
MXBean	-12.0614
look	-12.0622
SYMBOL	-12.0636
guarantee	-12.0636
Highlight	-12.0636
emitter	-12.0638
Vert	-12.0656
Stopped	-12.066
PLACE	-12.0678
Either	-12.068
Arithmetic	-12.068
▁'>'	-12.0695
pojo	-12.0702
rslt	-12.0707
CmsWorkplace	-12.0714
ENCRYPT	-12.0724
▁reflection	-12.0724
SAML	-12.0725
SORT	-12.0729
***	-12.0733
HOLDER	-12.0746
collapse	-12.0746
BEFORE	-12.0746
▁supplied	-12.0746
Presence	-12.0746
Milliseconds	-12.0747
Resume	-12.0754
Offering	-12.0769
Correlation	-12.079
HIGH	-12.0791
Twitter	-12.0791
wiki	-12.0791
Cancelled	-12.0791
Intersection	-12.0792
SimpleAntlr	-12.0813
Road	-12.0813
Performance	-12.0814
bool	-12.0819
grammar	-12.0834
individual	-12.0835
▁removing	-12.0835
Hello	-12.0835
CProductId	-12.0836
▁GeoPackage	-12.0858
▁hard	-12.0858
Construction	-12.0861
Sound	-12.0862
COPY	-12.088
challenge	-12.088
Half	-12.088
piece	-12.0885
Interrupt	-12.0895
getSitePath	-12.0903
serialVersionUID	-12.0903
DISABLED	-12.0925
introspect	-12.0925
CONSTANT	-12.0925
LOGICAL	-12.0925
assembl	-12.0925
createTempFile	-12.0926
PROFILE	-12.0927
small	-12.0939
COMMIT	-12.0948
DURATION	-12.0948
prediction	-12.095
5408\	-12.097
historic	-12.097
Radio	-12.0971
severity	-12.0971
vendor	-12.0971
Singular	-12.0993
intuit	-12.0993
UOW	-12.0993
>(){}	-12.1016
reachable	-12.1016
▁milliseconds	-12.1016
CDKConstant	-12.1016
JWT	-12.1017
attrib	-12.1018
FETCH	-12.1039
Given	-12.1039
enumeration	-12.104
5206\	-12.1061
IfNecessary	-12.1062
GRAPH	-12.1062
COLON	-12.1086
Provision	-12.1096
highlight	-12.1098
Residue	-12.1108
RecyclerView	-12.1108
GMT	-12.111
ExpressRoute	-12.1112
Parallelism	-12.1131
Dashboard	-12.1131
decision	-12.1131
Creative	-12.1131
lemma	-12.1141
Serialize	-12.1145
needle	-12.1148
CheckReturnValue	-12.1154
MachineScaleSet	-12.1162
Analyze	-12.1167
QUE	-12.1175
isibleForTesting	-12.1177
bracket	-12.1177
Vendor	-12.12
Question	-12.12
equivalent	-12.12
Incoming	-12.12
Apptentive	-12.1224
ByUuidAnd	-12.1224
tensor	-12.1224
Bookmark	-12.1224
▁beginning	-12.1226
Qualified	-12.1226
Exponent	-12.1247
Liberty	-12.1247
Evaluate	-12.1247
Jpa	-12.1249
Deserialization	-12.125
SPEC	-12.1255
ASCENDING	-12.127
yaml	-12.1273
Configurable	-12.1294
achmentFileEntry	-12.1307
3092	-12.1316
▁shut	-12.1317
Probability	-12.1318
Nature	-12.1341
isotope	-12.1341
WRAP	-12.1342
sarl	-12.1343
Stanza	-12.1364
Facebook	-12.1364
▁executing	-12.1364
▁finderArgs	-12.1364
▁']'	-12.1366
▁anyway	-12.1367
gfx	-12.1367
proj	-12.1367
animate	-12.1378
JNDI	-12.1388
intermediate	-12.1388
FINAL	-12.1388
AutoCommit	-12.1391
dashboard	-12.1411
MASTER	-12.1412
('.',	-12.1412
chosen	-12.1412
exist	-12.1421
MEMORY	-12.1435
STATEMENT	-12.146
LowerBound	-12.1467
Credit	-12.1479
ALIAS	-12.1483
dedicated	-12.1507
Detach	-12.1507
Omemo	-12.1507
POLICY	-12.1507
Latency	-12.1508
indicator	-12.1531
getSrvOrm	-12.1555
translator	-12.1555
glyph	-12.1555
Tunnel	-12.1555
Hybrid	-12.1555
morph	-12.1555
surface	-12.1557
capitalize	-12.1579
commerceWishList	-12.1579
participant	-12.1579
proposal	-12.1579
SQUARE	-12.1579
▁much	-12.158
Milli	-12.1591
Rich	-12.1597
NUMERIC	-12.1603
outgoing	-12.1603
ncies	-12.1626
ComboBox	-12.1627
GLOBAL	-12.1627
Equivalence	-12.1627
Company	-12.1638
MESSAGING	-12.1651
isWarnEnabled	-12.1652
Greater	-12.1652
LDAP	-12.1652
▁SIConnection	-12.1653
[{}]	-12.1657
aspect	-12.1673
LISTENER	-12.1676
("*")	-12.1684
ENCE	-12.1694
Centroid	-12.17
Ontology	-12.17
Acquire	-12.17
▁'+'	-12.1702
WHITE	-12.1725
XmlPullParser	-12.1725
Unmarshaller	-12.1725
executable	-12.1743
Pretty	-12.1749
RESERVED	-12.1749
volution	-12.1749
getCanonicalPath	-12.1749
decorate	-12.175
▁power	-12.1752
initiate	-12.177
▁'<'	-12.1774
Alternate	-12.1774
Inference	-12.1774
SMALL	-12.1774
STRUCT	-12.1774
Interpreter	-12.1798
docker	-12.1801
Glyph	-12.1823
physical	-12.1823
▁rather	-12.1823
spatial	-12.1823
ConnectGateway	-12.1825
JvmTypeReference	-12.1832
5728\	-12.1847
findViewById	-12.1848
FIND	-12.187
CmsVaadin	-12.1872
BACKGROUND	-12.1873
Stopwatch	-12.1875
edSetException	-12.1875
Electron	-12.1897
commerceShipping	-12.1898
ommerceCountryId	-12.1901
PROGRESS	-12.1922
Thumbnail	-12.1923
business	-12.1923
Triangle	-12.1923
Solver	-12.1948
▁bDisplayOption	-12.1948
readFully	-12.1948
*****	-12.1953
frag	-12.1977
CLUSTER	-12.1998
isInfinite	-12.1998
intensity	-12.1998
isErrorEnabled	-12.1998
Equivalent	-12.2023
Feedback	-12.2024
NDArray	-12.2037
Maintenance	-12.2041
workplace	-12.2044
8981	-12.2047
AGENT	-12.2067
Sanitiz	-12.2073
CPOptionCategory	-12.2074
gather	-12.2074
getActualType	-12.2074
mongo	-12.2075
Synchronize	-12.2083
UNDEFINED	-12.2099
Attrib	-12.2124
pReqVars	-12.2124
HALF	-12.215
decrease	-12.2175
commonspec	-12.2185
================	-12.2202
Citrus	-12.2227
vault	-12.2227
▁exactly	-12.2227
vocab	-12.2252
RENDER	-12.2252
ABSTRACT	-12.2252
Pressed	-12.2253
corrupt	-12.2253
third	-12.2253
EXPORT	-12.2253
Ledger	-12.2305
Phone	-12.2317
DROP	-12.233
inventory	-12.233
WeakReference	-12.233
LightweightType	-12.233
chargingStation	-12.2331
reactant	-12.2356
Collision	-12.2356
SecureRandom	-12.2357
Loss	-12.2366
guard	-12.2382
Intrinsic	-12.2382
Friend	-12.2383
storm	-12.2384
BLANK	-12.2409
▁encountered	-12.2409
Software	-12.2409
▁mismatch	-12.2414
("#"	-12.243
synpred	-12.2435
Allocator	-12.2435
Controllable	-12.2435
stdout	-12.2439
Coordinator	-12.2461
keepAlive	-12.2461
Applied	-12.2461
▁JBBP	-12.2461
Lemma	-12.2464
EXECUTION	-12.2488
bank	-12.2488
COMPONENT	-12.2514
policies	-12.2514
fingerprint	-12.2514
▁having	-12.2514
Percentage	-12.2514
ascii	-12.2541
plural	-12.2541
known	-12.2541
Raid	-12.2543
CONSTRUCTOR	-12.2567
tango	-12.2567
through	-12.2573
DEFINITION	-12.2594
Fluent	-12.2594
highLowContainer	-12.2594
criterion	-12.2594
Challenge	-12.2621
Hibernate	-12.2621
privacy	-12.2621
relevant	-12.2621
MUST	-12.2622
cart	-12.2625
AREA	-12.2646
ffffff	-12.2647
Inflater	-12.2647
computeIfAbsent	-12.2648
JOptionPane	-12.2674
GREATER	-12.2674
Nucleotide	-12.2674
▁though	-12.2675
intercept	-12.2699
SHOW	-12.2701
AVAILABLE	-12.2728
sampling	-12.2755
Discrete	-12.2755
plication	-12.2781
Tooltip	-12.2782
Camel	-12.2782
Recognize	-12.2783
Different	-12.281
multiplier	-12.281
Prediction	-12.281
Raft	-12.281
FORWARD	-12.2837
concept	-12.2837
ROUND	-12.2837
HELP	-12.2841
PARTITION	-12.2864
Knowledge	-12.2864
Variance	-12.2864
Jackson	-12.2864
Simulation	-12.2865
crawl	-12.2866
PUBLISH	-12.2891
Population	-12.2892
Sphere	-12.2892
Simon	-12.2893
PRODUCT	-12.2919
cassandra	-12.2919
STORAGE	-12.292
Compatibility	-12.292
Sleep	-12.2921
Repositories	-12.2947
SLASH	-12.2947
Writing	-12.2947
RoaringBitmap	-12.2947
▁'&'	-12.2947
routine	-12.2949
Outlier	-12.2975
permit	-12.3
Alipay	-12.3003
two	-12.3003
TILE	-12.3007
EMAIL	-12.303
CHILD	-12.303
ORIGIN	-12.303
▁XtextPackage	-12.303
Guess	-12.303
-2$	-12.3031
HORIZONTAL	-12.3058
watermark	-12.3058
pagination	-12.3058
flickr	-12.3058
saml	-12.3064
Activate	-12.3086
privilege	-12.3086
▁'{'	-12.3095
Proxies	-12.3095
Facelet	-12.3114
compilation	-12.3115
coverage	-12.3115
tworkWatcherName	-12.3115
presence	-12.3115
▁AtomicInteger	-12.3115
getInitParameter	-12.3115
createOrUpdate	-12.3138
Nearest	-12.3143
OJB	-12.3143
Jingle	-12.3143
spark	-12.3144
Glob	-12.3149
Corpus	-12.3171
OVERRIDE	-12.3171
SoFar	-12.3171
CmsRpcAction	-12.3171
polymer	-12.3171
camel	-12.3171
HOME	-12.3199
Spacing	-12.3199
Removing	-12.3199
dayOfWeek	-12.3199
Jdk	-12.3204
Hystrix	-12.3228
FACTOR	-12.3253
talResultSetSize	-12.3256
Anonymous	-12.3256
Protein	-12.3256
Mandatory	-12.3285
Outgoing	-12.3285
Geometries	-12.3285
BASIC	-12.3313
predecessor	-12.3313
declaringClass	-12.3313
residue	-12.3314
Bank	-12.3342
PRINT	-12.3373
[8]	-12.3397
ListAccountRel	-12.34
sound	-12.3401
Navigator	-12.3429
mojo	-12.3429
LatLng	-12.3429
PDF	-12.3445
WRONG	-12.3458
ANGLE	-12.3458
Dummy	-12.3458
RESOLVE	-12.3487
exclusion	-12.3487
sPagedResponse	-12.3493
[7]	-12.3504
STANDARD	-12.3546
accumulate	-12.3546
Intermediate	-12.3546
DYNAMIC	-12.3575
Scheduling	-12.3575
Visual	-12.3575
Skeleton	-12.3575
stereo	-12.3576
XAttribut	-12.3584
groovy	-12.3604
embeddable	-12.3604
Immediate	-12.3634
Denied	-12.3634
agreement	-12.3634
Couchbase	-12.3634
COLLECTION	-12.3634
▁'?'	-12.3635
Distinct	-12.3664
natural	-12.3664
Recurrence	-12.3664
Ctrl	-12.3664
KeeperException	-12.3664
PLUS	-12.3665
zookeeper	-12.3693
BUCKET	-12.3694
SizeInBytes	-12.3694
Interpolator	-12.3723
berOfObjectives	-12.3724
Recommendation	-12.3724
LAYOUT	-12.3753
SCHEME	-12.3753
Episode	-12.3753
COOKIE	-12.3783
